{
  "version": "1.0",
  "truncation": null,
  "padding": null,
  "added_tokens": [
    {
      "id": 0,
      "content": "[UNK]",
      "single_word": false,
      "lstrip": false,
      "rstrip": false,
      "normalized": false,
      "special": true
    },
    {
      "id": 1,
      "content": "[EOS]",
      "single_word": false,
      "lstrip": false,
      "rstrip": false,
      "normalized": false,
      "special": true
    },
    {
      "id": 2,
      "content": "[SOS]",
      "single_word": false,
      "lstrip": false,
      "rstrip": false,
      "normalized": false,
      "special": true
    },
    {
      "id": 3,
      "content": "[PAD]",
      "single_word": false,
      "lstrip": false,
      "rstrip": false,
      "normalized": false,
      "special": true
    }
  ],
  "normalizer": null,
  "pre_tokenizer": {
    "type": "Metaspace",
    "replacement": "▁",
    "prepend_scheme": "always",
    "split": true
  },
  "post_processor": null,
  "decoder": null,
  "model": {
    "type": "BPE",
    "dropout": null,
    "unk_token": "[UNK]",
    "continuing_subword_prefix": null,
    "end_of_word_suffix": null,
    "fuse_unk": false,
    "byte_fallback": false,
    "ignore_merges": false,
    "vocab": {
      "[UNK]": 0,
      "[EOS]": 1,
      "[SOS]": 2,
      "[PAD]": 3,
      "!": 4,
      "\"": 5,
      "&": 6,
      "'": 7,
      "(": 8,
      ")": 9,
      "*": 10,
      "+": 11,
      ",": 12,
      "-": 13,
      ".": 14,
      "/": 15,
      "0": 16,
      "1": 17,
      "2": 18,
      "3": 19,
      "4": 20,
      "5": 21,
      "6": 22,
      "7": 23,
      "8": 24,
      "9": 25,
      ":": 26,
      ";": 27,
      "=": 28,
      "?": 29,
      "A": 30,
      "B": 31,
      "C": 32,
      "D": 33,
      "E": 34,
      "F": 35,
      "G": 36,
      "H": 37,
      "I": 38,
      "J": 39,
      "K": 40,
      "L": 41,
      "M": 42,
      "N": 43,
      "O": 44,
      "P": 45,
      "Q": 46,
      "R": 47,
      "S": 48,
      "T": 49,
      "U": 50,
      "V": 51,
      "W": 52,
      "X": 53,
      "Y": 54,
      "Z": 55,
      "[": 56,
      "]": 57,
      "_": 58,
      "a": 59,
      "b": 60,
      "c": 61,
      "d": 62,
      "e": 63,
      "f": 64,
      "g": 65,
      "h": 66,
      "i": 67,
      "j": 68,
      "k": 69,
      "l": 70,
      "m": 71,
      "n": 72,
      "o": 73,
      "p": 74,
      "q": 75,
      "r": 76,
      "s": 77,
      "t": 78,
      "u": 79,
      "v": 80,
      "w": 81,
      "x": 82,
      "y": 83,
      "z": 84,
      "«": 85,
      "°": 86,
      "»": 87,
      "Ä": 88,
      "Ç": 89,
      "Ö": 90,
      "Ü": 91,
      "ß": 92,
      "à": 93,
      "â": 94,
      "ä": 95,
      "ç": 96,
      "è": 97,
      "é": 98,
      "ê": 99,
      "ë": 100,
      "î": 101,
      "ï": 102,
      "ñ": 103,
      "ò": 104,
      "ô": 105,
      "ö": 106,
      "ü": 107,
      "œ": 108,
      "Α": 109,
      "Γ": 110,
      "Η": 111,
      "Κ": 112,
      "Μ": 113,
      "Ν": 114,
      "α": 115,
      "β": 116,
      "γ": 117,
      "δ": 118,
      "ε": 119,
      "ι": 120,
      "κ": 121,
      "λ": 122,
      "μ": 123,
      "ν": 124,
      "ο": 125,
      "ς": 126,
      "τ": 127,
      "ϕ": 128,
      "Ἀ": 129,
      "Ὀ": 130,
      "έ": 131,
      "ί": 132,
      "ό": 133,
      "–": 134,
      "’": 135,
      "“": 136,
      "„": 137,
      "‹": 138,
      "›": 139,
      "▁": 140,
      "en": 141,
      "er": 142,
      "ch": 143,
      "▁d": 144,
      "ei": 145,
      "ie": 146,
      "▁s": 147,
      "te": 148,
      "nd": 149,
      "ich": 150,
      "▁w": 151,
      "ein": 152,
      "▁a": 153,
      "es": 154,
      "▁i": 155,
      "▁u": 156,
      "▁m": 157,
      "▁g": 158,
      "▁n": 159,
      "▁h": 160,
      "▁und": 161,
      "▁S": 162,
      "▁die": 163,
      "st": 164,
      "▁da": 165,
      "ng": 166,
      "▁ein": 167,
      "▁z": 168,
      "▁v": 169,
      "▁b": 170,
      "ar": 171,
      "hr": 172,
      "▁er": 173,
      "ll": 174,
      "em": 175,
      "▁zu": 176,
      "en,": 177,
      "an": 178,
      "▁A": 179,
      "▁der": 180,
      "el": 181,
      "ig": 182,
      "it": 183,
      "sch": 184,
      "▁au": 185,
      "or": 186,
      "icht": 187,
      "au": 188,
      "on": 189,
      "in": 190,
      "▁G": 191,
      "▁»": 192,
      "▁f": 193,
      "at": 194,
      "ten": 195,
      "▁sie": 196,
      "▁in": 197,
      "ber": 198,
      "▁k": 199,
      "ck": 200,
      "ach": 201,
      "ag": 202,
      "▁E": 203,
      "▁B": 204,
      "lich": 205,
      "▁M": 206,
      "▁den": 207,
      "et": 208,
      "▁W": 209,
      "▁K": 210,
      "▁H": 211,
      "▁D": 212,
      "▁nicht": 213,
      "ung": 214,
      "▁sich": 215,
      "ter": 216,
      "mm": 217,
      "ur": 218,
      "as": 219,
      "▁l": 220,
      "▁war": 221,
      "en.": 222,
      "al": 223,
      "eg": 224,
      "ir": 225,
      "▁F": 226,
      "▁ich": 227,
      "▁sein": 228,
      "hn": 229,
      "▁das": 230,
      "and": 231,
      "▁L": 232,
      "▁so": 233,
      "▁sch": 234,
      "▁mit": 235,
      "▁T": 236,
      "▁auf": 237,
      "de": 238,
      "▁ver": 239,
      "▁ge": 240,
      "ür": 241,
      "▁ihr": 242,
      "der": 243,
      "och": 244,
      "eit": 245,
      "ben": 246,
      "▁hat": 247,
      "re": 248,
      "▁an": 249,
      "▁wie": 250,
      "te,": 251,
      "den": 252,
      "▁es": 253,
      "▁I": 254,
      "▁daß": 255,
      "▁von": 256,
      "t,": 257,
      "e,": 258,
      "gen": 259,
      "▁dem": 260,
      "eh": 261,
      "▁j": 262,
      "▁Sch": 263,
      "▁P": 264,
      "▁Sie": 265,
      "▁dies": 266,
      "ls": 267,
      "▁V": 268,
      "▁un": 269,
      "ann": 270,
      "▁ist": 271,
      "am": 272,
      "▁Z": 273,
      "nder": 274,
      "▁R": 275,
      "eu": 276,
      "tr": 277,
      "hm": 278,
      "▁eine": 279,
      "über": 280,
      "ab": 281,
      "ing": 282,
      "is": 283,
      "ang": 284,
      "hl": 285,
      "un": 286,
      "▁sag": 287,
      "▁des": 288,
      "ehr": 289,
      "▁als": 290,
      "▁U": 291,
      "▁all": 292,
      "nn": 293,
      "sen": 294,
      "▁Au": 295,
      "▁Er": 296,
      "▁o": 297,
      "ew": 298,
      "ro": 299,
      "etz": 300,
      "▁N": 301,
      "▁aus": 302,
      "enn": 303,
      "eich": 304,
      "▁ihn": 305,
      "li": 306,
      "▁wo": 307,
      "ft": 308,
      "▁aber": 309,
      "▁vor": 310,
      "ück": 311,
      "▁r": 312,
      "▁über": 313,
      "▁ihm": 314,
      "▁hatte": 315,
      "ier": 316,
      "▁St": 317,
      "isch": 318,
      "ol": 319,
      "▁um": 320,
      "ind": 321,
      "pf": 322,
      "▁mein": 323,
      "se": 324,
      "anz": 325,
      "end": 326,
      "mmer": 327,
      "ge": 328,
      "▁noch": 329,
      "zu": 330,
      "iel": 331,
      "▁nach": 332,
      ".«": 333,
      "ut": 334,
      "rau": 335,
      "uß": 336,
      "und": 337,
      "▁bei": 338,
      "ff": 339,
      "▁für": 340,
      "eil": 341,
      "▁sagte": 342,
      "▁hin": 343,
      "urch": 344,
      "▁ges": 345,
      "▁st": 346,
      "ern": 347,
      "▁mich": 348,
      "uch": 349,
      "!«": 350,
      "▁einen": 351,
      "ent": 352,
      "▁J": 353,
      "▁Ver": 354,
      "▁Ges": 355,
      "▁mir": 356,
      "rei": 357,
      "▁wir": 358,
      "▁–": 359,
      "omm": 360,
      "▁t": 361,
      "▁im": 362,
      "?«": 363,
      "▁nur": 364,
      "lo": 365,
      "▁gew": 366,
      "▁bes": 367,
      "▁be": 368,
      "▁her": 369,
      "le": 370,
      "▁auch": 371,
      "egen": 372,
      "▁hab": 373,
      "lick": 374,
      "ör": 375,
      "▁du": 376,
      "ieb": 377,
      "t.": 378,
      "igen": 379,
      "äch": 380,
      "eben": 381,
      "te.": 382,
      "elch": 383,
      "▁ganz": 384,
      "wei": 385,
      "▁wer": 386,
      "ahr": 387,
      "ste": 388,
      "▁Die": 389,
      "▁wieder": 390,
      "ill": 391,
      "▁Ar": 392,
      "pr": 393,
      "he": 394,
      "um": 395,
      "▁Ich": 396,
      "▁welch": 397,
      "▁seine": 398,
      "▁durch": 399,
      "«,": 400,
      "▁was": 401,
      "ort": 402,
      "▁wenn": 403,
      "▁einem": 404,
      "ät": 405,
      "oll": 406,
      "ien": 407,
      "il": 408,
      "▁gl": 409,
      "ne": 410,
      "aus": 411,
      "▁man": 412,
      "mal": 413,
      "aß": 414,
      "▁tr": 415,
      "her": 416,
      "chen": 417,
      "eine": 418,
      "keit": 419,
      "sten": 420,
      "▁Ge": 421,
      "etzt": 422,
      "▁Her": 423,
      "om": 424,
      "▁fr": 425,
      "▁zur": 426,
      "ief": 427,
      "▁An": 428,
      "e.": 429,
      "ot": 430,
      "▁doch": 431,
      "..": 432,
      "ige": 433,
      "ster": 434,
      "ten,": 435,
      "▁geh": 436,
      "ank": 437,
      "▁ent": 438,
      "ah": 439,
      "elb": 440,
      "▁einer": 441,
      "jew": 442,
      "▁Gr": 443,
      "ser": 444,
      "är": 445,
      "▁ander": 446,
      "ges": 447,
      "▁O": 448,
      "aft": 449,
      "▁wei": 450,
      "all": 451,
      "lei": 452,
      "ungen": 453,
      "heit": 454,
      "▁unter": 455,
      "▁Augen": 456,
      "▁mach": 457,
      "▁kl": 458,
      "▁ihre": 459,
      "▁dann": 460,
      "sk": 461,
      "▁denn": 462,
      "▁woll": 463,
      "br": 464,
      "▁»I": 465,
      "imm": 466,
      "cht": 467,
      "onn": 468,
      "erk": 469,
      "ieß": 470,
      "tete": 471,
      "▁mehr": 472,
      "▁Und": 473,
      "af": 474,
      "inn": 475,
      "▁»W": 476,
      "änd": 477,
      "▁fü": 478,
      "s,": 479,
      "▁kö": 480,
      "▁seiner": 481,
      "er,": 482,
      "▁Es": 483,
      "▁diese": 484,
      "lichen": 485,
      "ru": 486,
      "▁war,": 487,
      "▁p": 488,
      "▁Ein": 489,
      "▁jetzt": 490,
      "pp": 491,
      "▁ab": 492,
      "a,": 493,
      "▁könn": 494,
      "▁sehr": 495,
      "▁Aber": 496,
      "elbst": 497,
      "blick": 498,
      "▁ger": 499,
      "ehen": 500,
      "▁dar": 501,
      "acht": 502,
      "bar": 503,
      "ön": 504,
      "▁ha": 505,
      "▁beg": 506,
      "äu": 507,
      "chte": 508,
      "ad": 509,
      "ähr": 510,
      "▁schon": 511,
      "zen": 512,
      "▁Der": 513,
      "▁habe": 514,
      "etw": 515,
      "▁nie": 516,
      "▁hatte,": 517,
      "ischen": 518,
      "fü": 519,
      "▁Un": 520,
      "amm": 521,
      "tig": 522,
      "hne": 523,
      "itt": 524,
      "auf": 525,
      "eln": 526,
      "roß": 527,
      "ommen": 528,
      "immer": 529,
      "▁oder": 530,
      "▁»D": 531,
      "▁schw": 532,
      "▁sei": 533,
      "▁selbst": 534,
      "▁immer": 535,
      "▁etw": 536,
      "sam": 537,
      "▁zum": 538,
      "▁sah": 539,
      "ers": 540,
      "▁»Ich": 541,
      "▁Ihr": 542,
      "▁muß": 543,
      "▁lang": 544,
      "▁wur": 545,
      "▁dieser": 546,
      "äng": 547,
      "▁Frau": 548,
      "▁Fr": 549,
      "▁C": 550,
      "ten.": 551,
      "▁soll": 552,
      "be": 553,
      "liche": 554,
      "agen": 555,
      "▁wür": 556,
      "jewin": 557,
      "▁hät": 558,
      "ell": 559,
      "▁Ljewin": 560,
      "itsch": 561,
      "▁sind": 562,
      "▁kann": 563,
      "▁ste": 564,
      "▁,": 565,
      "▁seinen": 566,
      "hen": 567,
      "▁alles": 568,
      "hal": 569,
      "▁groß": 570,
      "us": 571,
      "▁Das": 572,
      "▁je": 573,
      "einen": 574,
      "▁etwas": 575,
      "▁,,": 576,
      "ze": 577,
      "lex": 578,
      "en.«": 579,
      "ehm": 580,
      "▁..": 581,
      "▁Zeit": 582,
      "▁Hand": 583,
      "sen,": 584,
      "tw": 585,
      "▁welche": 586,
      "▁Herr": 587,
      "▁Alex": 588,
      "ul": 589,
      "rie": 590,
      "ri": 591,
      "▁seinem": 592,
      "▁Vor": 593,
      "▁nichts": 594,
      "stand": 595,
      "▁zurück": 596,
      "▁zwei": 597,
      "▁alle": 598,
      "ger": 599,
      "▁ohne": 600,
      "▁ei": 601,
      "schaft": 602,
      "--": 603,
      "bei": 604,
      "tel": 605,
      "▁konn": 606,
      "▁sp": 607,
      "▁Be": 608,
      "iß": 609,
      "▁hier": 610,
      "▁»N": 611,
      "▁»A": 612,
      "ensch": 613,
      "▁»S": 614,
      "ick": 615,
      "▁wen": 616,
      "▁am": 617,
      "▁re": 618,
      "▁meine": 619,
      "▁frag": 620,
      "▁verl": 621,
      "nis": 622,
      "ade": 623,
      "sel": 624,
      "▁wurde": 625,
      "og": 626,
      "▁ging": 627,
      "▁viel": 628,
      "tes": 629,
      "▁In": 630,
      "▁Th": 631,
      "en;": 632,
      "age": 633,
      "▁ihrer": 634,
      "dig": 635,
      "ug": 636,
      "▁ja": 637,
      "los": 638,
      "eb": 639,
      "▁erw": 640,
      "ung,": 641,
      "▁wird": 642,
      "▁haben": 643,
      "▁ang": 644,
      "est": 645,
      "ün": 646,
      "ski": 647,
      "ob": 648,
      "reu": 649,
      "▁schl": 650,
      "▁kam": 651,
      "üt": 652,
      "▁will": 653,
      "▁vers": 654,
      "▁ob": 655,
      "▁br": 656,
      "opf": 657,
      "▁zw": 658,
      "ährend": 659,
      "▁ihren": 660,
      "▁bis": 661,
      "▁gel": 662,
      "▁Mann": 663,
      "▁ber": 664,
      "▁weiß": 665,
      "▁Aus": 666,
      "dem": 667,
      "▁--": 668,
      "▁Gl": 669,
      "▁gesch": 670,
      "gend": 671,
      "ahm": 672,
      "▁waren": 673,
      "ald": 674,
      "▁Augenblick": 675,
      "▁gegen": 676,
      "▁eines": 677,
      "▁nun": 678,
      "aub": 679,
      "▁Gesicht": 680,
      "den,": 681,
      "▁K.": 682,
      "▁wohl": 683,
      "▁Ste": 684,
      "▁wenig": 685,
      "igkeit": 686,
      "▁bl": 687,
      "▁würde": 688,
      "ndern": 689,
      "▁Sp": 690,
      "unk": 691,
      "▁diesem": 692,
      "▁neu": 693,
      "▁Hau": 694,
      "▁bin": 695,
      "'s": 696,
      "äl": 697,
      "▁Pf": 698,
      "üs": 699,
      "▁gleich": 700,
      "tet": 701,
      "▁dich": 702,
      "▁einmal": 703,
      "glich": 704,
      "▁gen": 705,
      "elt": 706,
      "esen": 707,
      "▁fragte": 708,
      "▁jen": 709,
      "▁mö": 710,
      "uh": 711,
      "assen": 712,
      "▁keine": 713,
      "rä": 714,
      "▁werde": 715,
      "asch": 716,
      "▁Schw": 717,
      "▁Ged": 718,
      "▁›": 719,
      "ohn": 720,
      "eig": 721,
      "gel": 722,
      "▁al": 723,
      "▁gar": 724,
      "ow": 725,
      "▁uns": 726,
      "ron": 727,
      "▁Str": 728,
      "▁Auf": 729,
      "tlich": 730,
      "es,": 731,
      "▁gef": 732,
      "angen": 733,
      "tern": 734,
      "▁hör": 735,
      "▁eigen": 736,
      "▁»E": 737,
      "▁Kopf": 738,
      "enk": 739,
      "ver": 740,
      "ast": 741,
      "▁kein": 742,
      "▁stand": 743,
      "▁werden": 744,
      "os": 745,
      "sicht": 746,
      "ffen": 747,
      "▁Ann": 748,
      "twor": 749,
      "üß": 750,
      "▁voll": 751,
      "▁Wei": 752,
      "ahl": 753,
      "▁Leben": 754,
      "äd": 755,
      "che": 756,
      "hnen": 757,
      "eiten": 758,
      "ein,": 759,
      "äre": 760,
      "itz": 761,
      "▁ihrem": 762,
      "fen": 763,
      "▁Mensch": 764,
      "▁Zimmer": 765,
      "etr": 766,
      "▁Bes": 767,
      "samm": 768,
      "▁dieses": 769,
      "ts": 770,
      "▁nicht,": 771,
      "ider": 772,
      "▁Als": 773,
      "dr": 774,
      "▁Schl": 775,
      "▁Nach": 776,
      "▁eben": 777,
      "▁Mit": 778,
      "▁hätte": 779,
      "▁spr": 780,
      "gl": 781,
      "uhr": 782,
      "eicht": 783,
      "▁Wron": 784,
      "▁Re": 785,
      "ner": 786,
      "▁Was": 787,
      "mit": 788,
      "ache": 789,
      "under": 790,
      "öt": 791,
      "▁sol": 792,
      "▁...": 793,
      "sp": 794,
      "▁hal": 795,
      "▁ung": 796,
      "nen": 797,
      "▁fühl": 798,
      "▁dir": 799,
      "kl": 800,
      "▁Gedank": 801,
      "eute": 802,
      "kommen": 803,
      "▁wäre": 804,
      "▁ihnen": 805,
      "etzte": 806,
      "ständ": 807,
      "fall": 808,
      "▁Ab": 809,
      "▁versch": 810,
      "▁»J": 811,
      "row": 812,
      "▁hatte.": 813,
      "▁dr": 814,
      "▁lieb": 815,
      "od": 816,
      "▁Blick": 817,
      "▁weiter": 818,
      "cken": 819,
      "▁Stimm": 820,
      "▁zusamm": 821,
      "▁lie": 822,
      "▁Wor": 823,
      "alt": 824,
      "▁bef": 825,
      "▁gerade": 826,
      "vor": 827,
      "▁gem": 828,
      "▁ersch": 829,
      "▁konnte": 830,
      "▁rief": 831,
      "▁Alexand": 832,
      "iger": 833,
      "ken": 834,
      "▁Mr": 835,
      "art": 836,
      "▁ließ": 837,
      "▁geb": 838,
      "ap": 839,
      ",«": 840,
      "▁während": 841,
      "nde": 842,
      "▁ir": 843,
      "▁wollte": 844,
      "▁Wronski": 845,
      "zlich": 846,
      "ild": 847,
      "orden": 848,
      "▁Wie": 849,
      "▁Gel": 850,
      "▁antwor": 851,
      "▁bem": 852,
      "eug": 853,
      "▁vom": 854,
      "▁diesen": 855,
      "me": 856,
      "▁Ger": 857,
      "ass": 858,
      "▁lei": 859,
      "issen": 860,
      "▁Für": 861,
      "▁Pl": 862,
      "▁So": 863,
      "ist": 864,
      "▁war.": 865,
      "▁Gesch": 866,
      "▁er,": 867,
      "▁begann": 868,
      "▁Tom": 869,
      "▁Ihnen": 870,
      "unde": 871,
      "▁Zu": 872,
      "▁Alexandrow": 873,
      "▁Fl": 874,
      "▁weil": 875,
      "kann": 876,
      "schl": 877,
      "ohl": 878,
      "▁Jahr": 879,
      "s.": 880,
      "ßer": 881,
      "den.": 882,
      "ehen,": 883,
      "ester": 884,
      "aum": 885,
      "▁Br": 886,
      "itty": 887,
      "atz": 888,
      "ähl": 889,
      "▁komm": 890,
      "st,": 891,
      "▁Lieb": 892,
      "▁wahr": 893,
      "lle": 894,
      "▁fuhr": 895,
      "▁Bo": 896,
      "▁sondern": 897,
      "▁ist,": 898,
      "aar": 899,
      "▁Kr": 900,
      "▁Kitty": 901,
      "▁Tür": 902,
      "inder": 903,
      "▁fort": 904,
      "fl": 905,
      "▁Wir": 906,
      "ander": 907,
      "▁Tag": 908,
      "ische": 909,
      "kt": 910,
      "▁hei": 911,
      "▁En": 912,
      "▁Anna": 913,
      "klich": 914,
      "▁gut": 915,
      "▁Mut": 916,
      "▁Haus": 917,
      "ech": 918,
      "▁sie,": 919,
      "▁Unter": 920,
      "rech": 921,
      "▁müs": 922,
      "fahr": 923,
      "pt": 924,
      "▁em": 925,
      "▁drei": 926,
      "▁bew": 927,
      "▁Bet": 928,
      "▁aller": 929,
      "▁irgend": 930,
      "▁machte": 931,
      "▁hiel": 932,
      "mals": 933,
      "komm": 934,
      "▁nahm": 935,
      "▁gu": 936,
      "th": 937,
      "äß": 938,
      "▁dachte": 939,
      "▁Ru": 940,
      "ack": 941,
      "▁ins": 942,
      "bend": 943,
      "ruck": 944,
      "elte": 945,
      "▁besch": 946,
      "von": 947,
      "▁gr": 948,
      "enden": 949,
      "unden": 950,
      "ion": 951,
      "▁Mäd": 952,
      "▁ind": 953,
      "▁Se": 954,
      "öhn": 955,
      "onder": 956,
      "hin": 957,
      "▁antwortete": 958,
      "achte": 959,
      "geb": 960,
      "voll": 961,
      "▁Händ": 962,
      "fühl": 963,
      "gleich": 964,
      "▁Bru": 965,
      "▁erst": 966,
      "leg": 967,
      "▁ar": 968,
      "fe": 969,
      "▁Kl": 970,
      "ungs": 971,
      "▁Man": 972,
      "geg": 973,
      "üb": 974,
      "men": 975,
      "▁ganze": 976,
      "▁wuß": 977,
      "▁blick": 978,
      "str": 979,
      "üh": 980,
      "ieh": 981,
      "▁also": 982,
      "orgen": 983,
      "▁darau": 984,
      "▁Land": 985,
      "unter": 986,
      "▁erh": 987,
      "mpf": 988,
      "off": 989,
      "ichte": 990,
      "▁schön": 991,
      "▁an,": 992,
      "reund": 993,
      "▁Got": 994,
      "▁Bew": 995,
      "▁einz": 996,
      "▁Herz": 997,
      "gen,": 998,
      "qu": 999,
      "▁Um": 1000,
      "▁meiner": 1001,
      "▁glaub": 1002,
      "aten": 1003,
      "ere": 1004,
      "▁»M": 1005,
      "stell": 1006,
      "▁pl": 1007,
      "▁Kar": 1008,
      "zimmer": 1009,
      "iell": 1010,
      "▁Emm": 1011,
      "jewitsch": 1012,
      "eits": 1013,
      "▁Mutter": 1014,
      "▁str": 1015,
      "▁fl": 1016,
      "na": 1017,
      "des": 1018,
      "fel": 1019,
      "kad": 1020,
      "öff": 1021,
      "ftig": 1022,
      "ant": 1023,
      "▁nä": 1024,
      "▁dort": 1025,
      "lich,": 1026,
      "ingen": 1027,
      "▁lange": 1028,
      "▁davon": 1029,
      "un,": 1030,
      "▁sprach": 1031,
      "▁Alexei": 1032,
      "▁Bei": 1033,
      "▁verg": 1034,
      "▁get": 1035,
      "▁sich,": 1036,
      "▁hinter": 1037,
      "▁Arkad": 1038,
      "▁Ü": 1039,
      "reck": 1040,
      "▁zwischen": 1041,
      "so": 1042,
      "▁Wenn": 1043,
      "▁gab": 1044,
      "▁sagen": 1045,
      "▁Gew": 1046,
      "▁beiden": 1047,
      "gte": 1048,
      "▁for": 1049,
      "▁Rei": 1050,
      "▁bemerk": 1051,
      "▁bald": 1052,
      "▁Bl": 1053,
      "ig,": 1054,
      "▁Kind": 1055,
      "gesch": 1056,
      "▁dabei": 1057,
      "▁Lu": 1058,
      "präch": 1059,
      "▁Dann": 1060,
      "▁schien": 1061,
      "▁best": 1062,
      "▁zusammen": 1063,
      "ik": 1064,
      "mer": 1065,
      "▁allen": 1066,
      "eck": 1067,
      "▁ruh": 1068,
      "onst": 1069,
      "ötzlich": 1070,
      "ielleicht": 1071,
      "▁...«": 1072,
      "▁indem": 1073,
      "licher": 1074,
      "▁läch": 1075,
      "▁andere": 1076,
      "▁Mr.": 1077,
      "schen": 1078,
      "▁Kön": 1079,
      "▁Fen": 1080,
      "▁welcher": 1081,
      "ke": 1082,
      "▁heraus": 1083,
      "▁ganzen": 1084,
      "▁»Sie": 1085,
      "▁gesag": 1086,
      "▁gewesen": 1087,
      "▁Alexandrowitsch": 1088,
      "▁Dam": 1089,
      "erg": 1090,
      "▁Ang": 1091,
      "▁besonder": 1092,
      "eist": 1093,
      "▁lag": 1094,
      "▁darauf": 1095,
      "pan": 1096,
      "erst": 1097,
      "▁Pro": 1098,
      "▁damit": 1099,
      "schein": 1100,
      "▁Ad": 1101,
      "im": 1102,
      "▁unser": 1103,
      "▁Par": 1104,
      "arr": 1105,
      "▁»U": 1106,
      "führ": 1107,
      "eder": 1108,
      "▁andern": 1109,
      "wand": 1110,
      "▁(": 1111,
      "richt": 1112,
      "▁meinen": 1113,
      "nete": 1114,
      "ess": 1115,
      "▁verm": 1116,
      "▁Arkadjewitsch": 1117,
      "▁Stepan": 1118,
      "▁Gedanken": 1119,
      "▁trat": 1120,
      "▁beh": 1121,
      "▁Nacht": 1122,
      "ochen": 1123,
      "▁Schul": 1124,
      "▁»Das": 1125,
      "▁sein,": 1126,
      "ogen": 1127,
      "▁daran": 1128,
      "ehn": 1129,
      "än": 1130,
      "▁Da": 1131,
      "▁geg": 1132,
      "▁err": 1133,
      "gt": 1134,
      "▁Du": 1135,
      "▁hast": 1136,
      "▁ro": 1137,
      "▁ersten": 1138,
      "in,": 1139,
      "haft": 1140,
      "▁darüber": 1141,
      "▁Sei": 1142,
      "leid": 1143,
      "▁hielt": 1144,
      "achen": 1145,
      "▁Hö": 1146,
      "▁tief": 1147,
      "itter": 1148,
      "er.": 1149,
      "▁seines": 1150,
      "▁th": 1151,
      "▁»Aber": 1152,
      "▁»Ja,": 1153,
      "▁empf": 1154,
      "▁Emma": 1155,
      "▁»G": 1156,
      "nell": 1157,
      "▁Fenster": 1158,
      "nung": 1159,
      "lichkeit": 1160,
      "assen,": 1161,
      "ock": 1162,
      "▁fol": 1163,
      "▁Gefühl": 1164,
      "▁Fürst": 1165,
      "▁Ent": 1166,
      "▁hatten": 1167,
      "▁Hause": 1168,
      "▁such": 1169,
      "▁recht": 1170,
      "nü": 1171,
      "zähl": 1172,
      "ed": 1173,
      "▁Lei": 1174,
      "ühr": 1175,
      "Qu": 1176,
      "▁großen": 1177,
      "ehmen": 1178,
      "▁betr": 1179,
      "gar": 1180,
      "▁gest": 1181,
      "▁Abend": 1182,
      "▁Kir": 1183,
      "▁beim": 1184,
      "▁Über": 1185,
      "▁Mar": 1186,
      "▁Stu": 1187,
      "riff": 1188,
      "hol": 1189,
      "inner": 1190,
      "auer": 1191,
      "▁allein": 1192,
      "▁kleinen": 1193,
      "bl": 1194,
      "ht": 1195,
      "▁Kinder": 1196,
      "▁Arb": 1197,
      "ja": 1198,
      "such": 1199,
      "▁Mädchen": 1200,
      "▁Ende": 1201,
      "fol": 1202,
      "▁wirklich": 1203,
      "▁hörte": 1204,
      "per": 1205,
      "mann": 1206,
      "▁Qu": 1207,
      "ele": 1208,
      "ung.": 1209,
      "▁blickte": 1210,
      "▁Dien": 1211,
      "▁wand": 1212,
      "▁gehör": 1213,
      "fte": 1214,
      "ater": 1215,
      "▁War": 1216,
      "ink": 1217,
      "t;": 1218,
      "▁lau": 1219,
      "▁mußte": 1220,
      "ler": 1221,
      "▁Mal": 1222,
      "loß": 1223,
      "▁anderen": 1224,
      "▁klein": 1225,
      "▁Ch": 1226,
      "▁Thür": 1227,
      "▁Stimme": 1228,
      "▁weg": 1229,
      "att": 1230,
      "▁welches": 1231,
      "net": 1232,
      "spr": 1233,
      "▁haben,": 1234,
      "▁erwider": 1235,
      "▁»Es": 1236,
      "uck": 1237,
      "eister": 1238,
      "halb": 1239,
      "ib": 1240,
      "▁find": 1241,
      "▁Menschen": 1242,
      "geh": 1243,
      "teil": 1244,
      "ieg": 1245,
      "druck": 1246,
      "▁»H": 1247,
      "▁Mo": 1248,
      "▁verh": 1249,
      "▁ä": 1250,
      "▁hö": 1251,
      "deck": 1252,
      "▁Bruder": 1253,
      "sche": 1254,
      "▁Or": 1255,
      "▁Worte": 1256,
      "ou": 1257,
      "rit": 1258,
      "▁dessen": 1259,
      "▁Art": 1260,
      "▁König": 1261,
      "id": 1262,
      "▁Fuß": 1263,
      "euch": 1264,
      "lück": 1265,
      "ünd": 1266,
      "▁fand": 1267,
      "end,": 1268,
      "tem": 1269,
      "urm": 1270,
      "rechen": 1271,
      "▁»Was": 1272,
      "▁schnell": 1273,
      "de,": 1274,
      "▁gewes": 1275,
      "ia": 1276,
      "wir": 1277,
      "▁Ton": 1278,
      "▁»Und": 1279,
      "▁dazu": 1280,
      "▁Bau": 1281,
      "▁jung": 1282,
      "▁hinzu": 1283,
      "▁außer": 1284,
      "▁leb": 1285,
      "mand": 1286,
      "▁nieder": 1287,
      "▁blieb": 1288,
      "!\"": 1289,
      "wan": 1290,
      "▁vielleicht": 1291,
      "▁keinen": 1292,
      "▁ihres": 1293,
      "▁sie.": 1294,
      "▁an.": 1295,
      "kehr": 1296,
      "▁verste": 1297,
      "▁ange": 1298,
      "ce": 1299,
      "▁sehen": 1300,
      "▁vier": 1301,
      "einander": 1302,
      "▁setzte": 1303,
      "▁Iwan": 1304,
      "▁jem": 1305,
      "utz": 1306,
      "▁hervor": 1307,
      "nf": 1308,
      "oß": 1309,
      "eng": 1310,
      "eim": 1311,
      "▁Weg": 1312,
      "ied": 1313,
      "essen": 1314,
      "▁Ph": 1315,
      "▁Al": 1316,
      "▁Tage": 1317,
      "▁besser": 1318,
      "▁fast": 1319,
      "▁weit": 1320,
      "egte": 1321,
      "▁ich,": 1322,
      "iv": 1323,
      "▁plötzlich": 1324,
      "▁zog": 1325,
      "ings": 1326,
      "ppen": 1327,
      "gew": 1328,
      "▁All": 1329,
      "ire": 1330,
      "▁Geb": 1331,
      "ergei": 1332,
      "▁seh": 1333,
      "▁Gegen": 1334,
      "▁Kn": 1335,
      "ppe": 1336,
      "▁saß": 1337,
      "tell": 1338,
      "▁kommen": 1339,
      "▁hinaus": 1340,
      "eichen": 1341,
      "▁frü": 1342,
      "▁sogar": 1343,
      "▁zeig": 1344,
      "▁erwiderte": 1345,
      "of": 1346,
      "▁Miß": 1347,
      "etzten": 1348,
      "▁Gespräch": 1349,
      "äll": 1350,
      "änder": 1351,
      "▁er.": 1352,
      "▁kleine": 1353,
      "▁Sergei": 1354,
      "▁brau": 1355,
      "aben": 1356,
      "▁auf,": 1357,
      "ürlich": 1358,
      "▁Iwanow": 1359,
      "ieden": 1360,
      "hau": 1361,
      "brach": 1362,
      "▁große": 1363,
      "▁fühlte": 1364,
      "ahn": 1365,
      "tnis": 1366,
      "▁Ung": 1367,
      "▁Sache": 1368,
      "iges": 1369,
      "▁kur": 1370,
      "ust": 1371,
      "▁blei": 1372,
      "▁Ihre": 1373,
      "▁führ": 1374,
      "▁möglich": 1375,
      "▁Weise": 1376,
      "▁Beg": 1377,
      "▁schle": 1378,
      "▁Liebe": 1379,
      "haf": 1380,
      "▁Ali": 1381,
      "▁Läch": 1382,
      "olly": 1383,
      "öß": 1384,
      "alten": 1385,
      "zw": 1386,
      "ord": 1387,
      "mlich": 1388,
      "▁öff": 1389,
      "▁früher": 1390,
      "wohl": 1391,
      "üch": 1392,
      "ennen": 1393,
      "uten": 1394,
      "▁zer": 1395,
      "▁fest": 1396,
      "▁Freu": 1397,
      "ok": 1398,
      "▁dein": 1399,
      "egung": 1400,
      "▁meinem": 1401,
      "▁schwar": 1402,
      "▁»d": 1403,
      "▁offen": 1404,
      "hör": 1405,
      "zeug": 1406,
      "▁Pfer": 1407,
      "▁ebenso": 1408,
      "ochester": 1409,
      "ern,": 1410,
      "▁glück": 1411,
      "▁Lächeln": 1412,
      "▁einige": 1413,
      "▁Rochester": 1414,
      "▁Nam": 1415,
      "▁wollen": 1416,
      "▁Arbeit": 1417,
      "d,": 1418,
      "▁wandte": 1419,
      "fort": 1420,
      "urcht": 1421,
      "for": 1422,
      "ünsch": 1423,
      "oh": 1424,
      "chen,": 1425,
      "▁fiel": 1426,
      "▁frei": 1427,
      "▁Dar": 1428,
      "▁heute": 1429,
      "▁nicht.": 1430,
      "▁niemals": 1431,
      "halten": 1432,
      "nk": 1433,
      "▁Wort": 1434,
      "wür": 1435,
      "gem": 1436,
      "öpf": 1437,
      "ücken": 1438,
      "ais": 1439,
      "eren": 1440,
      "ter,": 1441,
      "ses": 1442,
      "▁denen": 1443,
      "aff": 1444,
      "▁waren,": 1445,
      "▁machen": 1446,
      "mö": 1447,
      "wär": 1448,
      "▁Gesell": 1449,
      "gest": 1450,
      "▁Am": 1451,
      "kam": 1452,
      "▁alte": 1453,
      "äh": 1454,
      "▁tun": 1455,
      "selben": 1456,
      "zt": 1457,
      "el,": 1458,
      "▁sagen,": 1459,
      "▁Arm": 1460,
      "▁Karl": 1461,
      "▁Paris": 1462,
      "▁Tisch": 1463,
      "▁versuch": 1464,
      "ehl": 1465,
      "▁Zig": 1466,
      "▁Zwei": 1467,
      "sen.": 1468,
      "euer": 1469,
      "▁können,": 1470,
      "weil": 1471,
      "egenheit": 1472,
      "▁Sa": 1473,
      "▁Welt": 1474,
      "▁Glück": 1475,
      "▁end": 1476,
      "▁erzähl": 1477,
      "▁gewöhn": 1478,
      "▁sei,": 1479,
      "wend": 1480,
      "äum": 1481,
      "▁bist": 1482,
      "zte": 1483,
      "eid": 1484,
      "▁verb": 1485,
      "▁heiß": 1486,
      "▁_": 1487,
      "▁verz": 1488,
      "ingo": 1489,
      "ange": 1490,
      "stens": 1491,
      "klär": 1492,
      "üster": 1493,
      "▁deren": 1494,
      "elnd": 1495,
      "weg": 1496,
      "ausen": 1497,
      "▁niemand": 1498,
      "▁seit": 1499,
      "org": 1500,
      "▁Jan": 1501,
      "▁Gem": 1502,
      "olk": 1503,
      "▁Haupt": 1504,
      "▁kaum": 1505,
      "▁alten": 1506,
      "▁Bett": 1507,
      "▁bit": 1508,
      "▁Pr": 1509,
      "▁Gott": 1510,
      "se,": 1511,
      "▁vern": 1512,
      "▁erschien": 1513,
      "fern": 1514,
      "▁Uhr": 1515,
      "▁Gringo": 1516,
      "frie": 1517,
      "öl": 1518,
      "ch,": 1519,
      "▁Ber": 1520,
      "▁jeder": 1521,
      "▁ein,": 1522,
      "▁Euch": 1523,
      "▁stell": 1524,
      "▁»Nein,": 1525,
      "▁Straß": 1526,
      "▁gern": 1527,
      "▁hing": 1528,
      "▁Ding": 1529,
      "▁kr": 1530,
      "asse": 1531,
      "▁Freund": 1532,
      "▁habe,": 1533,
      "▁»Wie": 1534,
      "dete": 1535,
      "▁entsch": 1536,
      "▁sollte": 1537,
      "▁Herrn": 1538,
      "▁wor": 1539,
      "▁sah,": 1540,
      "▁ruhig": 1541,
      "▁Kam": 1542,
      "▁Richt": 1543,
      "weise": 1544,
      "▁näher": 1545,
      "?\"": 1546,
      "▁Empf": 1547,
      "▁Buch": 1548,
      "ahe": 1549,
      "ieben": 1550,
      "atten": 1551,
      "▁sofort": 1552,
      "▁Seite": 1553,
      "zeit": 1554,
      "▁neben": 1555,
      "▁Hal": 1556,
      "▁Licht": 1557,
      "ak": 1558,
      "zieh": 1559,
      "▁bel": 1560,
      "▁Leute": 1561,
      "▁Pet": 1562,
      "▁aus,": 1563,
      "▁Jetzt": 1564,
      "▁Diese": 1565,
      "▁können": 1566,
      "▁Seele": 1567,
      "et,": 1568,
      "▁Haar": 1569,
      "ungen,": 1570,
      "▁»B": 1571,
      "▁werden,": 1572,
      "lossen": 1573,
      "▁Gericht": 1574,
      "gehen": 1575,
      "arm": 1576,
      "▁Bild": 1577,
      "liches": 1578,
      "▁Min": 1579,
      "▁ü": 1580,
      "▁Sir": 1581,
      "dern": 1582,
      "aufen": 1583,
      "will": 1584,
      "olz": 1585,
      "▁still": 1586,
      "▁halb": 1587,
      "▁Dolly": 1588,
      "▁jener": 1589,
      "dien": 1590,
      "▁Ausdruck": 1591,
      "▁wußte": 1592,
      "wer": 1593,
      "äf": 1594,
      "▁einf": 1595,
      "▁Hin": 1596,
      "reten": 1597,
      "▁'": 1598,
      "▁gek": 1599,
      "▁rei": 1600,
      "setz": 1601,
      "▁mal": 1602,
      "▁erwar": 1603,
      "chten": 1604,
      "▁Zw": 1605,
      "elle": 1606,
      "▁jemand": 1607,
      "▁Le": 1608,
      "▁genug": 1609,
      "▁gesagt": 1610,
      "▁Li": 1611,
      "▁herum": 1612,
      "▁»O": 1613,
      "brigen": 1614,
      "▁gegenüber": 1615,
      "rat": 1616,
      "ens": 1617,
      "▁Mein": 1618,
      "▁Morgen": 1619,
      "▁Brief": 1620,
      "▁erl": 1621,
      "▁anzu": 1622,
      "▁Vater": 1623,
      "assen.": 1624,
      "▁Platz": 1625,
      "aden": 1626,
      "merk": 1627,
      "äftig": 1628,
      "‹,": 1629,
      "▁dunk": 1630,
      "agen,": 1631,
      "▁läng": 1632,
      "füll": 1633,
      "▁Gesellschaft": 1634,
      "▁Verg": 1635,
      "äusch": 1636,
      "drück": 1637,
      "▁besonders": 1638,
      "▁unb": 1639,
      "old": 1640,
      "▁fort,": 1641,
      "enge": 1642,
      "schaf": 1643,
      "▁Geist": 1644,
      "▁letzten": 1645,
      "▁verges": 1646,
      "▁Herzen": 1647,
      "hen,": 1648,
      "▁lassen": 1649,
      "▁trot": 1650,
      "▁Grund": 1651,
      "innen": 1652,
      "samkeit": 1653,
      "▁hinein": 1654,
      "ittag": 1655,
      "▁sein.": 1656,
      "▁star": 1657,
      "▁Wasser": 1658,
      "falls": 1659,
      "▁solche": 1660,
      "▁das,": 1661,
      "▁Gest": 1662,
      "▁fünf": 1663,
      "▁Iwanowitsch": 1664,
      "oren": 1665,
      "▁wiederhol": 1666,
      "▁Zigeu": 1667,
      "err": 1668,
      "▁hat,": 1669,
      "öb": 1670,
      "▁Ä": 1671,
      "▁denk": 1672,
      "▁schwer": 1673,
      "zehn": 1674,
      "▁bereits": 1675,
      "ausend": 1676,
      "ph": 1677,
      "sehen": 1678,
      "ühl": 1679,
      "▁gesehen": 1680,
      "kommen,": 1681,
      "fer": 1682,
      "gegen": 1683,
      "at,": 1684,
      "▁eigentlich": 1685,
      "▁Geld": 1686,
      "fen,": 1687,
      "▁klar": 1688,
      "▁trotz": 1689,
      "▁Wagen": 1690,
      "egor": 1691,
      "irn": 1692,
      "▁es,": 1693,
      "itzen": 1694,
      "▁beide": 1695,
      "▁paar": 1696,
      "▁»Du": 1697,
      "iz": 1698,
      "▁To": 1699,
      "▁»Nun,": 1700,
      "▁neuen": 1701,
      "uer": 1702,
      "igen,": 1703,
      "▁Pers": 1704,
      "▁gehen": 1705,
      "ießlich": 1706,
      "▁Lebens": 1707,
      "▁müssen": 1708,
      "▁Hände": 1709,
      "änn": 1710,
      "▁warf": 1711,
      "▁Tro": 1712,
      "▁Zigeuner": 1713,
      "ai": 1714,
      "heiten": 1715,
      "ute": 1716,
      "▁pf": 1717,
      "▁wegen": 1718,
      "▁gemacht": 1719,
      "▁ern": 1720,
      "▁näch": 1721,
      "anken": 1722,
      "▁Jahre": 1723,
      "pl": 1724,
      "auben": 1725,
      "▁legte": 1726,
      "▁Teil": 1727,
      "▁oft": 1728,
      "äul": 1729,
      "▁eigenen": 1730,
      "ker": 1731,
      "▁erg": 1732,
      "▁ist.": 1733,
      "etzt,": 1734,
      "▁gewiß": 1735,
      "▁entgeg": 1736,
      "▁solch": 1737,
      "ständig": 1738,
      "▁Geh": 1739,
      "atürlich": 1740,
      "▁ged": 1741,
      "unst": 1742,
      "▁Not": 1743,
      "▁geworden": 1744,
      "adt": 1745,
      "▁sehen,": 1746,
      "▁Stell": 1747,
      "gen.": 1748,
      "häng": 1749,
      "zer": 1750,
      "▁merk": 1751,
      "▁erk": 1752,
      "▁Im": 1753,
      "▁reich": 1754,
      "▁fügte": 1755,
      "▁stehen": 1756,
      "für": 1757,
      "licht": 1758,
      "▁möchte": 1759,
      "▁Schwester": 1760,
      "aun": 1761,
      "▁richt": 1762,
      "▁nachdem": 1763,
      "immel": 1764,
      "tschaft": 1765,
      "zig": 1766,
      "aur": 1767,
      "▁lief": 1768,
      "▁Herren": 1769,
      "fr": 1770,
      "land": 1771,
      "▁Fam": 1772,
      "▁Ur": 1773,
      "▁deu": 1774,
      "▁daher": 1775,
      "▁Tr": 1776,
      "▁Trä": 1777,
      "halt": 1778,
      "scheinlich": 1779,
      "▁bet": 1780,
      "▁gehab": 1781,
      "▁Alice": 1782,
      "▁Füß": 1783,
      "▁Volk": 1784,
      "ille": 1785,
      "vok": 1786,
      "elten": 1787,
      "▁jeden": 1788,
      "▁gewesen,": 1789,
      "ub": 1790,
      "▁Huck": 1791,
      "▁hoch": 1792,
      "▁Verl": 1793,
      "▁Ohr": 1794,
      "twort": 1795,
      "sinn": 1796,
      "▁mir,": 1797,
      "▁zwar": 1798,
      "fahren": 1799,
      "▁wünsch": 1800,
      "▁herab": 1801,
      "▁wis": 1802,
      "scher": 1803,
      "atur": 1804,
      "▁Gregor": 1805,
      "▁Frage": 1806,
      "▁befand": 1807,
      "äm": 1808,
      "▁lassen,": 1809,
      "t.«": 1810,
      "▁Tre": 1811,
      "spiel": 1812,
      "odo": 1813,
      "ben,": 1814,
      "▁Wes": 1815,
      "▁auf.": 1816,
      "unft": 1817,
      "▁»Die": 1818,
      "▁Mrs.": 1819,
      "▁erhob": 1820,
      "kr": 1821,
      "te;": 1822,
      "▁vorher": 1823,
      "▁Eine": 1824,
      "▁Empfind": 1825,
      "ügel": 1826,
      "▁Mon": 1827,
      "▁leben": 1828,
      "▁Lage": 1829,
      "▁Schrit": 1830,
      "▁sei.": 1831,
      "umm": 1832,
      "▁worden": 1833,
      "stück": 1834,
      "durch": 1835,
      "dings": 1836,
      "gang": 1837,
      "▁Während": 1838,
      "▁betrach": 1839,
      "▁Kirche": 1840,
      "fang": 1841,
      "ös": 1842,
      "▁ho": 1843,
      "▁»K": 1844,
      "▁Fing": 1845,
      "▁solchen": 1846,
      "▁Advok": 1847,
      "▁Kap": 1848,
      "eltsam": 1849,
      "▁Bür": 1850,
      "▁los": 1851,
      "▁Fall": 1852,
      "▁hinauf": 1853,
      "othe": 1854,
      "mäß": 1855,
      "esch": 1856,
      "ard": 1857,
      "arten": 1858,
      "▁Gen": 1859,
      "▁gekommen": 1860,
      "low": 1861,
      "üßte": 1862,
      "▁bemerkte": 1863,
      "werk": 1864,
      "ücht": 1865,
      "asim": 1866,
      "▁Auge": 1867,
      "▁bestimm": 1868,
      "▁junge": 1869,
      "bt": 1870,
      "zog": 1871,
      "▁eil": 1872,
      "▁qu": 1873,
      "cke": 1874,
      "▁aus.": 1875,
      "▁trug": 1876,
      "onstant": 1877,
      "reich": 1878,
      "chter": 1879,
      "▁he": 1880,
      "aube": 1881,
      "▁Frei": 1882,
      "elbe": 1883,
      "▁schlug": 1884,
      "undert": 1885,
      "haupt": 1886,
      "az": 1887,
      "▁mag": 1888,
      "lich.": 1889,
      "ehe": 1890,
      "▁ja,": 1891,
      "keiten": 1892,
      "▁Pap": 1893,
      "▁werden.": 1894,
      "▁wußte,": 1895,
      "▁'s": 1896,
      "▁zu.": 1897,
      "▁unver": 1898,
      "▁Erinner": 1899,
      "▁auszu": 1900,
      "▁Quasim": 1901,
      "hand": 1902,
      "nehm": 1903,
      "▁El": 1904,
      "▁schm": 1905,
      "▁seltsam": 1906,
      "ante": 1907,
      "▁le": 1908,
      "ucht": 1909,
      "uld": 1910,
      "▁Höhe": 1911,
      "▁Seine": 1912,
      "ary": 1913,
      "▁Fel": 1914,
      "▁Prie": 1915,
      "▁Freude": 1916,
      "itten": 1917,
      "▁verw": 1918,
      "▁verstand": 1919,
      "▁ihm,": 1920,
      "▁kommt": 1921,
      "▁Quasimodo": 1922,
      "▁Priester": 1923,
      "▁gib": 1924,
      "▁fahr": 1925,
      "▁freu": 1926,
      "uldig": 1927,
      "▁sonst": 1928,
      "▁Sonn": 1929,
      "▁Verb": 1930,
      "ächtig": 1931,
      "▁geht": 1932,
      "▁bring": 1933,
      "▁Augenblicke": 1934,
      "▁wenigstens": 1935,
      "▁jene": 1936,
      "▁Fürstin": 1937,
      "mut": 1938,
      "nahm": 1939,
      "zogen": 1940,
      "▁hüb": 1941,
      "ine": 1942,
      "▁Konstant": 1943,
      "▁gewor": 1944,
      "▁haben.": 1945,
      "▁viele": 1946,
      "▁neue": 1947,
      "ic": 1948,
      "▁kenn": 1949,
      "▁Kat": 1950,
      "▁allem": 1951,
      "möglich": 1952,
      "uf": 1953,
      "▁deine": 1954,
      "ies": 1955,
      "▁Wer": 1956,
      "▁Wahr": 1957,
      "▁vorüber": 1958,
      "▁Verz": 1959,
      "eln,": 1960,
      "▁brach": 1961,
      "▁wär": 1962,
      "igt": 1963,
      "orn": 1964,
      "▁verd": 1965,
      "▁Sie,": 1966,
      "eufel": 1967,
      "chte,": 1968,
      "▁hol": 1969,
      "▁dahin": 1970,
      "▁End": 1971,
      "▁Frauen": 1972,
      "▁Stelle": 1973,
      "vary": 1974,
      "ßen": 1975,
      "abe": 1976,
      "▁entfern": 1977,
      "▁lächelnd": 1978,
      "ütig": 1979,
      "▁Alle": 1980,
      "▁mich,": 1981,
      "heit,": 1982,
      "con": 1983,
      "▁Himmel": 1984,
      "▁hatten,": 1985,
      "▁sagte,": 1986,
      "zug": 1987,
      "bracht": 1988,
      "▁zurück.": 1989,
      "ud": 1990,
      "▁Ap": 1991,
      "▁jungen": 1992,
      "▁Stück": 1993,
      "aßt": 1994,
      "▁Bovary": 1995,
      "▁Person": 1996,
      "gr": 1997,
      "üg": 1998,
      "ende": 1999,
      "▁ein.": 2000,
      "▁Vergnü": 2001,
      "onne": 2002,
      "▁wurde,": 2003,
      "tigen": 2004,
      "▁weder": 2005,
      "▁erklär": 2006,
      "▁könnte": 2007,
      "▁konnte,": 2008,
      "▁drück": 2009,
      "▁Gringoire": 2010,
      "▁erinner": 2011,
      "▁zu,": 2012,
      "acht,": 2013,
      "▁hin.": 2014,
      "▁Arch": 2015,
      "▁Ruhe": 2016,
      "häl": 2017,
      "▁sech": 2018,
      "▁hinunter": 2019,
      "▁langsam": 2020,
      "▁sind,": 2021,
      "▁That": 2022,
      "▁dafür": 2023,
      "▁sich.": 2024,
      "▁uner": 2025,
      "ost": 2026,
      "▁dadurch": 2027,
      "ett": 2028,
      "recht": 2029,
      "ohann": 2030,
      "ften": 2031,
      "▁är": 2032,
      "▁wunder": 2033,
      "▁Tod": 2034,
      "▁aufzu": 2035,
      "▁überhaupt": 2036,
      "▁Stirn": 2037,
      "eile": 2038,
      "bo": 2039,
      "öll": 2040,
      "▁Männ": 2041,
      "▁Leu": 2042,
      "▁Teufel": 2043,
      "▁»Er": 2044,
      "ammer": 2045,
      "fähr": 2046,
      "▁furcht": 2047,
      "trau": 2048,
      "▁leise": 2049,
      "iegen": 2050,
      "▁wider": 2051,
      "schau": 2052,
      "aup": 2053,
      "▁»V": 2054,
      "▁Mien": 2055,
      "▁Fa": 2056,
      "es.": 2057,
      "etter": 2058,
      "▁Hil": 2059,
      "egt": 2060,
      "▁John": 2061,
      "örper": 2062,
      "aßte": 2063,
      "▁können.": 2064,
      "iff": 2065,
      "▁Trau": 2066,
      "▁Stunde": 2067,
      "▁spiel": 2068,
      "▁Schlaf": 2069,
      "▁lieber": 2070,
      "äs": 2071,
      "üll": 2072,
      "▁dür": 2073,
      "▁Hier": 2074,
      "▁Schrei": 2075,
      "▁brachte": 2076,
      "▁liebe": 2077,
      "▁Namen": 2078,
      "▁Menge": 2079,
      "ette": 2080,
      "▁darin": 2081,
      "▁wurden": 2082,
      "▁würde,": 2083,
      "▁Tages": 2084,
      "idia": 2085,
      "▁endlich": 2086,
      "lau": 2087,
      "viel": 2088,
      "▁wissen": 2089,
      "▁Seiten": 2090,
      "▁völl": 2091,
      "▁erkann": 2092,
      "▁schreck": 2093,
      "▁Schwei": 2094,
      "▁gespr": 2095,
      "▁gelang": 2096,
      "▁Besuch": 2097,
      "▁Boden": 2098,
      "frieden": 2099,
      "▁Archidia": 2100,
      "ben.": 2101,
      "ili": 2102,
      "ra": 2103,
      "war": 2104,
      "▁pr": 2105,
      "▁He": 2106,
      "▁genau": 2107,
      "▁lieben": 2108,
      "ig.": 2109,
      "▁Hoff": 2110,
      "▁schein": 2111,
      "▁Reg": 2112,
      "ört": 2113,
      "stande": 2114,
      "ation": 2115,
      "▁leicht": 2116,
      "▁verst": 2117,
      "euf": 2118,
      "▁ihn,": 2119,
      "▁hin,": 2120,
      "▁Johann": 2121,
      "▁vollständig": 2122,
      "▁wäre,": 2123,
      "▁beschäftig": 2124,
      "▁kurz": 2125,
      "get": 2126,
      "ium": 2127,
      "▁»ich": 2128,
      "▁Hut": 2129,
      "▁Feuer": 2130,
      "▁Te": 2131,
      "▁Nä": 2132,
      "geben": 2133,
      "▁traur": 2134,
      "▁gering": 2135,
      "▁fühlte,": 2136,
      "ian": 2137,
      "▁hoff": 2138,
      "▁unbe": 2139,
      "▁angen": 2140,
      "▁versetzte": 2141,
      "eidig": 2142,
      "▁erblick": 2143,
      "igte": 2144,
      "▁Mund": 2145,
      "▁stets": 2146,
      "ütz": 2147,
      "▁höch": 2148,
      "▁Konstantin": 2149,
      "aw": 2150,
      "jen": 2151,
      "sie": 2152,
      "▁Wohn": 2153,
      "▁Besch": 2154,
      "▁offenbar": 2155,
      "▁Apothe": 2156,
      "t-": 2157,
      "äter": 2158,
      "tet,": 2159,
      "▁Wind": 2160,
      "▁Lehr": 2161,
      "▁wollte,": 2162,
      "▁Blicke": 2163,
      "▁ben": 2164,
      "itze": 2165,
      "auber": 2166,
      "agte": 2167,
      "iebt": 2168,
      "▁hätte,": 2169,
      "▁Sinn": 2170,
      "▁Sohn": 2171,
      "▁»L": 2172,
      "▁freund": 2173,
      "▁Ker": 2174,
      "▁durchaus": 2175,
      "▁Ehr": 2176,
      "als": 2177,
      "▁schrie": 2178,
      "▁bed": 2179,
      "▁sprech": 2180,
      "üttel": 2181,
      "▁einfach": 2182,
      "esse": 2183,
      "▁Eng": 2184,
      "▁Nun": 2185,
      "ilie": 2186,
      "▁Mittel": 2187,
      "ax": 2188,
      "pen": 2189,
      "reh": 2190,
      "▁beste": 2191,
      "▁Luft": 2192,
      "merz": 2193,
      "▁Unglück": 2194,
      "e;": 2195,
      "itel": 2196,
      "ertig": 2197,
      "▁Sein": 2198,
      "▁Gal": 2199,
      "ath": 2200,
      "▁schr": 2201,
      "▁Toch": 2202,
      "ieren": 2203,
      "ilde": 2204,
      "äuf": 2205,
      "seh": 2206,
      "ummer": 2207,
      "zeich": 2208,
      "▁erste": 2209,
      "▁Natur": 2210,
      "▁nur,": 2211,
      "▁habe.": 2212,
      "▁machen,": 2213,
      "▁alles,": 2214,
      "▁verschieden": 2215,
      "ötig": 2216,
      "▁fes": 2217,
      "▁fing": 2218,
      "▁Stein": 2219,
      "▁nehm": 2220,
      "erne": 2221,
      "▁Antwort": 2222,
      "▁jed": 2223,
      "▁Kraft": 2224,
      "▁zeigte": 2225,
      "▁glücklich": 2226,
      "▁furchtbar": 2227,
      "affen": 2228,
      "teten": 2229,
      "an,": 2230,
      "▁leich": 2231,
      "▁reg": 2232,
      "ischer": 2233,
      "afen": 2234,
      "▁gute": 2235,
      "▁Phöb": 2236,
      "▁Darja": 2237,
      "▁1": 2238,
      "▁hob": 2239,
      "▁zitter": 2240,
      "▁Geg": 2241,
      "▁warum": 2242,
      "▁Schu": 2243,
      "▁,,N": 2244,
      "▁Lippen": 2245,
      "▁Zigeunerin": 2246,
      "ige,": 2247,
      "▁fertig": 2248,
      "▁Eind": 2249,
      "▁Bro": 2250,
      "▁Meister": 2251,
      "▁du,": 2252,
      "▁sprechen": 2253,
      "▁äuß": 2254,
      "brigens": 2255,
      "ging": 2256,
      "▁grau": 2257,
      "▁einander": 2258,
      "▁Von": 2259,
      "▁Ober": 2260,
      "▁Bewegung": 2261,
      "▁Familie": 2262,
      "tete,": 2263,
      "▁acht": 2264,
      "▁hell": 2265,
      "▁vor,": 2266,
      "▁irgendw": 2267,
      "▁Händen": 2268,
      "▁Mosk": 2269,
      "▁nächsten": 2270,
      "tag": 2271,
      "ül": 2272,
      "ichtete": 2273,
      "▁natürlich": 2274,
      "▁schrei": 2275,
      "▁unmöglich": 2276,
      "▁Rück": 2277,
      "▁meines": 2278,
      "▁Jung": 2279,
      "icher": 2280,
      "▁erf": 2281,
      "ten;": 2282,
      "▁kn": 2283,
      "▁Nicht": 2284,
      "▁ausge": 2285,
      "end.": 2286,
      "▁bede": 2287,
      "▁Arme": 2288,
      "▁Anblick": 2289,
      "▁weniger": 2290,
      "ordentlich": 2291,
      "▁jedoch": 2292,
      "▁zie": 2293,
      "ochte": 2294,
      "endes": 2295,
      "▁unglück": 2296,
      "folge": 2297,
      "▁Diener": 2298,
      "würdig": 2299,
      "▁pfleg": 2300,
      "▁welchen": 2301,
      "allen": 2302,
      "▁gesagt,": 2303,
      "▁Treppe": 2304,
      "▁Archidiacon": 2305,
      "fangen": 2306,
      "▁nahe": 2307,
      "▁Spr": 2308,
      "stern": 2309,
      "▁Wesen": 2310,
      "▁geben": 2311,
      "▁oben": 2312,
      "entlich": 2313,
      "▁Ansicht": 2314,
      "▁jedes": 2315,
      "▁jenem": 2316,
      "▁suchte": 2317,
      "▁Alles": 2318,
      "frau": 2319,
      "ale": 2320,
      "▁Stadt": 2321,
      "eben,": 2322,
      "ktor": 2323,
      "▁daran,": 2324,
      "▁gehört": 2325,
      "▁entgegnete": 2326,
      "bur": 2327,
      "▁sagte:": 2328,
      "▁herr": 2329,
      "▁Thor": 2330,
      "lung": 2331,
      "äg": 2332,
      "eiden": 2333,
      "▁hand": 2334,
      "ernen": 2335,
      "▁glän": 2336,
      "brochen": 2337,
      "▁beruh": 2338,
      "enka": 2339,
      "▁empfand": 2340,
      "▁Tochter": 2341,
      "hof": 2342,
      "äft": 2343,
      "iet": 2344,
      "▁hat.": 2345,
      "angen,": 2346,
      "▁allgem": 2347,
      "▁Auch": 2348,
      "▁beob": 2349,
      "▁Dieser": 2350,
      "▁langen": 2351,
      "▁weiß,": 2352,
      "▁K.,": 2353,
      "fallen": 2354,
      "▁en": 2355,
      "▁mensch": 2356,
      "els": 2357,
      "annte": 2358,
      "▁Ju": 2359,
      "▁emp": 2360,
      "▁Zweifel": 2361,
      "arb": 2362,
      "▁»w": 2363,
      "▁Mü": 2364,
      "▁»Ach,": 2365,
      "▁Recht": 2366,
      "▁Minuten": 2367,
      "osen": 2368,
      "cht,": 2369,
      "▁augen": 2370,
      "ters": 2371,
      "▁Ind": 2372,
      "▁Schön": 2373,
      "▁doch,": 2374,
      "echsel": 2375,
      "▁Angel": 2376,
      "fäll": 2377,
      "vier": 2378,
      "igung": 2379,
      "▁größ": 2380,
      "h,": 2381,
      "lang": 2382,
      "oben": 2383,
      "sb": 2384,
      "agen.": 2385,
      "▁Ei": 2386,
      "teress": 2387,
      "▁For": 2388,
      "ünst": 2389,
      "▁obgleich": 2390,
      "▁Nachdem": 2391,
      "▁Dienst": 2392,
      "eimnis": 2393,
      "▁wissen,": 2394,
      "ien,": 2395,
      "ym": 2396,
      "▁heil": 2397,
      "inken": 2398,
      "▁Wun": 2399,
      "▁Krei": 2400,
      "▁waren.": 2401,
      "▁machen.": 2402,
      "▁Fräul": 2403,
      "▁verlassen": 2404,
      "kommen.": 2405,
      "▁Gerichts": 2406,
      "▁deutlich": 2407,
      "bald": 2408,
      "sah": 2409,
      "ieder": 2410,
      "ehrte": 2411,
      "etzen": 2412,
      "▁herein": 2413,
      "ärm": 2414,
      "▁ärger": 2415,
      "öh": 2416,
      "▁schwei": 2417,
      "▁stieß": 2418,
      "▁Gräf": 2419,
      "▁»Wenn": 2420,
      "▁darf": 2421,
      "▁Weib": 2422,
      "▁Wieder": 2423,
      "▁Damen": 2424,
      "▁Leiden": 2425,
      "▁Jane": 2426,
      "▁völlig": 2427,
      "!‹": 2428,
      "kunft": 2429,
      "▁Mich": 2430,
      "▁lassen.": 2431,
      "▁schick": 2432,
      "ame": 2433,
      "▁umher": 2434,
      "▁macht": 2435,
      "▁»Ja": 2436,
      "▁Alexandrowna": 2437,
      "▁öffnete": 2438,
      "▁stellte": 2439,
      "▁betrachtete": 2440,
      "▁Eindruck": 2441,
      "maß": 2442,
      "ren": 2443,
      "ähn": 2444,
      "▁erfüll": 2445,
      "stes": 2446,
      "▁konnte.": 2447,
      "äglich": 2448,
      "▁c": 2449,
      "nden": 2450,
      "▁Mittag": 2451,
      "▁welchem": 2452,
      "hältnis": 2453,
      "üge": 2454,
      "erei": 2455,
      "▁and": 2456,
      "▁las": 2457,
      "ande": 2458,
      "▁Schn": 2459,
      "▁Verw": 2460,
      "▁stark": 2461,
      ".\"": 2462,
      "▁el": 2463,
      "▁Eis": 2464,
      "▁Klei": 2465,
      "▁überl": 2466,
      "inden": 2467,
      "▁gewis": 2468,
      "▁manch": 2469,
      "▁Ob": 2470,
      "▁»War": 2471,
      "▁etwa": 2472,
      "▁kamen": 2473,
      "▁werde,": 2474,
      "?‹": 2475,
      "▁e": 2476,
      "▁schau": 2477,
      "▁tat": 2478,
      "gestell": 2479,
      "▁unterbrach": 2480,
      "▁Brust": 2481,
      "▁Dinge": 2482,
      "▁gibt": 2483,
      "▁Wunsch": 2484,
      "),": 2485,
      "haus": 2486,
      "öne": 2487,
      "▁ehr": 2488,
      "schw": 2489,
      "▁Bem": 2490,
      "▁The": 2491,
      "▁überzeug": 2492,
      "anzig": 2493,
      "mach": 2494,
      "op": 2495,
      "▁Will": 2496,
      "▁deshalb": 2497,
      "▁Nur": 2498,
      "ierte": 2499,
      "▁Clau": 2500,
      "▁neuem": 2501,
      "▁Absicht": 2502,
      "▁gebl": 2503,
      "▁Bauern": 2504,
      "aber": 2505,
      "▁dick": 2506,
      "▁morgen": 2507,
      "arf": 2508,
      "▁Hel": 2509,
      "▁Häu": 2510,
      "umen": 2511,
      "unkel": 2512,
      "▁verschw": 2513,
      "▁flüster": 2514,
      "▁Erinnerung": 2515,
      "▁Gräfin": 2516,
      "hiel": 2517,
      "us,": 2518,
      "▁getr": 2519,
      "aul": 2520,
      "▁unsere": 2521,
      "wart": 2522,
      "en,«": 2523,
      "▁sonder": 2524,
      "se.": 2525,
      "▁»Wir": 2526,
      "▁ab,": 2527,
      "▁abzu": 2528,
      "▁bereit": 2529,
      "ouv": 2530,
      "▁wiederholte": 2531,
      "▁dicht": 2532,
      "ichtet": 2533,
      "▁dan": 2534,
      "▁damals": 2535,
      "▁einzu": 2536,
      "▁Glo": 2537,
      "atte": 2538,
      "▁Hom": 2539,
      "▁ihr,": 2540,
      "umpf": 2541,
      "▁anders": 2542,
      "▁fort.": 2543,
      "folg": 2544,
      "▁biß": 2545,
      "▁Kleid": 2546,
      "▁Fol": 2547,
      "▁jetzt,": 2548,
      "▁Ue": 2549,
      "▁würden": 2550,
      "▁Spiel": 2551,
      "▁Geschichte": 2552,
      "▁thun": 2553,
      "-D": 2554,
      "opp": 2555,
      "zur": 2556,
      "esser": 2557,
      "▁frem": 2558,
      "▁Worten": 2559,
      "▁allerdings": 2560,
      "▁sehen.": 2561,
      "▁Hinter": 2562,
      "▁Archidiaconus": 2563,
      "üng": 2564,
      "▁bein": 2565,
      "ager": 2566,
      "▁Augen,": 2567,
      "ollen": 2568,
      "▁Ljewin,": 2569,
      "▁steh": 2570,
      "▁steht": 2571,
      "▁reden": 2572,
      "▁Hilfe": 2573,
      "reg": 2574,
      "▁heu": 2575,
      "▁Jo": 2576,
      "▁entw": 2577,
      "▁Mann,": 2578,
      "▁würde.": 2579,
      "▁Kopfe": 2580,
      "▁Ord": 2581,
      "mehr": 2582,
      "regung": 2583,
      "usch": 2584,
      "üm": 2585,
      "▁euch": 2586,
      "eigen": 2587,
      "▁nehmen": 2588,
      "▁»F": 2589,
      "▁stür": 2590,
      "▁wirst": 2591,
      "▁hätten": 2592,
      "▁schließlich": 2593,
      "▁Stuhl": 2594,
      "▁Fräulein": 2595,
      "dw": 2596,
      "rasch": 2597,
      "▁mü": 2598,
      "▁Erde": 2599,
      "reif": 2600,
      "ätigkeit": 2601,
      "▁jenes": 2602,
      "▁Krank": 2603,
      "▁Warj": 2604,
      "spruch": 2605,
      "weilen": 2606,
      "▁Leo": 2607,
      "▁Gestalt": 2608,
      "gül": 2609,
      "▁zugleich": 2610,
      "▁Gut": 2611,
      "agt": 2612,
      "▁Nik": 2613,
      "pfer": 2614,
      "stehen": 2615,
      "ilder": 2616,
      "▁kannst": 2617,
      "▁zurück,": 2618,
      "▁Bekann": 2619,
      "▁Moskau": 2620,
      "ac": 2621,
      "det": 2622,
      "▁not": 2623,
      "▁Sonne": 2624,
      "▁krä": 2625,
      "▁sobald": 2626,
      "▁schloß": 2627,
      "▁Je": 2628,
      "▁gingen": 2629,
      "▁schönen": 2630,
      "▁ähn": 2631,
      "ümmer": 2632,
      "▁zuerst": 2633,
      "▁Mö": 2634,
      "▁so,": 2635,
      "denk": 2636,
      "▁unten": 2637,
      "▁bedeck": 2638,
      "▁»Ihr": 2639,
      "▁Co": 2640,
      "▁»Nun": 2641,
      "▁Gleich": 2642,
      "▁Jahren": 2643,
      "▁lächelte": 2644,
      "▁Dame": 2645,
      "ufen": 2646,
      "▁Groß": 2647,
      "▁fro": 2648,
      "▁bekann": 2649,
      "▁vergessen": 2650,
      "▁sechs": 2651,
      "▁Phöbus": 2652,
      "▁Homais": 2653,
      "▁-": 2654,
      "ie,": 2655,
      "▁Dor": 2656,
      "▁Tasch": 2657,
      "▁Schatten": 2658,
      "anzös": 2659,
      "▁bevor": 2660,
      "▁könne": 2661,
      "▁jede": 2662,
      "▁kam,": 2663,
      "▁weißen": 2664,
      "▁Beweg": 2665,
      "▁folgen": 2666,
      "▁Tränen": 2667,
      "Ich": 2668,
      "nehmen": 2669,
      "ößer": 2670,
      "stimm": 2671,
      "artig": 2672,
      "▁Garten": 2673,
      "▁schn": 2674,
      "▁Verhältnis": 2675,
      "bring": 2676,
      "▁zweiten": 2677,
      "reuz": 2678,
      "▁glaube,": 2679,
      "▁getan": 2680,
      "▁laut": 2681,
      "▁finden": 2682,
      "▁Hauptmann": 2683,
      "▁drückte": 2684,
      "ling": 2685,
      "zahl": 2686,
      "▁drau": 2687,
      "ckte": 2688,
      "▁Bur": 2689,
      "▁unge": 2690,
      "▁arme": 2691,
      "▁einzige": 2692,
      "piel": 2693,
      "zie": 2694,
      "erin": 2695,
      "▁stieg": 2696,
      "skis": 2697,
      "▁,,W": 2698,
      "▁wohl,": 2699,
      "unken": 2700,
      "app": 2701,
      "wi": 2702,
      "▁häng": 2703,
      "stu": 2704,
      "▁interess": 2705,
      "▁Fre": 2706,
      "▁Schmerz": 2707,
      "▁Erst": 2708,
      "iert": 2709,
      "▁mehr,": 2710,
      "unkt": 2711,
      "▁wahrscheinlich": 2712,
      "▁guten": 2713,
      "▁nämlich": 2714,
      "▁bleiben": 2715,
      "bew": 2716,
      "zel": 2717,
      "▁üb": 2718,
      "▁nötig": 2719,
      "arak": 2720,
      "itte": 2721,
      "▁sicher": 2722,
      "▁glaube": 2723,
      "▁später": 2724,
      "▁verlor": 2725,
      "▁verlang": 2726,
      "▁willst": 2727,
      "wärts": 2728,
      "▁Nikol": 2729,
      "bel": 2730,
      "pe": 2731,
      "eshalb": 2732,
      "▁zerst": 2733,
      "▁sieh": 2734,
      "▁Bank": 2735,
      "▁Mad": 2736,
      "▁sage": 2737,
      "▁Zeit,": 2738,
      "rieben": 2739,
      "ate": 2740,
      "ritt": 2741,
      "ys": 2742,
      "▁Ganz": 2743,
      "▁Wo": 2744,
      "olf": 2745,
      "▁»Ein": 2746,
      "mittel": 2747,
      "▁Finger": 2748,
      "▁erinnerte": 2749,
      "▁Mühe": 2750,
      "laub": 2751,
      "▁Durch": 2752,
      "▁verk": 2753,
      "ochen,": 2754,
      "bare": 2755,
      "baren": 2756,
      "eln.": 2757,
      "▁Glas": 2758,
      "▁Pflicht": 2759,
      "▁Wahrheit": 2760,
      "ka": 2761,
      "▁Wider": 2762,
      "▁Kut": 2763,
      "▁Thr": 2764,
      "▁starr": 2765,
      "▁heran": 2766,
      "▁Anstr": 2767,
      "rift": 2768,
      "▁Aufmerk": 2769,
      "▁Gedanke": 2770,
      "▁Gegenstand": 2771,
      "▁zehn": 2772,
      "schied": 2773,
      "▁denken": 2774,
      "▁Krie": 2775,
      "unden,": 2776,
      "▁statt": 2777,
      "▁bisher": 2778,
      "▁folgte": 2779,
      "▁schwarz": 2780,
      "▁Peters": 2781,
      "indern": 2782,
      "jasch": 2783,
      "selbe": 2784,
      "tlichen": 2785,
      "▁wicht": 2786,
      "▁miß": 2787,
      "▁Hoch": 2788,
      "▁Dach": 2789,
      "▁ihn.": 2790,
      "▁fürchte": 2791,
      "▁wird,": 2792,
      "▁schwarzen": 2793,
      "▁gehabt": 2794,
      "▁Nähe": 2795,
      "wesen": 2796,
      "▁sel": 2797,
      "▁nein,": 2798,
      "▁Selbst": 2799,
      "▁»und": 2800,
      "▁Denn": 2801,
      "irf": 2802,
      "▁unwill": 2803,
      "pfte": 2804,
      "▁Gesetz": 2805,
      "▁werde.": 2806,
      "sichtig": 2807,
      "▁Seel": 2808,
      "▁einge": 2809,
      "schn": 2810,
      "schte": 2811,
      "int-": 2812,
      "▁fin": 2813,
      "▁Weil": 2814,
      "angel": 2815,
      "▁rau": 2816,
      "▁teil": 2817,
      "▁tausend": 2818,
      "▁Antwor": 2819,
      "▁Onk": 2820,
      "igkeit,": 2821,
      "▁Reed": 2822,
      "▁Beispiel": 2823,
      "▁gegeben": 2824,
      "▁Claude": 2825,
      "▁Petersbur": 2826,
      "irfax": 2827,
      "sehen,": 2828,
      "tre": 2829,
      "tige": 2830,
      "▁sicht": 2831,
      "▁Swi": 2832,
      "inz": 2833,
      "▁inner": 2834,
      "▁Eing": 2835,
      "▁St.": 2836,
      "endet": 2837,
      "▁bek": 2838,
      "▁anderes": 2839,
      "▁großer": 2840,
      "▁»Ach": 2841,
      "▁Gelegenheit": 2842,
      "▁Male": 2843,
      "▁Pferde": 2844,
      "▁Straße": 2845,
      "▁Kapitel": 2846,
      "▁Fairfax": 2847,
      "▁Swijasch": 2848,
      "oten": 2849,
      "▁Sal": 2850,
      "▁bö": 2851,
      "▁bloß": 2852,
      "▁inn": 2853,
      "▁kennen": 2854,
      "▁Büch": 2855,
      "▁letzte": 2856,
      "▁Fle": 2857,
      "▁soeben": 2858,
      "▁hatten.": 2859,
      "▁niedr": 2860,
      "▁Hand,": 2861,
      "▁Bef": 2862,
      "▁halten": 2863,
      "▁liegt": 2864,
      "▁Pferd": 2865,
      "▁heißt": 2866,
      "▁Vergnügen": 2867,
      "▁Miene": 2868,
      "bild": 2869,
      "sal": 2870,
      "▁Gouv": 2871,
      "achsen": 2872,
      "▁lach": 2873,
      "alien": 2874,
      "▁miteinander": 2875,
      "re-D": 2876,
      "▁entgegen": 2877,
      "▁Obl": 2878,
      "▁Früh": 2879,
      "zeß": 2880,
      "▁verließ": 2881,
      "▁Meinung": 2882,
      "▁Ordnung": 2883,
      "ut,": 2884,
      "▁da,": 2885,
      "▁fal": 2886,
      "▁war;": 2887,
      "▁Furcht": 2888,
      "▁Lau": 2889,
      "▁jedem": 2890,
      "▁wurde.": 2891,
      "▁keiner": 2892,
      "▁Mädchen,": 2893,
      "▁arbei": 2894,
      "▁Gottes": 2895,
      "schaften": 2896,
      "▁empor": 2897,
      "iegel": 2898,
      "age,": 2899,
      "▁sowohl": 2900,
      "▁geöff": 2901,
      "▁darum": 2902,
      "▁Saint-": 2903,
      "▁»Warum": 2904,
      "gültig": 2905,
      "▁Aufmerksamkeit": 2906,
      "ft,": 2907,
      "sy": 2908,
      "sig": 2909,
      "tl": 2910,
      "▁lust": 2911,
      "▁ich.": 2912,
      "▁Part": 2913,
      "▁Rücken": 2914,
      "▁sollte,": 2915,
      "▁»Sch": 2916,
      "▁geradezu": 2917,
      "▁Zustand": 2918,
      "theil": 2919,
      "▁größer": 2920,
      "▁Charak": 2921,
      "▁Notre-D": 2922,
      "▁Schritte": 2923,
      "av": 2924,
      "lagen": 2925,
      "einer": 2926,
      "▁Eur": 2927,
      "▁Heil": 2928,
      "▁Stock": 2929,
      "ommen,": 2930,
      "ätz": 2931,
      "▁»Der": 2932,
      "▁hätte.": 2933,
      "▁Studen": 2934,
      "schaft,": 2935,
      "▁Verzwei": 2936,
      "eira": 2937,
      "▁Wald": 2938,
      "▁Körper": 2939,
      "▁Dunkel": 2940,
      "▁Ly": 2941,
      "▁demselben": 2942,
      "▁Zus": 2943,
      "▁überleg": 2944,
      "▁Ihrer": 2945,
      "▁bringen": 2946,
      "wirr": 2947,
      "▁Kamin": 2948,
      "▁Anstreng": 2949,
      "ünde": 2950,
      "▁ehe": 2951,
      "en?«": 2952,
      "▁san": 2953,
      "▁hel": 2954,
      "elt,": 2955,
      "igkeiten": 2956,
      "alter": 2957,
      "▁schüttel": 2958,
      "▁Versuch": 2959,
      "▁auch,": 2960,
      "▁Plötzlich": 2961,
      "▁glaubte": 2962,
      "▁gewöhnlich": 2963,
      "▁beinahe": 2964,
      "▁Oblon": 2965,
      "▁faßte": 2966,
      "▁Wand": 2967,
      "▁Arzt": 2968,
      "assung": 2969,
      "▁Prozeß": 2970,
      "▁Mond": 2971,
      "forder": 2972,
      "▁hübsch": 2973,
      "mittag": 2974,
      "ond": 2975,
      "ram": 2976,
      "eite": 2977,
      "eind": 2978,
      "▁erhalten": 2979,
      "atze": 2980,
      "eter": 2981,
      "▁Kunst": 2982,
      "alt,": 2983,
      "▁Tri": 2984,
      "deut": 2985,
      "e,«": 2986,
      "▁vorbei": 2987,
      "▁hatte;": 2988,
      "▁Ja,": 2989,
      "▁»Wo": 2990,
      "▁sollte.": 2991,
      "▁kann,": 2992,
      "▁verloren": 2993,
      "▁Manne": 2994,
      "▁›W": 2995,
      "▁Mitleid": 2996,
      "▁gemein": 2997,
      "▁krank": 2998,
      "▁ergriff": 2999,
      "▁solcher": 3000,
      "acken": 3001,
      "dolf": 3002,
      "la": 3003,
      "treten": 3004,
      "talien": 3005,
      "▁Gei": 3006,
      "▁Inn": 3007,
      "▁Neu": 3008,
      "▁gestern": 3009,
      "▁bemüh": 3010,
      "▁Stellung": 3011,
      "▁angenehm": 3012,
      "▁ziemlich": 3013,
      "▁bißchen": 3014,
      "kürlich": 3015,
      "▁präch": 3016,
      "chen.": 3017,
      "▁ster": 3018,
      "▁Sam": 3019,
      "▁»Z": 3020,
      "▁Best": 3021,
      "▁Krä": 3022,
      "▁läß": 3023,
      "▁Tat": 3024,
      "▁Schne": 3025,
      "▁Po": 3026,
      "▁unangen": 3027,
      "▁Rou": 3028,
      "▁rühr": 3029,
      "pfen": 3030,
      "▁Frau,": 3031,
      "▁zweif": 3032,
      "▁anges": 3033,
      "▁gefunden": 3034,
      "▁standen": 3035,
      "▁sprang": 3036,
      "▁Rudolf": 3037,
      "▁sehe": 3038,
      "▁Endlich": 3039,
      "▁Hoffnung": 3040,
      "▁Verzweifl": 3041,
      "he,": 3042,
      "▁nam": 3043,
      "st.": 3044,
      "▁ertr": 3045,
      "orben": 3046,
      "▁Wohl": 3047,
      "▁Denk": 3048,
      "▁schli": 3049,
      "de.": 3050,
      "▁wobei": 3051,
      "▁wohin": 3052,
      "▁meinte": 3053,
      "ern.": 3054,
      "neten": 3055,
      "▁gehen,": 3056,
      "ärtlich": 3057,
      "▁»Ist": 3058,
      "halten,": 3059,
      "▁Haup": 3060,
      "▁Fürsten": 3061,
      "volle": 3062,
      "▁Männer": 3063,
      "▁gesprochen": 3064,
      "▁beobach": 3065,
      "o,": 3066,
      "ämpf": 3067,
      "▁dreh": 3068,
      "▁derselben": 3069,
      "▁Werk": 3070,
      "▁Dom": 3071,
      "urf": 3072,
      "▁Tische": 3073,
      "▁aufger": 3074,
      "recken": 3075,
      "rock": 3076,
      "▁Stunden": 3077,
      "▁wirk": 3078,
      "▁Dies": 3079,
      "änge": 3080,
      "▁»Nein": 3081,
      "▁gut,": 3082,
      "▁behaup": 3083,
      "merksam": 3084,
      "▁trotzdem": 3085,
      "▁Schule": 3086,
      "▁Bemerk": 3087,
      "▁finster": 3088,
      "meister": 3089,
      "eih": 3090,
      "em,": 3091,
      "▁And": 3092,
      "etten": 3093,
      "ase": 3094,
      "▁aufmerksam": 3095,
      "▁Ing": 3096,
      "losen": 3097,
      "▁gewissen": 3098,
      "▁selbst,": 3099,
      "▁berühr": 3100,
      "▁gleichfalls": 3101,
      "▁liegen": 3102,
      "stellung": 3103,
      "▁kleines": 3104,
      "▁längst": 3105,
      "▁erkenn": 3106,
      "hü": 3107,
      "öch": 3108,
      "▁dien": 3109,
      "eiß": 3110,
      "schrei": 3111,
      "▁Win": 3112,
      "▁richtete": 3113,
      "▁habt": 3114,
      "ächter": 3115,
      "▁schwach": 3116,
      "▁schwieg": 3117,
      "▁Frem": 3118,
      "▁Inter": 3119,
      "▁Gesicht,": 3120,
      "führt": 3121,
      "▁Alic": 3122,
      "▁bitte": 3123,
      "▁Straßen": 3124,
      "▁übr": 3125,
      "▁Zweck": 3126,
      "▁flüsterte": 3127,
      "▁notwend": 3128,
      "▁Möglich": 3129,
      "▁selten": 3130,
      "▁Gang": 3131,
      "▁Tem": 3132,
      "▁ist.«": 3133,
      "▁anderer": 3134,
      "onnen": 3135,
      "▁seid": 3136,
      "▁jenen": 3137,
      "▁leiden": 3138,
      "▁fortw": 3139,
      "▁Entschl": 3140,
      "▁Mary": 3141,
      "kam,": 3142,
      "▁Gouvern": 3143,
      "ober": 3144,
      "▁düster": 3145,
      "essel": 3146,
      "▁einsam": 3147,
      "▁bat": 3148,
      "▁Kauf": 3149,
      "▁ausges": 3150,
      "▁wohn": 3151,
      "sprech": 3152,
      "gegangen": 3153,
      "nen,": 3154,
      "▁geist": 3155,
      "auern": 3156,
      "▁Baum": 3157,
      "▁Kü": 3158,
      "▁Hof": 3159,
      "▁Les": 3160,
      "▁Tätigkeit": 3161,
      "▁herunter": 3162,
      "▁ganzes": 3163,
      "▁Arbei": 3164,
      "▁ab.": 3165,
      "▁begeg": 3166,
      "äub": 3167,
      "lossen,": 3168,
      "▁schlief": 3169,
      "üssel": 3170,
      "vollen": 3171,
      "▁vergnü": 3172,
      "▁Füßen": 3173,
      "▁hohen": 3174,
      "▁Warjenka": 3175,
      "öm": 3176,
      "▁Ehe": 3177,
      "▁Wink": 3178,
      "▁leg": 3179,
      "▁Tagen": 3180,
      "▁Schm": 3181,
      "▁Rock": 3182,
      "euchte": 3183,
      "trag": 3184,
      "▁Nie": 3185,
      "▁rein": 3186,
      "▁überrasch": 3187,
      "▁,,D": 3188,
      "▁,,S": 3189,
      "▁Bessie": 3190,
      "▁Geräusch": 3191,
      "▁Schuld": 3192,
      "▁Wege": 3193,
      "bogen": 3194,
      "ste,": 3195,
      "▁deinen": 3196,
      "ichten": 3197,
      "inen": 3198,
      "inne": 3199,
      "▁Mus": 3200,
      "▁Fro": 3201,
      "▁schöne": 3202,
      "▁Rom": 3203,
      "▁Außer": 3204,
      "▁Sta": 3205,
      "▁Jungen": 3206,
      "herr": 3207,
      "▁wollte.": 3208,
      "▁zurückzu": 3209,
      "▁blau": 3210,
      "▁hören": 3211,
      "▁Tone": 3212,
      "▁deiner": 3213,
      "▁Är": 3214,
      "ailow": 3215,
      "mäßig": 3216,
      "▁Michailow": 3217,
      "▁Zusamm": 3218,
      "▁äl": 3219,
      "eier": 3220,
      "▁zufrieden": 3221,
      "▁Gold": 3222,
      "acht.": 3223,
      "▁Ben": 3224,
      "▁Betr": 3225,
      "▁Ho": 3226,
      "▁Holz": 3227,
      "▁ward": 3228,
      "▁verur": 3229,
      "▁Ern": 3230,
      "isch,": 3231,
      "▁tre": 3232,
      "▁besaß": 3233,
      "▁Anfang": 3234,
      "ossen": 3235,
      "▁erstaun": 3236,
      "▁Schultern": 3237,
      "▁darüber,": 3238,
      "▁gewesen.": 3239,
      "▁'n": 3240,
      "▁Schönheit": 3241,
      "maßen": 3242,
      "▁Swijaschski": 3243,
      "mütig": 3244,
      "uppe": 3245,
      "ender": 3246,
      "▁mei": 3247,
      "▁müß": 3248,
      "▁hind": 3249,
      "▁Sold": 3250,
      "▁Ach": 3251,
      "in.": 3252,
      "▁infolge": 3253,
      "▁Halt": 3254,
      "▁Do": 3255,
      "▁nicht;": 3256,
      "anden": 3257,
      "▁aufge": 3258,
      "▁Pal": 3259,
      "▁rasch": 3260,
      "▁entz": 3261,
      "alle": 3262,
      "▁»So": 3263,
      "▁verschwand": 3264,
      "▁guter": 3265,
      "▁Herzog": 3266,
      "▁länger": 3267,
      "▁Advokat": 3268,
      "▁heftig": 3269,
      "echt": 3270,
      "mack": 3271,
      "▁sorg": 3272,
      "▁wein": 3273,
      "▁eins": 3274,
      "▁brei": 3275,
      "▁küßte": 3276,
      "agd": 3277,
      "▁Bal": 3278,
      "▁Kan": 3279,
      "▁Tante": 3280,
      "▁gebracht": 3281,
      "▁sagt": 3282,
      "▁traf": 3283,
      "ängst": 3284,
      "▁Bezieh": 3285,
      "▁genommen": 3286,
      "▁Wirklich": 3287,
      "▁Untersuch": 3288,
      "▁Reihe": 3289,
      "ivers": 3290,
      "▁führte": 3291,
      "▁schlecht": 3292,
      "form": 3293,
      "▁Apotheker": 3294,
      "▁Angelegenheit": 3295,
      "▁Freunde": 3296,
      "sa": 3297,
      "▁de": 3298,
      "▁süß": 3299,
      "schu": 3300,
      "▁Bel": 3301,
      "eten,": 3302,
      "▁Komm": 3303,
      "▁Augen.": 3304,
      "▁aber,": 3305,
      "▁vorhand": 3306,
      "uss": 3307,
      "▁Jahrh": 3308,
      "▁fort:": 3309,
      "▁beweg": 3310,
      "▁arm": 3311,
      "▁Blut": 3312,
      "▁Ludw": 3313,
      "▁höher": 3314,
      "eidung": 3315,
      "▁ernst": 3316,
      "▁unwillkürlich": 3317,
      "▁Charakter": 3318,
      "▁Ludwig": 3319,
      "tsch": 3320,
      "vat": 3321,
      "wie": 3322,
      "erv": 3323,
      "▁setz": 3324,
      "einand": 3325,
      "▁fern": 3326,
      "▁Brau": 3327,
      "▁Kor": 3328,
      "▁Dingen": 3329,
      "▁Ir": 3330,
      "▁Regen": 3331,
      "▁gesehen,": 3332,
      "reis": 3333,
      "▁früh": 3334,
      "▁fröh": 3335,
      "▁wollen,": 3336,
      "▁»Da": 3337,
      "▁Menschen,": 3338,
      "eugte": 3339,
      "▁kommen,": 3340,
      "fahren,": 3341,
      "▁armen": 3342,
      "▁versuchte": 3343,
      "▁Hals": 3344,
      "klei": 3345,
      "▁die,": 3346,
      "stür": 3347,
      "elig": 3348,
      "ität": 3349,
      "▁Bäum": 3350,
      "▁Wissen": 3351,
      "▁Dank": 3352,
      "isches": 3353,
      "▁stolz": 3354,
      "ilber": 3355,
      "▁Ljewin.": 3356,
      "▁Ljewins": 3357,
      "▁Mannes": 3358,
      "▁geschehen": 3359,
      "▁Gesichts": 3360,
      "▁Unterhalt": 3361,
      "▁Umständ": 3362,
      "▁geth": 3363,
      "▁jemals": 3364,
      "▁richtig": 3365,
      "▁hindurch": 3366,
      "hel": 3367,
      "▁nein": 3368,
      "▁nenn": 3369,
      "arbei": 3370,
      "▁Macht": 3371,
      "reut": 3372,
      "▁Neben": 3373,
      "enntnis": 3374,
      "▁bekommen": 3375,
      "▁machte,": 3376,
      "▁Chr": 3377,
      "▁Gesicht.": 3378,
      "ständnis": 3379,
      "▁Gringoir": 3380,
      "▁Advokaten": 3381,
      "▁Traum": 3382,
      "▁schrieb": 3383,
      "▁Oblonski": 3384,
      "fers": 3385,
      "len": 3386,
      "n,": 3387,
      "t?«": 3388,
      "orte": 3389,
      "▁kehrte": 3390,
      "▁Hei": 3391,
      "▁daß,": 3392,
      "ftigen": 3393,
      "▁Verstand": 3394,
      "lock": 3395,
      "auspiel": 3396,
      "▁Bedeut": 3397,
      "▁ging,": 3398,
      "▁Rede": 3399,
      "▁einzigen": 3400,
      "▁errö": 3401,
      "▁äußer": 3402,
      "dia": 3403,
      "i,": 3404,
      "t'": 3405,
      "ue": 3406,
      "▁dagegen": 3407,
      "▁Bein": 3408,
      "▁Ist": 3409,
      "▁dem,": 3410,
      "▁Nun,": 3411,
      "▁tun,": 3412,
      "lose": 3413,
      "▁französ": 3414,
      "▁begr": 3415,
      "▁zurückge": 3416,
      "▁»Na,": 3417,
      "▁weißt": 3418,
      "▁hörte,": 3419,
      "▁Annas": 3420,
      "▁strahl": 3421,
      "izier": 3422,
      "▁Tode": 3423,
      "▁Weslow": 3424,
      "▁Kaufmann": 3425,
      "fen.": 3426,
      "kung": 3427,
      "t!": 3428,
      "äck": 3429,
      "äge": 3430,
      "änen": 3431,
      "▁2": 3432,
      "iege": 3433,
      "onv": 3434,
      "atür": 3435,
      "▁mitten": 3436,
      "▁Schauspiel": 3437,
      "▁Zeichen": 3438,
      "angen.": 3439,
      "lier": 3440,
      "olke": 3441,
      "▁hinab": 3442,
      "reise": 3443,
      "keit,": 3444,
      "▁pers": 3445,
      "achtung": 3446,
      "▁sind.": 3447,
      "▁vielmehr": 3448,
      "▁eigene": 3449,
      "▁zusammen,": 3450,
      "▁müssen,": 3451,
      "▁hinzu,": 3452,
      "nfiel": 3453,
      "▁erkannte": 3454,
      "▁Gegent": 3455,
      "▁manchmal": 3456,
      "▁Petersburg": 3457,
      "▁unangenehm": 3458,
      "▁eng": 3459,
      "ene": 3460,
      "▁murm": 3461,
      "▁Ma": 3462,
      "▁Lehn": 3463,
      "▁scharf": 3464,
      "▁Vier": 3465,
      "eun": 3466,
      "▁überall": 3467,
      "▁Dieses": 3468,
      "ppich": 3469,
      "▁Ihren": 3470,
      "▁Fragen": 3471,
      "----": 3472,
      "▁Beam": 3473,
      "▁Schwier": 3474,
      "▁Sommer": 3475,
      "▁Kranken": 3476,
      "▁Karen": 3477,
      "▁Adele": 3478,
      "irektor": 3479,
      "▁denken,": 3480,
      "▁geworden,": 3481,
      "▁Dorf": 3482,
      "▁Frühstück": 3483,
      "▁Lydia": 3484,
      "fiel": 3485,
      "ho": 3486,
      "müt": 3487,
      "tz": 3488,
      "tliche": 3489,
      "erz": 3490,
      "eien": 3491,
      "▁dauer": 3492,
      "▁Bar": 3493,
      "▁Maß": 3494,
      "▁Mauer": 3495,
      "▁Hund": 3496,
      "▁Schick": 3497,
      "ieben,": 3498,
      "▁dann,": 3499,
      "ießen": 3500,
      "▁obwohl": 3501,
      "▁Leib": 3502,
      "hafte": 3503,
      "zwischen": 3504,
      "▁»das": 3505,
      "▁Urs": 3506,
      "üchtig": 3507,
      "▁kenne": 3508,
      "▁Thornfiel": 3509,
      "▁Form": 3510,
      "▁Notre-Dame": 3511,
      "▁fortwährend": 3512,
      "ügen": 3513,
      "▁häuf": 3514,
      "el.": 3515,
      "ont": 3516,
      "ina": 3517,
      "▁Kummer": 3518,
      "alen": 3519,
      "▁gekommen,": 3520,
      "▁Gesichte": 3521,
      "▁Arz": 3522,
      "▁Beck": 3523,
      "▁Zimmer.": 3524,
      "▁Geschäft": 3525,
      "▁Bürger": 3526,
      "▁Ueber": 3527,
      "lungen": 3528,
      "nungen": 3529,
      "pft": 3530,
      "zun": 3531,
      "öck": 3532,
      "en«,": 3533,
      "▁seuf": 3534,
      "▁Ag": 3535,
      "▁fehl": 3536,
      "ach,": 3537,
      "▁Kreuz": 3538,
      "▁Leb": 3539,
      "▁Vat": 3540,
      "▁sagen.": 3541,
      "ußt": 3542,
      "▁her,": 3543,
      "▁Off": 3544,
      "asche": 3545,
      "▁Mitte": 3546,
      "▁geben,": 3547,
      "▁Arbeits": 3548,
      "▁Warum": 3549,
      "▁Saal": 3550,
      "▁quäl": 3551,
      "▁Krieg": 3552,
      "▁geöffnet": 3553,
      "▁Thornfield": 3554,
      "isten": 3555,
      "läs": 3556,
      "yre": 3557,
      "▁wann": 3558,
      "anten": 3559,
      "▁Eigen": 3560,
      "▁aufs": 3561,
      "▁unauf": 3562,
      "▁Rat": 3563,
      "ußts": 3564,
      "▁glauben": 3565,
      "▁entsetz": 3566,
      "▁Einzel": 3567,
      "▁eig": 3568,
      "▁»Nicht": 3569,
      "▁Lande": 3570,
      "▁Gewohn": 3571,
      "▁Schulter": 3572,
      "▁worden,": 3573,
      "▁Richter": 3574,
      "▁andre": 3575,
      "▁Nikolai": 3576,
      "▁persön": 3577,
      "ding": 3578,
      "seit": 3579,
      "tst": 3580,
      "ämmer": 3581,
      "üst": 3582,
      "iesen": 3583,
      "▁sitz": 3584,
      "▁nimm": 3585,
      "▁einigen": 3586,
      "auch": 3587,
      "on,": 3588,
      "▁Gu": 3589,
      "▁sieht": 3590,
      "▁Zug": 3591,
      "iss": 3592,
      "indung": 3593,
      "▁»Wer": 3594,
      "▁mußte,": 3595,
      "▁würd": 3596,
      "▁weiter.": 3597,
      "▁befind": 3598,
      "▁müsse": 3599,
      "▁Gott,": 3600,
      "reckte": 3601,
      "ehnte": 3602,
      "▁Gebäu": 3603,
      "affe": 3604,
      "▁erschienen": 3605,
      "▁Papier": 3606,
      "▁geblieben": 3607,
      "▁Interesse": 3608,
      "ilos": 3609,
      "ocken": 3610,
      "tön": 3611,
      "estern": 3612,
      "▁häß": 3613,
      "▁erinn": 3614,
      "▁Eyre": 3615,
      "▁Mu": 3616,
      "▁Schritt": 3617,
      "annt": 3618,
      "▁Nein,": 3619,
      "▁imstande": 3620,
      "▁besten": 3621,
      "▁Grunde": 3622,
      "innen,": 3623,
      "ruh": 3624,
      "▁Ihrem": 3625,
      "▁Nachbar": 3626,
      "▁Stimme,": 3627,
      "▁Wirtschaft": 3628,
      "▁Betsy": 3629,
      "▁unserer": 3630,
      "▁erreich": 3631,
      "▁Entsch": 3632,
      "▁finden,": 3633,
      "▁verstehe": 3634,
      "haften": 3635,
      "▁Richtung": 3636,
      "▁übrigen": 3637,
      "▁,,Na,": 3638,
      "erie": 3639,
      "▁dank": 3640,
      "▁Beh": 3641,
      "▁Mas": 3642,
      "▁Heim": 3643,
      "alten,": 3644,
      "▁gehe": 3645,
      "▁anf": 3646,
      "▁Vort": 3647,
      "ingen,": 3648,
      "eilen": 3649,
      "▁entdeck": 3650,
      "▁»In": 3651,
      "▁Herrschaft": 3652,
      "▁spät": 3653,
      "▁heim": 3654,
      "▁glaubte,": 3655,
      "▁Kirch": 3656,
      "▁außerordentlich": 3657,
      "▁Begriff": 3658,
      "▁'ne": 3659,
      "▁Herzens": 3660,
      "gestellt": 3661,
      "▁draußen": 3662,
      "▁schüttelte": 3663,
      "▁Weslowski": 3664,
      "d.": 3665,
      "gab": 3666,
      "mäh": 3667,
      "eils": 3668,
      "▁gn": 3669,
      "anl": 3670,
      "▁klo": 3671,
      "▁Meine": 3672,
      "et.": 3673,
      "▁Dr": 3674,
      "▁Fahr": 3675,
      "genommen": 3676,
      "pfel": 3677,
      "enden,": 3678,
      "uchen": 3679,
      "log": 3680,
      "▁herbei": 3681,
      "egenheiten": 3682,
      "▁großes": 3683,
      "▁Ents": 3684,
      "▁erzählte": 3685,
      "platz": 3686,
      "▁Wirklichkeit": 3687,
      "-H": 3688,
      "oph": 3689,
      "erb": 3690,
      "scheu": 3691,
      "▁Woch": 3692,
      "▁Hem": 3693,
      "▁Häl": 3694,
      "▁Den": 3695,
      "▁wartete": 3696,
      "▁Tor": 3697,
      "▁Tier": 3698,
      "▁vert": 3699,
      "▁Zä": 3700,
      "trei": 3701,
      "leisch": 3702,
      "▁machten": 3703,
      "▁»Als": 3704,
      "▁Glanz": 3705,
      "ahlen": 3706,
      "▁Hauses": 3707,
      "stellen,": 3708,
      "▁folg": 3709,
      "▁»die": 3710,
      "öpfe": 3711,
      "▁erlaub": 3712,
      "▁Jahrhunder": 3713,
      "blei": 3714,
      "▁at": 3715,
      "▁Sicher": 3716,
      "stoß": 3717,
      "▁dachte,": 3718,
      "ache,": 3719,
      "▁Wür": 3720,
      "▁Erschein": 3721,
      "leben": 3722,
      "▁gehen.": 3723,
      "▁könne,": 3724,
      "▁könne.": 3725,
      "▁Franz": 3726,
      "▁Gedäch": 3727,
      "schlag": 3728,
      "▁wahr,": 3729,
      "▁Reise": 3730,
      "▁Knie": 3731,
      "▁Jane,": 3732,
      "▁freundlich": 3733,
      "▁namentlich": 3734,
      "▁meisten": 3735,
      "h!": 3736,
      "res": 3737,
      "▁ö": 3738,
      "▁hundert": 3739,
      "▁einiger": 3740,
      "▁Aben": 3741,
      "itw": 3742,
      "▁Me": 3743,
      "▁Dian": 3744,
      "irr": 3745,
      "▁Fort": 3746,
      "▁dasselbe": 3747,
      "de-": 3748,
      "t,«": 3749,
      "▁nach,": 3750,
      "▁fürchter": 3751,
      "▁stör": 3752,
      "reiß": 3753,
      "ächst": 3754,
      "steh": 3755,
      "▁Armen": 3756,
      "▁mehr.": 3757,
      "▁beglei": 3758,
      "▁Hand.": 3759,
      "ickt": 3760,
      "losigkeit": 3761,
      "▁Tom,": 3762,
      "▁sprach,": 3763,
      "▁Angst": 3764,
      "▁darauf,": 3765,
      "▁Überzeug": 3766,
      "▁verheira": 3767,
      "▁verstehen": 3768,
      "▁sichtbar": 3769,
      "mar": 3770,
      "tes,": 3771,
      "▁erb": 3772,
      "▁kümmer": 3773,
      "▁Bahn": 3774,
      "liche,": 3775,
      "▁Mill": 3776,
      "▁Wunder": 3777,
      "▁unn": 3778,
      "▁Zauber": 3779,
      "▁rück": 3780,
      "elche": 3781,
      "▁begrei": 3782,
      "▁mußt": 3783,
      "▁langweil": 3784,
      "▁Frank": 3785,
      "▁sollen": 3786,
      "▁stand,": 3787,
      "▁dräng": 3788,
      "▁allerlei": 3789,
      "▁Geheimnis": 3790,
      "▁reichte": 3791,
      "▁wünschte": 3792,
      "zogen,": 3793,
      "▁Kleider": 3794,
      "ziehen": 3795,
      "▁Verzweiflung": 3796,
      "▁Becky": 3797,
      "▁Gedächtnis": 3798,
      "kleid": 3799,
      "▁eh": 3800,
      "anc": 3801,
      "itte,": 3802,
      "auder": 3803,
      "aten,": 3804,
      "▁Ecke": 3805,
      "▁Mor": 3806,
      "▁Heu": 3807,
      "▁Doch": 3808,
      "▁nichts,": 3809,
      "▁Len": 3810,
      "▁verwand": 3811,
      "▁ihr.": 3812,
      "▁Vog": 3813,
      "▁ober": 3814,
      "ücke": 3815,
      "▁mich.": 3816,
      "▁Gras": 3817,
      "▁Card": 3818,
      "▁bin,": 3819,
      "▁Wronskis": 3820,
      "▁»Mein": 3821,
      "▁Maler": 3822,
      "▁kleiner": 3823,
      "▁Sonntag": 3824,
      "boden": 3825,
      "▁traurig": 3826,
      "▁glänzen": 3827,
      "▁augenblick": 3828,
      "▁Joe": 3829,
      "-de-": 3830,
      "hundert": 3831,
      "satz": 3832,
      "tscher": 3833,
      "vers": 3834,
      "ühm": 3835,
      "ieber": 3836,
      "▁abend": 3837,
      "▁Sitz": 3838,
      "elte,": 3839,
      "▁Gatt": 3840,
      "▁»R": 3841,
      "▁Kindern": 3842,
      "▁schien,": 3843,
      "▁Schrecken": 3844,
      "▁vorzu": 3845,
      "▁ihm.": 3846,
      "ents": 3847,
      "▁kann.": 3848,
      "▁eis": 3849,
      "▁will,": 3850,
      "▁zwanzig": 3851,
      "▁›A": 3852,
      "▁Schließlich": 3853,
      "straß": 3854,
      "▁sagen:": 3855,
      "ecke": 3856,
      "▁Gegenwart": 3857,
      "hause": 3858,
      "zeitig": 3859,
      "▁Gegenteil": 3860,
      "▁Offizier": 3861,
      "lieb": 3862,
      "öre": 3863,
      "▁ew": 3864,
      "ert": 3865,
      "▁mächtig": 3866,
      "▁»P": 3867,
      "achten": 3868,
      "▁Klo": 3869,
      "▁Lauf": 3870,
      "▁Ide": 3871,
      "tritt": 3872,
      "▁Noch": 3873,
      "unden.": 3874,
      "▁bekam": 3875,
      "leb": 3876,
      "▁fragen": 3877,
      "▁sahen": 3878,
      "bekann": 3879,
      "▁stehen,": 3880,
      "ult": 3881,
      "▁Glauben": 3882,
      "▁Gedanken,": 3883,
      "▁lag,": 3884,
      "▁rot": 3885,
      "▁Sir,": 3886,
      "▁Trotz": 3887,
      "▁Teppich": 3888,
      "▁drehte": 3889,
      "▁Ingram": 3890,
      "▁ängst": 3891,
      "▁mochte": 3892,
      "inal": 3893,
      "▁Gä": 3894,
      "▁»es": 3895,
      "▁Dicht": 3896,
      "▁les": 3897,
      "▁sein.«": 3898,
      "▁aufgeh": 3899,
      "eiten,": 3900,
      "▁ans": 3901,
      "▁Ihn": 3902,
      "▁vor.": 3903,
      "▁voraus": 3904,
      "▁wieder.": 3905,
      "heur": 3906,
      "herz": 3907,
      "ott": 3908,
      "ändig": 3909,
      "nisse": 3910,
      "▁neun": 3911,
      "▁alt": 3912,
      "▁vollkommen": 3913,
      "▁Bewußts": 3914,
      "▁empfind": 3915,
      "▁Gefühle": 3916,
      "wegs": 3917,
      "▁Gemüt": 3918,
      "▁Kampf": 3919,
      "▁dunkel": 3920,
      "▁heiligen": 3921,
      "▁schweigend": 3922,
      "▁Musik": 3923,
      "▁murmelte": 3924,
      "baz": 3925,
      "ien.": 3926,
      "man": 3927,
      "mäd": 3928,
      "rt": 3929,
      "▁Ster": 3930,
      "▁eintr": 3931,
      "aunen": 3932,
      "▁Gast": 3933,
      "▁Fest": 3934,
      "▁Lärm": 3935,
      "▁soviel": 3936,
      "▁schob": 3937,
      "▁Tief": 3938,
      "▁Italien": 3939,
      "▁Schtscher": 3940,
      "▁Post": 3941,
      "ewiß": 3942,
      "▁dumm": 3943,
      "▁wolle": 3944,
      "▁pein": 3945,
      "▁könnte,": 3946,
      "eller": 3947,
      "▁vielen": 3948,
      "▁verspr": 3949,
      "ränk": 3950,
      "▁Nachricht": 3951,
      "▁Ange": 3952,
      "▁Prof": 3953,
      "lichkeit,": 3954,
      "▁Kirchen": 3955,
      "▁gehabt,": 3956,
      "▁sprechen.": 3957,
      "fällig": 3958,
      "▁ungefähr": 3959,
      "▁unaufhör": 3960,
      "▁Schtscherbaz": 3961,
      "ain": 3962,
      "äger": 3963,
      "öw": 3964,
      "▁wün": 3965,
      "▁»T": 3966,
      "lichen,": 3967,
      "uren": 3968,
      "asow": 3969,
      "▁gez": 3970,
      "▁Auff": 3971,
      "▁Erklär": 3972,
      "▁Sti": 3973,
      "äche": 3974,
      "ächer": 3975,
      "ätze": 3976,
      "usse": 3977,
      "▁,,A": 3978,
      "▁Zimmer,": 3979,
      "▁wäre.": 3980,
      "▁Kittys": 3981,
      "▁glauben,": 3982,
      "▁Chor": 3983,
      "▁Prinz": 3984,
      "▁scheint": 3985,
      "▁Onkel": 3986,
      "eihen": 3987,
      "▁hor": 3988,
      "▁Atem": 3989,
      "▁»aber": 3990,
      "▁Wein": 3991,
      "▁nicht.«": 3992,
      "▁lern": 3993,
      "▁lachte": 3994,
      "▁Lam": 3995,
      "▁Löw": 3996,
      "▁nachzu": 3997,
      "▁wieder,": 3998,
      "▁»Dann": 3999,
      "▁,,H": 4000,
      "diger": 4001,
      "▁Spei": 4002,
      "ältig": 4003,
      "▁alter": 4004,
      "▁Zukunft": 4005,
      "▁kommen.": 4006,
      "▁Gefühl,": 4007,
      "▁Iwanowna": 4008,
      "▁»daß": 4009,
      "▁Zwischen": 4010,
      "▁fahren": 4011,
      "▁geworden.": 4012,
      "▁Hex": 4013,
      "▁Wohnung": 4014,
      "▁Bedeutung": 4015,
      "▁Schicksal": 4016,
      "brech": 4017,
      "getr": 4018,
      "kon": 4019,
      "ve": 4020,
      "wider": 4021,
      "üben": 4022,
      "üler": 4023,
      "▁Y": 4024,
      "▁wagte": 4025,
      "▁bil": 4026,
      "achen,": 4027,
      "▁Hü": 4028,
      "egt,": 4029,
      "ehen.": 4030,
      "▁ist's": 4031,
      "ang,": 4032,
      "▁Stand": 4033,
      "▁fürch": 4034,
      "ächlich": 4035,
      "ächtigen": 4036,
      "▁denn?«": 4037,
      "▁kannte": 4038,
      "▁hierher": 4039,
      "ütter": 4040,
      "sprechen": 4041,
      "quem": 4042,
      "dessen": 4043,
      "▁Blumen": 4044,
      "mögen": 4045,
      "▁vergessen,": 4046,
      "▁Leute,": 4047,
      "▁jedesmal": 4048,
      "▁Häuser": 4049,
      "▁sonderbar": 4050,
      "▁Winter": 4051,
      "▁Außerdem": 4052,
      "▁Christ": 4053,
      "nung,": 4054,
      "t!«": 4055,
      "ugen": 4056,
      "en!": 4057,
      "▁einst": 4058,
      "▁er:": 4059,
      "▁zurecht": 4060,
      "tenden": 4061,
      "ungen.": 4062,
      "▁letz": 4063,
      "▁sogleich": 4064,
      "▁Zelle": 4065,
      "roffen": 4066,
      "▁russ": 4067,
      "olen": 4068,
      "▁Vertrau": 4069,
      "▁Verständnis": 4070,
      "▁werd": 4071,
      "▁dennoch": 4072,
      "▁wollten": 4073,
      "▁ph": 4074,
      "▁selbst.": 4075,
      "▁zurückkehr": 4076,
      "▁Schwestern": 4077,
      "gelassen": 4078,
      "▁ungeh": 4079,
      "▁Stimmung": 4080,
      "▁heraus,": 4081,
      "richter": 4082,
      "würd": 4083,
      "▁merkte": 4084,
      "▁eilig": 4085,
      "▁Freiheit": 4086,
      "▁Eisen": 4087,
      "▁gewisse": 4088,
      "▁Kutscher": 4089,
      "▁gethan": 4090,
      "länder": 4091,
      "nen.": 4092,
      "to": 4093,
      "yp": 4094,
      "▁ordentlich": 4095,
      "▁zuzu": 4096,
      "▁sieben": 4097,
      "▁Weile": 4098,
      "▁Witw": 4099,
      "ole": 4100,
      "gef": 4101,
      "▁Gefahr": 4102,
      "▁Grab": 4103,
      "riffen": 4104,
      "▁rechten": 4105,
      "▁Thurm": 4106,
      "▁K.s": 4107,
      "▁›D": 4108,
      "▁Weiß": 4109,
      "▁Schlüssel": 4110,
      "▁Wronski,": 4111,
      "▁vermochte": 4112,
      "wirtschaft": 4113,
      "▁hinaus.": 4114,
      "▁Ohren": 4115,
      "▁Mittagessen": 4116,
      "▁überzeugt,": 4117,
      "acob": 4118,
      "▁Salon": 4119,
      "kel": 4120,
      "ois": 4121,
      "ring": 4122,
      "raten": 4123,
      "san": 4124,
      "lichem": 4125,
      "▁Lin": 4126,
      "▁Lachen": 4127,
      "deten": 4128,
      "ürz": 4129,
      "▁überw": 4130,
      "▁Sturm": 4131,
      "▁Verwand": 4132,
      "ilf": 4133,
      "▁seien": 4134,
      "ellen": 4135,
      "▁Aufregung": 4136,
      "▁Besitz": 4137,
      "klag": 4138,
      "▁Geschmack": 4139,
      "▁wahrhaft": 4140,
      "▁heiter": 4141,
      "▁grün": 4142,
      "▁Mutter,": 4143,
      "ahnsinn": 4144,
      "▁Bettler": 4145,
      "nahme": 4146,
      "▁Leuten": 4147,
      "▁erblickte": 4148,
      "▁größten": 4149,
      "▁Entschluß": 4150,
      "▁Winkel": 4151,
      "▁Unterhaltung": 4152,
      "▁Einzelheiten": 4153,
      "Ja,": 4154,
      "ge,": 4155,
      "ließ": 4156,
      "lassen": 4157,
      "tor": 4158,
      "cher": 4159,
      "chte.": 4160,
      "▁gän": 4161,
      "▁Sor": 4162,
      "▁eingesch": 4163,
      "ckt": 4164,
      "▁Ell": 4165,
      "▁Mitt": 4166,
      "▁Wut": 4167,
      "▁De": 4168,
      "▁Ziege": 4169,
      "gekommen": 4170,
      "▁gesund": 4171,
      "▁streckte": 4172,
      "▁wert": 4173,
      "▁wiederum": 4174,
      "▁Antl": 4175,
      "heit.": 4176,
      "obald": 4177,
      "▁weiße": 4178,
      "eigung": 4179,
      "▁indessen": 4180,
      "▁hinzu.": 4181,
      "▁schlechter": 4182,
      "▁reiz": 4183,
      "▁Eltern": 4184,
      "sehen.": 4185,
      "stuhl": 4186,
      "ilosoph": 4187,
      "mor": 4188,
      "önn": 4189,
      "▁Sessel": 4190,
      "▁diejen": 4191,
      "arben": 4192,
      "schrit": 4193,
      "▁kühl": 4194,
      "and,": 4195,
      "reß": 4196,
      "▁Schild": 4197,
      "▁Schüler": 4198,
      "▁dieselbe": 4199,
      "annten": 4200,
      "▁Zur": 4201,
      "▁begriff": 4202,
      "▁reden,": 4203,
      "▁Augenblicke,": 4204,
      "▁Spitze": 4205,
      "▁Rech": 4206,
      "fluß": 4207,
      "ungslos": 4208,
      "▁Gewalt": 4209,
      "▁besonderen": 4210,
      "▁roten": 4211,
      "▁früheren": 4212,
      "▁Name": 4213,
      "ölf": 4214,
      "▁erwartet": 4215,
      "▁Empfindung": 4216,
      "▁Empfindung,": 4217,
      "▁eilte": 4218,
      "▁müde": 4219,
      "▁Möglichkeit": 4220,
      "▁Temp": 4221,
      "legen": 4222,
      "mü": 4223,
      "ämm": 4224,
      "▁te": 4225,
      "erm": 4226,
      "▁weshalb": 4227,
      "llo": 4228,
      "▁der,": 4229,
      "schwei": 4230,
      "▁Ex": 4231,
      "▁Kör": 4232,
      "▁Feu": 4233,
      "▁Scham": 4234,
      "▁tut": 4235,
      "lop": 4236,
      "▁bezahl": 4237,
      "▁traten": 4238,
      "▁frisch": 4239,
      "▁geheimnis": 4240,
      "▁Oli": 4241,
      "halten.": 4242,
      "▁zweite": 4243,
      "▁geschw": 4244,
      "▁gefr": 4245,
      "verständ": 4246,
      "▁Weiber": 4247,
      "▁Reden": 4248,
      "▁behand": 4249,
      "ührung": 4250,
      "bracht,": 4251,
      "zwungen": 4252,
      "▁übrigens": 4253,
      "zehnten": 4254,
      "grund": 4255,
      "laster": 4256,
      "▁läßt": 4257,
      "▁älter": 4258,
      "akt": 4259,
      "wurf": 4260,
      "ühen": 4261,
      "erte": 4262,
      "▁ur": 4263,
      "▁Sc": 4264,
      "▁zuvor": 4265,
      "▁Beine": 4266,
      "▁denke": 4267,
      "▁Kammer": 4268,
      "▁Drei": 4269,
      "rot": 4270,
      "uche": 4271,
      "▁her.": 4272,
      "jewna": 4273,
      "▁denn,": 4274,
      "digt": 4275,
      "▁Wirkung": 4276,
      "▁Lust": 4277,
      "▁...«,": 4278,
      "▁möglich,": 4279,
      "▁Füße": 4280,
      "▁Kataw": 4281,
      "▁höchst": 4282,
      "hüter": 4283,
      "▁Staat": 4284,
      "▁verurs": 4285,
      "▁Frankreich": 4286,
      "▁Katawasow": 4287,
      "hang": 4288,
      "kn": 4289,
      "our": 4290,
      "enig": 4291,
      "▁dü": 4292,
      "tete.": 4293,
      "▁Bald": 4294,
      "▁Kaffe": 4295,
      "▁nicht«,": 4296,
      "▁sein;": 4297,
      "▁Vielleicht": 4298,
      "▁sagt,": 4299,
      "▁Jagd": 4300,
      "▁Jacob": 4301,
      "▁treu": 4302,
      "▁gewähr": 4303,
      "▁Esmer": 4304,
      "aufen,": 4305,
      "▁mußte.": 4306,
      "▁Bed": 4307,
      "ütze": 4308,
      "▁geschm": 4309,
      "▁nun,": 4310,
      "rän": 4311,
      "▁›N": 4312,
      "▁Anna,": 4313,
      "▁liebte": 4314,
      "▁Worte,": 4315,
      "ionen": 4316,
      "▁einziges": 4317,
      "▁Emmas": 4318,
      "haftigkeit": 4319,
      "▁Königs": 4320,
      "▁außerdem": 4321,
      "▁besser,": 4322,
      "▁Darauf": 4323,
      "▁bitte,": 4324,
      "azier": 4325,
      "▁Beschäftig": 4326,
      "▁Lehrer": 4327,
      "▁augenscheinlich": 4328,
      "▁Leidenschaft": 4329,
      "▁entzück": 4330,
      "-S": 4331,
      "brau": 4332,
      "upp": 4333,
      "steig": 4334,
      "elte.": 4335,
      "ins": 4336,
      "▁laß": 4337,
      "▁Feder": 4338,
      "▁Leich": 4339,
      "▁verein": 4340,
      "▁Schei": 4341,
      "▁Scheidung": 4342,
      "▁vorsichtig": 4343,
      "▁rings": 4344,
      "▁Still": 4345,
      "▁stumm": 4346,
      "▁tanz": 4347,
      "▁sehr,": 4348,
      "▁sollten": 4349,
      "▁nichts.": 4350,
      "▁angel": 4351,
      "▁gefäll": 4352,
      "▁weiter,": 4353,
      "▁zusammen.": 4354,
      "▁ließ,": 4355,
      "▁Geschöpf": 4356,
      "ohlen": 4357,
      "▁komme": 4358,
      "▁lauter": 4359,
      "gehen.": 4360,
      "wärtig": 4361,
      "▁Halb": 4362,
      "▁Schweigen": 4363,
      "▁Wohnzimmer": 4364,
      "sah,": 4365,
      "wesenheit": 4366,
      "▁Yonv": 4367,
      "bes": 4368,
      "bung": 4369,
      "find": 4370,
      "swürdig": 4371,
      "ändern": 4372,
      "eiz": 4373,
      "▁Seit": 4374,
      "▁Sid": 4375,
      "igen.": 4376,
      "▁Bisch": 4377,
      "▁Mam": 4378,
      "▁Kinn": 4379,
      "▁Käl": 4380,
      "urr": 4381,
      "alte": 4382,
      "▁Ferne": 4383,
      "▁veränder": 4384,
      "▁gebe": 4385,
      "▁unsch": 4386,
      "▁ist;": 4387,
      "eux": 4388,
      "abri": 4389,
      "▁Stief": 4390,
      "gebracht": 4391,
      "▁stär": 4392,
      "▁Art,": 4393,
      "▁Anspruch": 4394,
      "▁Ohne": 4395,
      "▁unterdrück": 4396,
      "skr": 4397,
      "▁wird.": 4398,
      "▁schlaf": 4399,
      "▁geschlossen": 4400,
      "▁Augenblick,": 4401,
      "▁bleich": 4402,
      "▁›Ich": 4403,
      "dräng": 4404,
      "▁ebens": 4405,
      "▁ungew": 4406,
      "▁befrie": 4407,
      "▁erhiel": 4408,
      "▁stren": 4409,
      "▁davon,": 4410,
      "▁besondere": 4411,
      "▁Entz": 4412,
      "▁Geistliche": 4413,
      "▁Famili": 4414,
      "zeichnet": 4415,
      "▁Krankheit": 4416,
      "▁Bewegungen": 4417,
      "▁Hälfte": 4418,
      "▁Diana": 4419,
      "▁Esmerald": 4420,
      "ient": 4421,
      "kur": 4422,
      "iete": 4423,
      "▁wach": 4424,
      "▁weh": 4425,
      "▁giebt": 4426,
      "▁hart": 4427,
      "▁Sen": 4428,
      "stein": 4429,
      "▁beugte": 4430,
      "llte": 4431,
      "▁zun": 4432,
      "▁Get": 4433,
      "▁Dem": 4434,
      "denken": 4435,
      "▁Zeiten": 4436,
      "ing,": 4437,
      "▁Ereig": 4438,
      "▁Erfolg": 4439,
      "ged": 4440,
      "▁gewohn": 4441,
      "▁hab'": 4442,
      "▁gehalten": 4443,
      "▁mehrere": 4444,
      "ickte": 4445,
      "ützen": 4446,
      "▁einmal,": 4447,
      "▁erhoben": 4448,
      "▁einzeln": 4449,
      "▁Aller": 4450,
      "▁saßen": 4451,
      "üchtern": 4452,
      "▁schwarze": 4453,
      "▁Lächeln,": 4454,
      "▁Lipp": 4455,
      "▁Brot": 4456,
      "ging,": 4457,
      "▁pflegte": 4458,
      "mählich": 4459,
      "▁Schtscherbazk": 4460,
      "bau": 4461,
      "nas": 4462,
      "na,": 4463,
      "oste": 4464,
      "wegen": 4465,
      "üf": 4466,
      "▁häl": 4467,
      "▁Sachen": 4468,
      "▁Seuf": 4469,
      "▁Sinne": 4470,
      "sten,": 4471,
      "▁zuweilen": 4472,
      "tens": 4473,
      "▁kalt": 4474,
      "▁Bilder": 4475,
      "▁Kanz": 4476,
      "asen": 4477,
      "▁Fig": 4478,
      "▁gep": 4479,
      "▁Schon": 4480,
      "abei": 4481,
      "rocken": 4482,
      "▁Stolz": 4483,
      "▁um,": 4484,
      "ätter": 4485,
      "afja": 4486,
      "▁darin,": 4487,
      "▁,,T": 4488,
      "▁redete": 4489,
      "▁schließ": 4490,
      "▁Mantel": 4491,
      "strahl": 4492,
      "▁tiefer": 4493,
      "▁lebhaft": 4494,
      "▁Freuden": 4495,
      "▁deinem": 4496,
      "▁verschiedenen": 4497,
      "▁Willen": 4498,
      "▁Untersuchungs": 4499,
      "▁unaufhörlich": 4500,
      "▁gänzlich": 4501,
      "▁Antlitz": 4502,
      "laß": 4503,
      "ugend": 4504,
      "▁sitzen": 4505,
      "▁Wal": 4506,
      "▁Wochen": 4507,
      "terin": 4508,
      "▁Lheur": 4509,
      "▁schuld": 4510,
      "▁aufricht": 4511,
      "▁verab": 4512,
      "ehler": 4513,
      "▁Erd": 4514,
      "ier,": 4515,
      "undzw": 4516,
      "▁besuch": 4517,
      "▁haben.«": 4518,
      "nete,": 4519,
      "oth": 4520,
      "▁Essen": 4521,
      "chtes": 4522,
      "tigkeit": 4523,
      "▁Dasein": 4524,
      "stande,": 4525,
      "schaftlichen": 4526,
      "eben.": 4527,
      "▁geschl": 4528,
      "▁gleichsam": 4529,
      "▁voller": 4530,
      "▁dritten": 4531,
      "▁Stimme.": 4532,
      "▁Gelieb": 4533,
      "gleichen": 4534,
      "▁vergaß": 4535,
      "▁gehört,": 4536,
      "öße": 4537,
      "▁worden.": 4538,
      "▁Urteil": 4539,
      "▁Apothek": 4540,
      "▁sprechen,": 4541,
      "▁allgemeinen": 4542,
      "▁selber": 4543,
      "▁prächtig": 4544,
      "zunehm": 4545,
      "▁Agafja": 4546,
      "▁Lheureux": 4547,
      "▁ch": 4548,
      "▁wild": 4549,
      "▁mel": 4550,
      "▁Sü": 4551,
      "▁Sobald": 4552,
      "▁da.": 4553,
      "▁Acht": 4554,
      "▁Ach,": 4555,
      "▁Grau": 4556,
      "ator": 4557,
      "▁Mil": 4558,
      "▁Kna": 4559,
      "as,": 4560,
      "▁lagen": 4561,
      "▁an;": 4562,
      "▁Roll": 4563,
      "ischtsch": 4564,
      "▁gesp": 4565,
      "▁besitz": 4566,
      "▁beab": 4567,
      "mals,": 4568,
      "▁Anschau": 4569,
      "▁wollen.": 4570,
      "▁abw": 4571,
      "▁begab": 4572,
      "▁solle": 4573,
      "stand,": 4574,
      "▁recht,": 4575,
      "▁berühm": 4576,
      "aschw": 4577,
      "▁›E": 4578,
      "▁gefähr": 4579,
      "sichtlich": 4580,
      "geben,": 4581,
      "▁Arkadjewitsch,": 4582,
      "▁betrachte": 4583,
      "▁kurzen": 4584,
      "hafter": 4585,
      "▁näherte": 4586,
      "▁bestimmt": 4587,
      "▁freue": 4588,
      "▁lächelnd.": 4589,
      "▁menschlichen": 4590,
      "▁ähnlich": 4591,
      "▁Weilchen": 4592,
      "▁sterben": 4593,
      "▁Alice,": 4594,
      "▁Leser": 4595,
      "'s,": 4596,
      "fuhr": 4597,
      "jest": 4598,
      "t?": 4599,
      "undern": 4600,
      "z,": 4601,
      "öd": 4602,
      "▁griff": 4603,
      "▁und,": 4604,
      "▁zieh": 4605,
      "▁Gar": 4606,
      "▁denselben": 4607,
      "▁Hügel": 4608,
      "▁leuch": 4609,
      "en.\"": 4610,
      "▁Furch": 4611,
      "▁Leben,": 4612,
      "der,": 4613,
      "▁jetz": 4614,
      "▁Schreck": 4615,
      "▁Punk": 4616,
      "▁Vern": 4617,
      "▁Ro": 4618,
      "unz": 4619,
      "ehrten": 4620,
      "▁Erregung": 4621,
      "▁Nase": 4622,
      "▁vornehm": 4623,
      "zufrieden": 4624,
      "▁Verkehr": 4625,
      "▁gewalt": 4626,
      "▁gehor": 4627,
      "gesetzt": 4628,
      "▁abge": 4629,
      "▁Clop": 4630,
      "▁versp": 4631,
      "▁blaß": 4632,
      "▁gleichen": 4633,
      "▁hören,": 4634,
      "▁Besonder": 4635,
      "ött": 4636,
      "▁halten,": 4637,
      "▁Klein": 4638,
      "streich": 4639,
      "▁Beim": 4640,
      "arren": 4641,
      "▁junger": 4642,
      "ordnung": 4643,
      "▁vernahm": 4644,
      "▁Peter": 4645,
      "▁Sir.«": 4646,
      "▁beschäftigt": 4647,
      "▁entweder": 4648,
      "▁Soldaten": 4649,
      "▁Woche": 4650,
      "marsch": 4651,
      "▁Kloster": 4652,
      "ischtschew": 4653,
      "fe,": 4654,
      "seits": 4655,
      "▁se": 4656,
      "▁nack": 4657,
      "▁natür": 4658,
      "schrift": 4659,
      "▁Gü": 4660,
      "▁fein": 4661,
      "achtet": 4662,
      "▁Bib": 4663,
      "▁Mah": 4664,
      "▁Kon": 4665,
      "▁Dabei": 4666,
      "urteil": 4667,
      "▁Low": 4668,
      "▁verf": 4669,
      "▁anfang": 4670,
      "▁Ziel": 4671,
      "▁Raum": 4672,
      "eut": 4673,
      "▁vorn": 4674,
      "olden": 4675,
      "▁um.": 4676,
      "ußer": 4677,
      "▁tot": 4678,
      "ump": 4679,
      "bruch": 4680,
      "▁Eines": 4681,
      "▁konnten": 4682,
      "▁geschrieben": 4683,
      "▁Spiegel": 4684,
      "üss": 4685,
      "▁gleichgültig": 4686,
      "▁möge": 4687,
      "▁eigenes": 4688,
      "▁gemacht,": 4689,
      "artigen": 4690,
      "▁müsse,": 4691,
      "▁Rubel": 4692,
      "▁Kleine": 4693,
      "▁Proz": 4694,
      "▁Höhl": 4695,
      "▁»Gewiß": 4696,
      "▁Entfern": 4697,
      "▁Königin": 4698,
      "▁hervor,": 4699,
      "▁Pariser": 4700,
      "dern,": 4701,
      "▁unbew": 4702,
      "▁Todes": 4703,
      "▁Thränen": 4704,
      "▁böse": 4705,
      "▁vorhanden": 4706,
      "▁Prinzess": 4707,
      "gäng": 4708,
      "heil": 4709,
      "ipp": 4710,
      "leich": 4711,
      "äst": 4712,
      "öte": 4713,
      "ieten": 4714,
      "▁ach": 4715,
      "▁müßte": 4716,
      "igem": 4717,
      "▁Mahl": 4718,
      "▁lo": 4719,
      "▁Tuch": 4720,
      "▁verfol": 4721,
      "▁essen": 4722,
      "▁Schlei": 4723,
      "▁Zeich": 4724,
      "▁Ruß": 4725,
      "▁riß": 4726,
      "▁nachher": 4727,
      "▁Jaschw": 4728,
      "▁Vermögen": 4729,
      "▁herauf": 4730,
      "▁Ankunft": 4731,
      "ellos": 4732,
      "▁eifr": 4733,
      "▁kam.": 4734,
      "▁Strick": 4735,
      "▁gefiel": 4736,
      "▁ebenfalls": 4737,
      "▁erschein": 4738,
      "▁begannen": 4739,
      "▁Liebes": 4740,
      "▁also,": 4741,
      "stellen": 4742,
      "▁gegeben,": 4743,
      "▁hinzu:": 4744,
      "▁Kamer": 4745,
      "▁Bürst": 4746,
      "▁Falle": 4747,
      "▁bringen,": 4748,
      "▁Rücksicht": 4749,
      "▁unglücklich": 4750,
      "▁glänz": 4751,
      "▁Gäste": 4752,
      "▁Witwe": 4753,
      "abrik": 4754,
      "kte": 4755,
      "path": 4756,
      "rank": 4757,
      "uft": 4758,
      "wor": 4759,
      "▁et": 4760,
      "▁senk": 4761,
      "▁weich": 4762,
      "▁erhe": 4763,
      "schm": 4764,
      "▁Bu": 4765,
      "▁Donn": 4766,
      "▁Fleisch": 4767,
      "▁aufgest": 4768,
      "▁verbr": 4769,
      "▁verständ": 4770,
      "red": 4771,
      "▁Zärtlich": 4772,
      "▁Na,": 4773,
      "▁auseinander": 4774,
      "▁vorl": 4775,
      "▁vorwärts": 4776,
      "endem": 4777,
      "▁stimm": 4778,
      "▁Verd": 4779,
      "▁tod": 4780,
      "▁Gefähr": 4781,
      "▁abgesch": 4782,
      "▁,,Ich": 4783,
      "▁rech": 4784,
      "▁spricht": 4785,
      "▁Toms": 4786,
      "▁Ruf": 4787,
      "▁entschlossen": 4788,
      "▁regel": 4789,
      "▁Sprache": 4790,
      "▁Jugend": 4791,
      "▁Anstrengung": 4792,
      "▁schlimmer": 4793,
      "▁notwendig": 4794,
      "▁Haltung": 4795,
      "▁Doktor": 4796,
      "▁Beziehungen": 4797,
      "▁Gringoire,": 4798,
      "undzwanzig": 4799,
      "dies": 4800,
      "hem": 4801,
      "ite": 4802,
      "t«,": 4803,
      "w.": 4804,
      "▁dro": 4805,
      "eitet": 4806,
      "ausch": 4807,
      "▁inne": 4808,
      "▁Ball": 4809,
      "▁Masch": 4810,
      "▁Wahl": 4811,
      "▁Haufen": 4812,
      "▁Direktor": 4813,
      "urst": 4814,
      "denklich": 4815,
      "▁es.": 4816,
      "▁Schrift": 4817,
      "▁Relig": 4818,
      "▁Erw": 4819,
      "▁noch,": 4820,
      "▁stei": 4821,
      "▁Just": 4822,
      "elchen": 4823,
      "ebt": 4824,
      "▁Streit": 4825,
      "▁Aufg": 4826,
      "▁gefallen": 4827,
      "▁Wronski.": 4828,
      "▁Bogen": 4829,
      "▁hielt,": 4830,
      "▁»Meine": 4831,
      "▁bemerkte,": 4832,
      "▁tiefen": 4833,
      "▁fand,": 4834,
      "▁brauche": 4835,
      "▁öffent": 4836,
      "▁verzwei": 4837,
      "▁gedacht": 4838,
      "▁Volks": 4839,
      "▁Verlegenheit": 4840,
      "▁Tee": 4841,
      "▁höchsten": 4842,
      "▁bedeu": 4843,
      "▁Eifers": 4844,
      "▁Bücher": 4845,
      "▁Dunkelheit": 4846,
      "▁Niemand": 4847,
      "olenischtschew": 4848,
      "▁Knaben": 4849,
      "▁Prinzessin": 4850,
      "a!": 4851,
      "beh": 4852,
      "e!": 4853,
      "gehen,": 4854,
      "hier": 4855,
      "kunst": 4856,
      "ote": 4857,
      "sern": 4858,
      "zü": 4859,
      "elt.": 4860,
      "▁Gute": 4861,
      "▁Golenischtschew": 4862,
      "▁Wicht": 4863,
      "▁Har": 4864,
      "▁Dmit": 4865,
      "▁la": 4866,
      "▁Lat": 4867,
      "▁unab": 4868,
      "ampf": 4869,
      "▁Erzähl": 4870,
      "gefühl": 4871,
      "ommen.": 4872,
      "örm": 4873,
      "▁wiederzu": 4874,
      "▁tragen": 4875,
      "▁träum": 4876,
      "erseits": 4877,
      "▁steckte": 4878,
      "▁erwähn": 4879,
      "▁zwölf": 4880,
      "▁Straf": 4881,
      "verstand": 4882,
      "▁Schlag": 4883,
      "▁ließ.": 4884,
      "▁Flamm": 4885,
      "antas": 4886,
      "▁schienen": 4887,
      "▁versteh": 4888,
      "▁Gespräche": 4889,
      "▁genug,": 4890,
      "▁Fingern": 4891,
      "▁Personen": 4892,
      "▁schrecklich": 4893,
      "▁nehmen,": 4894,
      "▁irgendwo": 4895,
      "▁stehen.": 4896,
      "▁bekannt": 4897,
      "▁Bemerkung": 4898,
      "▁Arbeiter": 4899,
      "▁Zusammen": 4900,
      "▁Heirat": 4901,
      "▁Gattin": 4902,
      "lief": 4903,
      "lassen,": 4904,
      "ry": 4905,
      "äsch": 4906,
      "äne": 4907,
      "älle": 4908,
      "▁ed": 4909,
      "▁setzen": 4910,
      "▁golden": 4911,
      "▁nah": 4912,
      "arte": 4913,
      "ichts": 4914,
      "▁feier": 4915,
      "▁Messer": 4916,
      "▁Hinder": 4917,
      "ure": 4918,
      "urfte": 4919,
      "▁link": 4920,
      "▁Lo": 4921,
      "▁allzu": 4922,
      "liz": 4923,
      "▁wozu": 4924,
      "ierig": 4925,
      "ischte": 4926,
      "▁–,": 4927,
      "▁imstande,": 4928,
      "los,": 4929,
      "▁dumpf": 4930,
      "ausdruck": 4931,
      "ände": 4932,
      "▁Univers": 4933,
      "▁sei;": 4934,
      "▁mußten": 4935,
      "▁Frieden": 4936,
      "▁etwas,": 4937,
      "▁Ausland": 4938,
      "▁Pfört": 4939,
      "eigte": 4940,
      "▁Schluch": 4941,
      "▁dir,": 4942,
      "▁Hause,": 4943,
      "zimmer,": 4944,
      "▁sprachen": 4945,
      "▁bestand": 4946,
      "▁Prokur": 4947,
      "▁gegangen": 4948,
      "ünden": 4949,
      "▁solches": 4950,
      "▁unbekann": 4951,
      "▁ärgerlich": 4952,
      "▁kräftig": 4953,
      "▁Antwort.": 4954,
      "▁Befehl": 4955,
      "▁lustig": 4956,
      "▁Stockwerk": 4957,
      "▁sanft": 4958,
      "▁Sicherheit": 4959,
      "▁augenblicklich": 4960,
      "▁bildete": 4961,
      "▁Dmitri": 4962,
      "kten": 4963,
      "rer": 4964,
      "«.": 4965,
      "▁grä": 4966,
      "▁Sumpf": 4967,
      "▁bitter": 4968,
      "elz": 4969,
      "▁körper": 4970,
      "achte,": 4971,
      "▁Bin": 4972,
      "▁Mat": 4973,
      "▁Met": 4974,
      "▁Mehr": 4975,
      "▁Woll": 4976,
      "▁Kur": 4977,
      "▁nicht!": 4978,
      "ur-de-": 4979,
      "▁lehnte": 4980,
      "▁warten": 4981,
      "▁schmal": 4982,
      "▁Schiff": 4983,
      "▁Pat": 4984,
      "▁Erfahr": 4985,
      "▁Neb": 4986,
      "ffen,": 4987,
      "▁stein": 4988,
      "▁bekomm": 4989,
      "weis": 4990,
      "▁trink": 4991,
      "▁Gef": 4992,
      "otter": 4993,
      "▁entlang": 4994,
      "▁Grade": 4995,
      "samen": 4996,
      "▁würden,": 4997,
      "▁großen,": 4998,
      "▁angeh": 4999,
      "▁Aussicht": 5000,
      "▁--\"": 5001,
      "▁mög": 5002,
      "▁›S": 5003,
      "dring": 5004,
      "▁Abschied": 5005,
      "▁ließen": 5006,
      "▁Kitty,": 5007,
      "▁Kind,": 5008,
      "▁thun,": 5009,
      "▁Alte": 5010,
      "▁zeigen,": 5011,
      "▁möglichst": 5012,
      "▁entschieden": 5013,
      "▁reizen": 5014,
      "▁Verbindung": 5015,
      "▁entfernt": 5016,
      "grunde": 5017,
      "▁entr": 5018,
      "▁Gerichtsdien": 5019,
      "▁Fleur-de-": 5020,
      "▁seufzte": 5021,
      "▁»Also": 5022,
      "▁Cardinal": 5023,
      "▁Angeklag": 5024,
      "▁Rußland": 5025,
      "▁Fleur-de-L": 5026,
      "del": 5027,
      "if": 5028,
      "jähr": 5029,
      "mus": 5030,
      "swer": 5031,
      "täusch": 5032,
      "ümm": 5033,
      "en!«": 5034,
      "▁sank": 5035,
      "nd,": 5036,
      "▁nöt": 5037,
      "▁nannte": 5038,
      "lichkeiten": 5039,
      "▁Wach": 5040,
      "▁Kein": 5041,
      "▁Hung": 5042,
      "▁Henk": 5043,
      "▁Daß": 5044,
      "▁unmittel": 5045,
      "▁ausgest": 5046,
      "▁ums": 5047,
      "▁hinüber": 5048,
      "▁Veränder": 5049,
      "▁Gesund": 5050,
      "▁mir.": 5051,
      "ilden": 5052,
      "▁Gren": 5053,
      "▁Oder": 5054,
      "sko": 5055,
      "▁Einen": 5056,
      "▁Untern": 5057,
      "aufen.": 5058,
      "▁muß,": 5059,
      "▁langer": 5060,
      "estimm": 5061,
      "ünftig": 5062,
      "▁Spitz": 5063,
      "▁gleicher": 5064,
      "▁Zimmers": 5065,
      "▁Entw": 5066,
      "echs": 5067,
      "gebl": 5068,
      "▁Bewei": 5069,
      "▁Gewissen": 5070,
      "net,": 5071,
      "▁nieder,": 5072,
      "▁Hinsicht": 5073,
      "▁Sonnen": 5074,
      "▁erklärte": 5075,
      "▁kurzem": 5076,
      "▁Galgen": 5077,
      "sbes": 5078,
      "▁Glocken": 5079,
      "▁Partei": 5080,
      "▁Gouvernem": 5081,
      "▁zurückgekehr": 5082,
      "mädchen": 5083,
      "▁Mitteil": 5084,
      "▁Esmeralda": 5085,
      "▁Religion": 5086,
      "ates": 5087,
      "fle": 5088,
      "les": 5089,
      "osten": 5090,
      "ts,": 5091,
      "ägt": 5092,
      "▁Sanc": 5093,
      "▁Eben": 5094,
      "▁Bien": 5095,
      "▁Fün": 5096,
      "▁Fehler": 5097,
      "▁Fabrik": 5098,
      "▁schmer": 5099,
      "eitung": 5100,
      "amp": 5101,
      "▁Zorn": 5102,
      "▁Züge": 5103,
      "anger": 5104,
      "▁umzu": 5105,
      "eilt": 5106,
      "▁tau": 5107,
      "▁geriet": 5108,
      "▁gerichtet": 5109,
      "barkeit": 5110,
      "▁Unw": 5111,
      "▁schweren": 5112,
      "▁breit": 5113,
      "▁keinem": 5114,
      "▁Gedanke,": 5115,
      "▁erschrocken": 5116,
      "▁gebrau": 5117,
      "▁begann,": 5118,
      "▁müssen.": 5119,
      "▁daraus": 5120,
      "▁schöner": 5121,
      "▁Park": 5122,
      "▁Höhe,": 5123,
      "▁that": 5124,
      "▁brauch": 5125,
      "▁bleib": 5126,
      "friedig": 5127,
      "▁gekleid": 5128,
      "▁herum,": 5129,
      "▁Monate": 5130,
      "▁holte": 5131,
      "▁dürfen": 5132,
      "▁menschliche": 5133,
      "▁folgenden": 5134,
      "▁Überzeugung": 5135,
      "▁Leni": 5136,
      "▁Schildkr": 5137,
      "▁Körp": 5138,
      "bahn": 5139,
      "iform": 5140,
      "ood": 5141,
      "tausend": 5142,
      "öste": 5143,
      "▁samm": 5144,
      "▁silber": 5145,
      "teuer": 5146,
      "▁mo": 5147,
      "▁zogen": 5148,
      "▁bun": 5149,
      "▁ertön": 5150,
      "▁Etw": 5151,
      "▁Wetter": 5152,
      "▁Hor": 5153,
      "▁La": 5154,
      "▁Last": 5155,
      "▁vertr": 5156,
      "▁verwirr": 5157,
      "▁veranl": 5158,
      "▁Polly": 5159,
      "▁Vö": 5160,
      "▁Erwart": 5161,
      "ischen,": 5162,
      "▁Vert": 5163,
      "▁pack": 5164,
      "▁könnte.": 5165,
      "▁Herr,": 5166,
      "▁Vorstellung": 5167,
      "▁haben;": 5168,
      "▁angeb": 5169,
      "▁neues": 5170,
      "▁gleichzeitig": 5171,
      "▁befr": 5172,
      "▁Reiz": 5173,
      "▁herauszu": 5174,
      "▁»Herr": 5175,
      "▁Lächeln.": 5176,
      "ziehung": 5177,
      "▁Träum": 5178,
      "▁Feld": 5179,
      "▁verstanden": 5180,
      "▁Brock": 5181,
      "▁gewisser": 5182,
      "▁Absicht,": 5183,
      "▁stürzte": 5184,
      "▁Gebäude": 5185,
      "▁Universität": 5186,
      "freund": 5187,
      "gt,": 5188,
      "iden": 5189,
      "ister": 5190,
      "leh": 5191,
      "punkt": 5192,
      "weit": 5193,
      "ßig": 5194,
      "▁sinn": 5195,
      "▁wähl": 5196,
      "▁Säul": 5197,
      "▁Sym": 5198,
      "▁einges": 5199,
      "ittern": 5200,
      "▁Haß": 5201,
      "▁Pau": 5202,
      "▁Jeder": 5203,
      "aßt,": 5204,
      "▁mache": 5205,
      "rist": 5206,
      "▁spött": 5207,
      "▁»Auf": 5208,
      "▁verlassen,": 5209,
      "▁schlafen": 5210,
      "üsse": 5211,
      "itzer": 5212,
      "▁Mensch,": 5213,
      "drücken": 5214,
      "▁Türhüter": 5215,
      "acke": 5216,
      "licherweise": 5217,
      "▁Alexandrowitsch,": 5218,
      "▁vermag": 5219,
      "▁beherr": 5220,
      "▁Marja": 5221,
      "▁finden.": 5222,
      "▁Ort": 5223,
      "▁Alter": 5224,
      "▁Knien": 5225,
      "▁bitten": 5226,
      "▁erkund": 5227,
      "▁hohe": 5228,
      "▁seltsame": 5229,
      "▁bringen.": 5230,
      "▁unertr": 5231,
      "▁beobachte": 5232,
      "▁schickte": 5233,
      "▁Seelen": 5234,
      "treff": 5235,
      "▁Innern": 5236,
      "▁Kräfte": 5237,
      "einanders": 5238,
      "helm": 5239,
      "▁Beamten": 5240,
      "hofe": 5241,
      "▁gnäd": 5242,
      "▁klopfte": 5243,
      "▁Familien": 5244,
      "jestät": 5245,
      "▁Brockleh": 5246,
      ".‹": 5247,
      "selb": 5248,
      "seite": 5249,
      "theit": 5250,
      "zwei": 5251,
      "en:": 5252,
      "eisen": 5253,
      "eiten.": 5254,
      "eiden,": 5255,
      "tet.": 5256,
      "▁moch": 5257,
      "▁hieß": 5258,
      "▁zähl": 5259,
      "▁zärtlich": 5260,
      "antwor": 5261,
      "▁At": 5262,
      "▁sie;": 5263,
      "▁kom": 5264,
      "▁Möb": 5265,
      "▁Wär": 5266,
      "unge": 5267,
      "altig": 5268,
      "alten.": 5269,
      "egr": 5270,
      "▁Feind": 5271,
      "▁ist?«": 5272,
      "▁Res": 5273,
      "ieren,": 5274,
      "▁Stille": 5275,
      "ischem": 5276,
      "sehn": 5277,
      "▁geste": 5278,
      "▁Versamm": 5279,
      "loser": 5280,
      "ilhelm": 5281,
      "rumm": 5282,
      "▁Einige": 5283,
      "adt,": 5284,
      "▁lange,": 5285,
      "▁sollen,": 5286,
      "▁Vorstell": 5287,
      "nis,": 5288,
      "▁Wasenka": 5289,
      "▁drang": 5290,
      "▁antworten": 5291,
      "▁müsse.": 5292,
      "▁schön,": 5293,
      "▁beständig": 5294,
      "▁Könige": 5295,
      "iment": 5296,
      "▁Daher": 5297,
      "▁Tone,": 5298,
      "▁kurze": 5299,
      "▁schlechte": 5300,
      "▁seitdem": 5301,
      "▁erwartete": 5302,
      "fertig": 5303,
      "▁Verzeih": 5304,
      "▁schrecklichen": 5305,
      "▁Regier": 5306,
      "▁Ehre": 5307,
      "▁Engländer": 5308,
      "▁Galerie": 5309,
      "▁Junge": 5310,
      "▁helfen": 5311,
      "▁schlimm": 5312,
      "▁Küche": 5313,
      "▁Gesichtsausdruck": 5314,
      "▁Kriegs": 5315,
      "▁Gewohnheit": 5316,
      "ission": 5317,
      "▁Entsetzen": 5318,
      "straße": 5319,
      "▁Bewußtsein": 5320,
      "▁Lowood": 5321,
      "▁Entfernung": 5322,
      "züglich": 5323,
      "',": 5324,
      "heim": 5325,
      "io": 5326,
      "nes": 5327,
      "ta": 5328,
      "wa": 5329,
      "walt": 5330,
      "ei,": 5331,
      "▁nüt": 5332,
      "stadt": 5333,
      "auft": 5334,
      "▁krie": 5335,
      "▁Müh": 5336,
      "▁Kom": 5337,
      "▁Decke": 5338,
      "▁nicht?«": 5339,
      "asser": 5340,
      "irgend": 5341,
      "▁Fehl": 5342,
      "▁schüchtern": 5343,
      "▁Tit": 5344,
      "▁vertrau": 5345,
      "▁verlier": 5346,
      "ochen.": 5347,
      "ehle": 5348,
      "▁Schutz": 5349,
      "▁Punkt": 5350,
      "▁Volke": 5351,
      "▁Zum": 5352,
      "▁Rennen": 5353,
      "ehren": 5354,
      "▁Erk": 5355,
      "▁umf": 5356,
      "▁gestell": 5357,
      "▁Gesand": 5358,
      "ätte": 5359,
      "▁trocken": 5360,
      "bringen": 5361,
      "▁sah.": 5362,
      "▁eigent": 5363,
      "underung": 5364,
      "▁halte": 5365,
      "▁Abreise": 5366,
      "▁Blick,": 5367,
      "▁Sof": 5368,
      "▁Fluß": 5369,
      "▁Liebe,": 5370,
      "▁Tür,": 5371,
      "▁Tage,": 5372,
      "▁bewahr": 5373,
      "▁streng": 5374,
      "▁Reiter": 5375,
      "richtung": 5376,
      "▁vermoch": 5377,
      "sucht": 5378,
      "▁Thüre": 5379,
      "▁höre": 5380,
      "▁Fuße": 5381,
      "▁angefangen": 5382,
      "▁bleiben,": 5383,
      "▁zerr": 5384,
      "▁verstumm": 5385,
      "▁Kerzen": 5386,
      "▁England": 5387,
      "▁grauen": 5388,
      "▁größte": 5389,
      "▁Kreis": 5390,
      "▁schaute": 5391,
      "▁wichtig": 5392,
      "▁fürchtete,": 5393,
      "▁Trist": 5394,
      "▁Ursache": 5395,
      "▁Zähne": 5396,
      "▁verheiratet": 5397,
      "▁Erklärung": 5398,
      "▁fürchtete": 5399,
      "▁letzter": 5400,
      "-B": 5401,
      "hig": 5402,
      "nig": 5403,
      "üten": 5404,
      "▁Ö": 5405,
      "▁dor": 5406,
      "essen,": 5407,
      "steigen": 5408,
      "▁zah": 5409,
      "emm": 5410,
      "schen,": 5411,
      "aut": 5412,
      "▁Blei": 5413,
      "▁Block": 5414,
      "▁Murm": 5415,
      "▁Wilhelm": 5416,
      "▁nicht!«": 5417,
      "▁sein«,": 5418,
      "▁Liv": 5419,
      "▁schar": 5420,
      "▁schimmer": 5421,
      "▁Taf": 5422,
      "▁verkehr": 5423,
      "▁verdien": 5424,
      "▁Schuh": 5425,
      "▁Pol": 5426,
      "▁diesmal": 5427,
      "▁richte": 5428,
      "▁nach.": 5429,
      "▁hinten": 5430,
      "▁machte.": 5431,
      "▁Eintritt": 5432,
      "▁Unru": 5433,
      "▁Vorder": 5434,
      "▁reden.": 5435,
      "▁fragen,": 5436,
      "▁verlieb": 5437,
      "▁geleg": 5438,
      "▁Pfeil": 5439,
      "eigt": 5440,
      "▁Stroh": 5441,
      "▁vollen": 5442,
      "▁geben.": 5443,
      "▁Gelächter": 5444,
      "▁gutes": 5445,
      "▁Dumm": 5446,
      "▁Überleg": 5447,
      "▁Stufen": 5448,
      "▁leben,": 5449,
      "▁Phantas": 5450,
      "▁hinaus,": 5451,
      "▁bleibt": 5452,
      "▁gewöhnlichen": 5453,
      "▁erkennen": 5454,
      "▁»Ver": 5455,
      "▁Hutmach": 5456,
      "▁Kerze": 5457,
      "▁danach": 5458,
      "▁Bekannten": 5459,
      "bringen.": 5460,
      "▁Benehmen": 5461,
      "eur": 5462,
      "hö": 5463,
      "ler,": 5464,
      "zeichen": 5465,
      "▁ord": 5466,
      "en?": 5467,
      "chmal": 5468,
      "ichte,": 5469,
      "▁nennen": 5470,
      "▁zorn": 5471,
      "▁bilde": 5472,
      "▁erforder": 5473,
      "elk": 5474,
      "igten": 5475,
      "schuh": 5476,
      "▁Euer": 5477,
      "▁Mir": 5478,
      "▁warte": 5479,
      "amen": 5480,
      "▁Rath": 5481,
      "inge": 5482,
      "▁deswegen": 5483,
      "ftige": 5484,
      "▁vorber": 5485,
      "ierten": 5486,
      "▁Staub": 5487,
      "▁Verwirr": 5488,
      "▁täglich": 5489,
      "örder": 5490,
      "▁entstand": 5491,
      "▁Graf": 5492,
      "allen,": 5493,
      "▁könig": 5494,
      "▁schwere": 5495,
      "▁sollst": 5496,
      "▁hier,": 5497,
      "▁Kopf,": 5498,
      "▁stand.": 5499,
      "▁werden;": 5500,
      "▁halben": 5501,
      "▁»Jan": 5502,
      "▁Blicken": 5503,
      "▁leiser": 5504,
      "fahren.": 5505,
      "▁näm": 5506,
      "▁gab,": 5507,
      "▁Blum": 5508,
      "geschlagen": 5509,
      "▁zusammenge": 5510,
      "▁Marmor": 5511,
      "▁Charm": 5512,
      "▁Rochesters": 5513,
      "▁heißt,": 5514,
      "ölker": 5515,
      "▁klar,": 5516,
      "▁schmutz": 5517,
      "▁leer": 5518,
      "▁spielte": 5519,
      "▁Schlafzimmer": 5520,
      "ianer": 5521,
      "ging.": 5522,
      "▁Glocke": 5523,
      "stimmung": 5524,
      "▁Eingang": 5525,
      "▁falsche": 5526,
      "▁Rouen": 5527,
      "▁häufig": 5528,
      "▁Jahrhunderte": 5529,
      "▁Yonville": 5530,
      "▁ungewöhn": 5531,
      "▁zunächst": 5532,
      "▁Figur": 5533,
      "haber": 5534,
      "ip": 5535,
      "lanz": 5536,
      "ss": 5537,
      "t:": 5538,
      "öchter": 5539,
      "ichtes": 5540,
      "▁wem": 5541,
      "▁munter": 5542,
      "▁hinder": 5543,
      "▁hoh": 5544,
      "elben": 5545,
      "▁Meilen": 5546,
      "▁Wangen": 5547,
      "▁Wollen": 5548,
      "▁Kä": 5549,
      "▁Kaum": 5550,
      "▁Hör": 5551,
      "al,": 5552,
      "▁Lager": 5553,
      "▁sowie": 5554,
      "▁schäm": 5555,
      "reffen": 5556,
      "▁Pre": 5557,
      "▁Port": 5558,
      "▁Pil": 5559,
      "▁Zuh": 5560,
      "▁meinte,": 5561,
      "▁stud": 5562,
      "iebe": 5563,
      "▁trenn": 5564,
      "▁Gevat": 5565,
      "▁Grub": 5566,
      "▁unterhiel": 5567,
      "▁abgel": 5568,
      "▁gerichte": 5569,
      "aden,": 5570,
      "ängnis": 5571,
      "▁verliebt": 5572,
      "▁genü": 5573,
      "▁Kopf.": 5574,
      "▁Nachmittag": 5575,
      "▁fühle": 5576,
      "artige": 5577,
      "▁Platze": 5578,
      "▁irgendein": 5579,
      "▁»Man": 5580,
      "▁strich": 5581,
      "▁vergr": 5582,
      "▁Gebet": 5583,
      "▁versuchte,": 5584,
      "▁»O,": 5585,
      "▁unbeh": 5586,
      "▁Äußer": 5587,
      "▁jedenfalls": 5588,
      "▁Monat": 5589,
      "▁wären": 5590,
      "▁geringste": 5591,
      "▁Kerl": 5592,
      "▁festen": 5593,
      "▁Obgleich": 5594,
      "▁Gutsbes": 5595,
      "▁siehst": 5596,
      "▁bemühte": 5597,
      "▁Schnee": 5598,
      "▁zweifellos": 5599,
      "▁leidenschaft": 5600,
      "▁Kanin": 5601,
      "▁Bäume": 5602,
      "▁Umständen": 5603,
      "▁engli": 5604,
      "▁Schwierigkeiten": 5605,
      "▁Ihnen,": 5606,
      "▁Ellbogen": 5607,
      "▁dünn": 5608,
      "skraft": 5609,
      "▁Entzücken": 5610,
      "▁Ereignis": 5611,
      "marschall": 5612,
      "▁Mahiet": 5613,
      "▁Charmol": 5614,
      "buch": 5615,
      "m,": 5616,
      "sagen": 5617,
      "vo": 5618,
      "öger": 5619,
      "▁wechsel": 5620,
      "▁erz": 5621,
      "▁erfahren": 5622,
      "▁zul": 5623,
      "iter": 5624,
      "auen": 5625,
      "▁Gn": 5626,
      "▁fäll": 5627,
      "agt,": 5628,
      "▁Em": 5629,
      "▁Mangel": 5630,
      "ettel": 5631,
      "▁Tan": 5632,
      "▁Terr": 5633,
      "▁Töchter": 5634,
      "▁Per": 5635,
      "▁Sieg": 5636,
      "▁dieselben": 5637,
      "▁Voll": 5638,
      "aben,": 5639,
      "unde,": 5640,
      "uchs": 5641,
      "illen": 5642,
      "umpen": 5643,
      "ätzen": 5644,
      "▁trei": 5645,
      "▁trüb": 5646,
      "▁darunter": 5647,
      "▁hätten,": 5648,
      "▁steck": 5649,
      "▁,,'s": 5650,
      "▁Vorzimmer": 5651,
      "▁rechte": 5652,
      "enken": 5653,
      "fenster": 5654,
      "▁Also": 5655,
      "▁ungehe": 5656,
      "▁gebild": 5657,
      "▁leid": 5658,
      "schließ": 5659,
      "▁Bette": 5660,
      "▁Dame,": 5661,
      "▁Arkadjewitsch.": 5662,
      "▁erreg": 5663,
      "▁Fenster,": 5664,
      "▁Bruder,": 5665,
      "▁hervor.": 5666,
      "▁saß,": 5667,
      "▁brauchte": 5668,
      "▁führen": 5669,
      "▁Gemein": 5670,
      "▁beleidig": 5671,
      "▁prü": 5672,
      "getreten": 5673,
      "▁hoffe,": 5674,
      "▁bedeuten": 5675,
      "▁»wenn": 5676,
      "▁Angelegenheiten": 5677,
      "▁»Ja«,": 5678,
      "▁Theater": 5679,
      "▁Erstaunen": 5680,
      "▁Madame": 5681,
      "▁heran.": 5682,
      "▁vergnügt": 5683,
      "▁Michailowna": 5684,
      "-Hall": 5685,
      "▁Hemd": 5686,
      "▁Meer": 5687,
      "▁Vertrauen": 5688,
      "▁Bischof": 5689,
      "▁Verteidig": 5690,
      "Und": 5691,
      "asten": 5692,
      "bte": 5693,
      "liegen": 5694,
      "wind": 5695,
      "ichen": 5696,
      "▁Stern": 5697,
      "▁Sorg": 5698,
      "▁zufällig": 5699,
      "ber,": 5700,
      "age.": 5701,
      "▁Wechsel": 5702,
      "▁nicht?": 5703,
      "▁ich's": 5704,
      "▁das?«": 5705,
      "▁jüng": 5706,
      "▁Paar": 5707,
      "▁Preis": 5708,
      "annah": 5709,
      "▁Rö": 5710,
      "▁Reich": 5711,
      "▁allmählich": 5712,
      "▁Ersch": 5713,
      "▁vorge": 5714,
      "▁Stahl": 5715,
      "olken": 5716,
      "utter": 5717,
      "▁hinweg": 5718,
      "▁gestr": 5719,
      "▁gesell": 5720,
      "reifen": 5721,
      "▁Georg": 5722,
      "▁kling": 5723,
      "aft,": 5724,
      "▁pro": 5725,
      "▁könnten": 5726,
      "▁Vorwurf": 5727,
      "▁Spitzen": 5728,
      "▁Strom": 5729,
      "ötz": 5730,
      "▁Plan": 5731,
      "▁fuhren": 5732,
      "▁Kitty.": 5733,
      "▁hielten": 5734,
      "▁»Mit": 5735,
      "▁dorthin": 5736,
      "▁davon.": 5737,
      "▁bemerkt": 5738,
      "▁unseren": 5739,
      "führen": 5740,
      "▁geglaub": 5741,
      "▁tiefe": 5742,
      "▁weg,": 5743,
      "▁»Hier": 5744,
      "▁Baukunst": 5745,
      "▁Philosoph": 5746,
      "▁sehe,": 5747,
      "haft,": 5748,
      "hören": 5749,
      "gemacht": 5750,
      "▁Minute": 5751,
      "▁Persön": 5752,
      "▁Huck,": 5753,
      "▁qual": 5754,
      "▁Papst": 5755,
      "▁hübsche": 5756,
      "▁Katze": 5757,
      "▁unerwar": 5758,
      "▁Nichts": 5759,
      "▁Wunsch,": 5760,
      "▁fremden": 5761,
      "▁Laune": 5762,
      "▁übrig": 5763,
      "▁Braut": 5764,
      "▁Vaters": 5765,
      "▁Tiefe": 5766,
      "▁Kälte": 5767,
      "▁unmittelbar": 5768,
      "einandersetz": 5769,
      "▁Zuhör": 5770,
      "jahr": 5771,
      "ule": 5772,
      "erweise": 5773,
      "▁gro": 5774,
      "▁nutz": 5775,
      "▁eintreten": 5776,
      "arter": 5777,
      "▁erle": 5778,
      "inke": 5779,
      "▁»n": 5780,
      "▁krei": 5781,
      "▁kämpf": 5782,
      "▁Bis": 5783,
      "▁Kais": 5784,
      "▁läu": 5785,
      "▁lesen": 5786,
      "▁war:": 5787,
      "▁Fes": 5788,
      "▁mitzu": 5789,
      "▁verber": 5790,
      "▁anfangen": 5791,
      "▁Schein": 5792,
      "▁Ruh": 5793,
      "ierde": 5794,
      "ußt,": 5795,
      "hedr": 5796,
      "▁gehei": 5797,
      "▁klang": 5798,
      "füg": 5799,
      "▁wurden,": 5800,
      "▁Vorhäng": 5801,
      "▁»Sehr": 5802,
      "ickten": 5803,
      "▁geliebt": 5804,
      "▁Gesichter": 5805,
      "▁wohlbekann": 5806,
      "▁Spazier": 5807,
      "▁Pflaster": 5808,
      "▁dich,": 5809,
      "▁halbe": 5810,
      "▁Stimmen": 5811,
      "aph": 5812,
      "assen.«": 5813,
      "▁Flügel": 5814,
      "▁Beifall": 5815,
      "▁ruhigen": 5816,
      "▁Alexandrowitschs": 5817,
      "▁(d": 5818,
      "▁Kinder,": 5819,
      "▁Bruders": 5820,
      "▁verstehen,": 5821,
      "▁brauchen": 5822,
      "▁Freude,": 5823,
      "▁Paris,": 5824,
      "▁stillen": 5825,
      "▁Ähn": 5826,
      "▁»Komm": 5827,
      "▁Gener": 5828,
      "nehmen,": 5829,
      "▁Wert": 5830,
      "▁Himmels": 5831,
      "▁Vergnügen,": 5832,
      "▁Schreibt": 5833,
      "ereien": 5834,
      "▁ex": 5835,
      "▁dicken": 5836,
      "▁danke": 5837,
      "▁Folge": 5838,
      "▁heul": 5839,
      "▁Großen": 5840,
      "▁froh": 5841,
      "▁Bewegung,": 5842,
      "▁Geiste": 5843,
      "▁Ach!": 5844,
      "einander,": 5845,
      "▁Wissenschaft": 5846,
      "bleiben": 5847,
      "▁Temple": 5848,
      "▁ebensow": 5849,
      "▁Bürstner": 5850,
      "▁Zärtlichkeit": 5851,
      "▁Gesundheit": 5852,
      "▁Sanct-": 5853,
      "hor": 5854,
      "ner,": 5855,
      "rief": 5856,
      "ti": 5857,
      "tin": 5858,
      "äher": 5859,
      "ève": 5860,
      "ümpf": 5861,
      "▁nirgend": 5862,
      "▁heg": 5863,
      "▁Soll": 5864,
      "▁erster": 5865,
      "▁Ander": 5866,
      "▁Gatten": 5867,
      "▁flo": 5868,
      "bereit": 5869,
      "▁Mel": 5870,
      "▁Mau": 5871,
      "▁Kenntnis": 5872,
      "▁Fin": 5873,
      "▁scheu": 5874,
      "▁verbar": 5875,
      "ürf": 5876,
      "▁hat.«": 5877,
      "denn": 5878,
      "▁unaus": 5879,
      "▁Rau": 5880,
      "ismus": 5881,
      "ehrt": 5882,
      "▁Ausk": 5883,
      "▁Neug": 5884,
      "ennung": 5885,
      "endet,": 5886,
      "▁nachdenklich": 5887,
      "utzen": 5888,
      "▁Verein": 5889,
      "▁bestr": 5890,
      "▁trieb": 5891,
      "▁abges": 5892,
      "▁Frage,": 5893,
      "▁Herren,": 5894,
      "▁rede": 5895,
      "▁gelieb": 5896,
      "▁Aussehen": 5897,
      "▁neuer": 5898,
      "aschen": 5899,
      "▁»Eine": 5900,
      "vertr": 5901,
      "schlagen": 5902,
      "▁Brü": 5903,
      "▁Unterschied": 5904,
      "▁nahmen": 5905,
      "gebung": 5906,
      "gegeben": 5907,
      "▁Landwirtschaft": 5908,
      "▁Blitz": 5909,
      "▁hastig": 5910,
      "▁Abends": 5911,
      "▁kleinen,": 5912,
      "ündet": 5913,
      "▁freien": 5914,
      "▁_d": 5915,
      "▁unbestimm": 5916,
      "▁leichter": 5917,
      "▁erfuhr": 5918,
      "elsmarschall": 5919,
      "▁Uebrigens": 5920,
      "▁Lehnstuhl": 5921,
      "▁dauerte": 5922,
      "lässig": 5923,
      "▁Vorteil": 5924,
      "▁Löwen": 5925,
      "▁Kaffee": 5926,
      "▁Mama": 5927,
      "▁Milch": 5928,
      "▁Eifersucht": 5929,
      "▁Schluchzen": 5930,
      "häu": 5931,
      "ift": 5932,
      "n.": 5933,
      "tage": 5934,
      "öse": 5935,
      "eifen": 5936,
      "iehen": 5937,
      "▁sehn": 5938,
      "▁Ser": 5939,
      "arde": 5940,
      "▁erkl": 5941,
      "▁derjen": 5942,
      "▁fallen": 5943,
      "▁feind": 5944,
      "▁kind": 5945,
      "▁Künst": 5946,
      "▁Dro": 5947,
      "▁Dort": 5948,
      "▁linken": 5949,
      "irk": 5950,
      "▁Tru": 5951,
      "▁auf;": 5952,
      "▁aufrecht": 5953,
      "ürzt": 5954,
      "▁Immer": 5955,
      "▁Schnell": 5956,
      "▁Ufer": 5957,
      "▁–«": 5958,
      "▁bequem": 5959,
      "▁herz": 5960,
      "örung": 5961,
      "ächtlich": 5962,
      "prochen": 5963,
      "▁manche": 5964,
      "▁andere,": 5965,
      "▁Oud": 5966,
      "▁untersuch": 5967,
      "▁Einfluß": 5968,
      "▁absichtlich": 5969,
      "äuber": 5970,
      "▁wurden.": 5971,
      "▁Frühl": 5972,
      "▁würden.": 5973,
      "▁,,M": 5974,
      "▁spä": 5975,
      "ißt": 5976,
      "▁wenigen": 5977,
      "▁Inhalt": 5978,
      "▁willen": 5979,
      "▁geschah": 5980,
      "▁Pfarr": 5981,
      "▁›Ja,": 5982,
      "▁Aufent": 5983,
      "▁vollständ": 5984,
      "▁Mitgl": 5985,
      "spann": 5986,
      "schläge": 5987,
      "▁Tag,": 5988,
      "voller": 5989,
      "▁Manchmal": 5990,
      "▁Karls": 5991,
      "▁Reihen": 5992,
      "▁lächer": 5993,
      "▁heraus.": 5994,
      "▁Seite.": 5995,
      "▁lebte": 5996,
      "oßen": 5997,
      "▁bleiben.": 5998,
      "▁Petrow": 5999,
      "▁Haare": 6000,
      "▁Briefe": 6001,
      "▁lassen;": 6002,
      "▁merkte,": 6003,
      "▁Empfindungen": 6004,
      "▁Schritten": 6005,
      "▁verdamm": 6006,
      "ügeln": 6007,
      "▁nehmen.": 6008,
      "▁Jungfrau": 6009,
      "▁allgemein": 6010,
      "arbeit": 6011,
      "▁niedrigen": 6012,
      "▁Student": 6013,
      "▁Studenten": 6014,
      "▁»Zu": 6015,
      "▁Alice.": 6016,
      "▁erstaunt": 6017,
      "schuhe": 6018,
      "▁Irrt": 6019,
      "--------": 6020,
      "läss": 6021,
      "▁dankbar": 6022,
      "▁Untersuchungsrichter": 6023,
      "▁Höhle": 6024,
      "▁Dmitrijewitsch": 6025,
      "▁Mühe,": 6026,
      ".s.": 6027,
      "ton": 6028,
      "uern": 6029,
      "ère": 6030,
      "öst": 6031,
      "▁3": 6032,
      "testen": 6033,
      "▁u.s.": 6034,
      "▁nann": 6035,
      "▁Summ": 6036,
      "at.": 6037,
      "▁Band": 6038,
      "▁Munde": 6039,
      "▁Welch": 6040,
      "▁Kal": 6041,
      "▁Ha": 6042,
      "deuten": 6043,
      "▁verr": 6044,
      "▁verrie": 6045,
      "▁wies": 6046,
      "▁Schatz": 6047,
      "eucht": 6048,
      "▁Ne": 6049,
      "▁Nerv": 6050,
      "▁ausdrück": 6051,
      "ieren.": 6052,
      "▁gesenk": 6053,
      "▁tat,": 6054,
      "▁trank": 6055,
      "▁entspr": 6056,
      "▁Grève": 6057,
      "ska": 6058,
      "▁Einsamkeit": 6059,
      "▁Unsinn": 6060,
      "gerufen": 6061,
      "▁spür": 6062,
      "▁Inst": 6063,
      "▁Inzwischen": 6064,
      "▁keines": 6065,
      "▁dring": 6066,
      "▁befahl": 6067,
      "▁erscheinen": 6068,
      "▁konnte;": 6069,
      "▁Gerecht": 6070,
      "geben.": 6071,
      "▁schönes": 6072,
      "▁Übrigens": 6073,
      "▁dabei,": 6074,
      "merzen": 6075,
      "▁Anges": 6076,
      "▁Adel": 6077,
      "führung": 6078,
      "▁Kinderfrau": 6079,
      "▁Châ": 6080,
      "▁Tone.": 6081,
      "▁nieder.": 6082,
      "▁angez": 6083,
      "▁Altst": 6084,
      "▁Rochester,": 6085,
      "▁Tisch,": 6086,
      "▁verzeihen": 6087,
      "▁bitten,": 6088,
      "▁Gott!": 6089,
      "▁Freundin": 6090,
      "▁worauf": 6091,
      "▁'nen": 6092,
      "▁vergessen.": 6093,
      "▁Gestalt,": 6094,
      "ühle": 6095,
      "▁Erinnerungen": 6096,
      "ict": 6097,
      "▁Kathedr": 6098,
      "▁Schweiß": 6099,
      "▁gesprochen,": 6100,
      "▁scheint,": 6101,
      "▁geringsten": 6102,
      "▁Engel": 6103,
      "▁14": 6104,
      "▁grausam": 6105,
      "▁hellen": 6106,
      "sah.": 6107,
      "▁stürm": 6108,
      "▁Haupts": 6109,
      "▁blauen": 6110,
      "▁Erscheinung": 6111,
      "▁Stiwa": 6112,
      "▁russischen": 6113,
      "▁Beschäftigung": 6114,
      "▁stärker": 6115,
      "▁seel": 6116,
      "▁Aufgabe": 6117,
      "▁Brocklehurst": 6118,
      "-A": 6119,
      "ace": 6120,
      "lam": 6121,
      "lings": 6122,
      "nungs": 6123,
      "szimmer": 6124,
      "▁dopp": 6125,
      "einde": 6126,
      "▁wahnsinn": 6127,
      "▁mor": 6128,
      "▁gold": 6129,
      "▁günst": 6130,
      "▁neigte": 6131,
      "▁harm": 6132,
      "▁bot": 6133,
      "arbe": 6134,
      "ans": 6135,
      "▁»so": 6136,
      "▁kü": 6137,
      "▁Eig": 6138,
      "▁Mauern": 6139,
      "▁Wächter": 6140,
      "irm": 6141,
      "▁sein!": 6142,
      "hnm": 6143,
      "▁gezwungen": 6144,
      "derte": 6145,
      "▁Zerst": 6146,
      "▁Rä": 6147,
      "▁desto": 6148,
      "▁aus;": 6149,
      "lik": 6150,
      "▁ries": 6151,
      "▁übertr": 6152,
      "▁hatte:": 6153,
      "▁Vers": 6154,
      "▁bestell": 6155,
      "ieben.": 6156,
      "stem": 6157,
      "▁Anwesenheit": 6158,
      "rid": 6159,
      "▁gelesen": 6160,
      "igkeit.": 6161,
      "▁würde;": 6162,
      "▁Pfleg": 6163,
      "▁Aufseh": 6164,
      "tern,": 6165,
      "ape": 6166,
      "▁Gerade": 6167,
      "▁Anna.": 6168,
      "▁Landstreich": 6169,
      "▁einzige,": 6170,
      "▁plötz": 6171,
      "▁zusammenzu": 6172,
      "▁Seite,": 6173,
      "▁Qual": 6174,
      "▁Fußboden": 6175,
      "▁dazu,": 6176,
      "gewand": 6177,
      "▁Gegenständ": 6178,
      "▁tun.": 6179,
      "▁Beruf": 6180,
      "▁»Bei": 6181,
      "▁dunkle": 6182,
      "▁Toil": 6183,
      "▁Genuß": 6184,
      "▁bestimmte": 6185,
      "▁bestimmten": 6186,
      "▁Felic": 6187,
      "▁liebenswürdig": 6188,
      "▁Hoffnung,": 6189,
      "▁verschiedene": 6190,
      "▁»was": 6191,
      "▁Cous": 6192,
      "▁Coppen": 6193,
      "stube": 6194,
      "▁arbeiten": 6195,
      "▁eignen": 6196,
      "▁Mason": 6197,
      "▁Vogel": 6198,
      "▁Profess": 6199,
      "▁Lampe": 6200,
      "▁werden.«": 6201,
      "▁befriedig": 6202,
      "▁Furcht,": 6203,
      "▁gräß": 6204,
      "▁Fleur-de-Lys": 6205,
      "▁schmerzlich": 6206,
      "besch": 6207,
      "ctor": 6208,
      "ecken": 6209,
      "finden": 6210,
      "händ": 6211,
      "ial": 6212,
      "lauf": 6213,
      "ot,": 6214,
      "pro": 6215,
      "ute,": 6216,
      "zk": 6217,
      "▁durfte": 6218,
      "▁sang": 6219,
      "▁aß": 6220,
      "stre": 6221,
      "statt": 6222,
      "▁bli": 6223,
      "▁zuge": 6224,
      "anen": 6225,
      "elne": 6226,
      "schri": 6227,
      "schick": 6228,
      "▁Greif": 6229,
      "▁»s": 6230,
      "▁flog": 6231,
      "▁sie:": 6232,
      "▁kal": 6233,
      "ettet": 6234,
      "▁Käf": 6235,
      "▁Köpfe": 6236,
      "▁Las": 6237,
      "▁Lied": 6238,
      "▁geführt": 6239,
      "▁anblick": 6240,
      "▁Schloß": 6241,
      "▁Prä": 6242,
      "▁Zahl": 6243,
      "▁Rivers": 6244,
      "▁nochmals": 6245,
      "▁Versch": 6246,
      "▁tu": 6247,
      "lecht": 6248,
      "▁werdet": 6249,
      "▁trock": 6250,
      "▁Gruppe": 6251,
      "▁Größe": 6252,
      "▁beginn": 6253,
      "▁schwer,": 6254,
      "▁Frau.": 6255,
      "▁alledem": 6256,
      "▁Bek": 6257,
      "tes.": 6258,
      "▁Span": 6259,
      "▁mögen": 6260,
      "▁gefunden,": 6261,
      "▁hören.": 6262,
      "▁unged": 6263,
      "▁Wort,": 6264,
      "▁gutmütig": 6265,
      "▁einzelne": 6266,
      "▁getroffen": 6267,
      "▁trat,": 6268,
      "▁erreicht": 6269,
      "▁findet": 6270,
      "▁gewesen;": 6271,
      "▁Begeg": 6272,
      "▁schlepp": 6273,
      "▁glücklich,": 6274,
      "eidigen": 6275,
      "▁heißen": 6276,
      "ölb": 6277,
      "▁Dinge,": 6278,
      "▁gewiß,": 6279,
      "▁entgegen.": 6280,
      "▁befand,": 6281,
      "▁hinauf.": 6282,
      "▁ledig": 6283,
      "▁freudig": 6284,
      "▁dafür,": 6285,
      "▁erblickte,": 6286,
      "▁allgemeine": 6287,
      "viertel": 6288,
      "▁Kreise": 6289,
      "▁Verwalter": 6290,
      "▁Hochzeit": 6291,
      "ündete": 6292,
      "▁beobachtete": 6293,
      "▁Fremden": 6294,
      "▁Frollo": 6295,
      "▁treff": 6296,
      "eunruh": 6297,
      "▁Karenin": 6298,
      "▁Seufzer": 6299,
      "▁Schleier": 6300,
      "▁Vögel": 6301,
      "▁unerträglich": 6302,
      "▁Unruhe": 6303,
      "▁Phantasie": 6304,
      "▁Irrtum": 6305,
      "beg": 6306,
      "hür": 6307,
      "iol": 6308,
      "u-": 6309,
      "uls": 6310,
      "völker": 6311,
      "zen,": 6312,
      "ädiger": 6313,
      "ösen": 6314,
      "üste": 6315,
      "▁setzten": 6316,
      "esten": 6317,
      "▁mut": 6318,
      "▁Sand": 6319,
      "stunde": 6320,
      "▁davor": 6321,
      "▁einverstand": 6322,
      "▁zahl": 6323,
      "▁zöger": 6324,
      "▁blo": 6325,
      "▁zuckte": 6326,
      "▁App": 6327,
      "▁Gär": 6328,
      "▁Gates": 6329,
      "▁»sie": 6330,
      "atter": 6331,
      "▁kost": 6332,
      "▁Bill": 6333,
      "▁Bitte": 6334,
      "▁Merk": 6335,
      "▁Kli": 6336,
      "▁Hab": 6337,
      "▁Dämmer": 6338,
      "▁lock": 6339,
      "▁Lad": 6340,
      "▁soweit": 6341,
      "▁Tanz": 6342,
      "▁Tän": 6343,
      "▁gebr": 6344,
      "▁gekann": 6345,
      "och,": 6346,
      "▁wieviel": 6347,
      "▁Schoß": 6348,
      "▁Por": 6349,
      "▁Pri": 6350,
      "▁unruh": 6351,
      "ückt": 6352,
      "▁ras": 6353,
      "▁rannte": 6354,
      "isch.": 6355,
      "ische,": 6356,
      "olche": 6357,
      "▁Vermut": 6358,
      "▁toll": 6359,
      "▁bekommen,": 6360,
      "ächtige": 6361,
      "head": 6362,
      "▁Oper": 6363,
      "▁weitem": 6364,
      "leidete": 6365,
      "▁untersch": 6366,
      "▁Augenbrau": 6367,
      "▁klug": 6368,
      "▁preß": 6369,
      "▁können;": 6370,
      "▁Franken": 6371,
      "rizk": 6372,
      "▁Befriedig": 6373,
      "▁»All": 6374,
      "▁gelegen": 6375,
      "▁gelassen": 6376,
      "▁gegenseit": 6377,
      "▁neug": 6378,
      "vertrau": 6379,
      "▁gemacht.": 6380,
      "▁bemächtig": 6381,
      "▁Zuck": 6382,
      "▁Flam": 6383,
      "▁bewunder": 6384,
      "▁Klaus": 6385,
      "▁Kindes": 6386,
      "eckte": 6387,
      "▁»Un": 6388,
      "▁suchen": 6389,
      "▁Leiter": 6390,
      "▁Leibe": 6391,
      "▁»Haben": 6392,
      "wendung": 6393,
      "▁Buche": 6394,
      "▁Dolly,": 6395,
      "▁Vergangen": 6396,
      "▁hinauf,": 6397,
      "▁freute": 6398,
      "▁Sonnensch": 6399,
      "▁hübschen": 6400,
      "penst": 6401,
      "▁schreiben": 6402,
      "▁bedeut": 6403,
      "▁ziehen": 6404,
      "▁Indessen": 6405,
      "stehenden": 6406,
      "▁Tasche": 6407,
      "▁zerstreu": 6408,
      "▁Ganze": 6409,
      "▁Gouvernante": 6410,
      "▁fröhlich": 6411,
      "▁Viertel": 6412,
      "▁lesen.": 6413,
      "▁wünschen": 6414,
      "getragen": 6415,
      "▁ungeheu": 6416,
      "würdigen": 6417,
      "▁,,Tom": 6418,
      "▁Clopin": 6419,
      "▁Prozess": 6420,
      "▁Nebel": 6421,
      "▁Fünf": 6422,
      "▁Horiz": 6423,
      "▁Tristan": 6424,
      "▁Kaninchen": 6425,
      "▁Gateshead": 6426,
      "fach": 6427,
      "lungs": 6428,
      "prech": 6429,
      "reichen": 6430,
      "s;": 6431,
      "sen.«": 6432,
      "sächlich": 6433,
      "wohn": 6434,
      "äb": 6435,
      "▁säm": 6436,
      "stieg": 6437,
      "▁zeit": 6438,
      "▁erm": 6439,
      "emois": 6440,
      "igt,": 6441,
      "icht,": 6442,
      "inkt": 6443,
      "▁Gitter": 6444,
      "▁Backen": 6445,
      "▁Mär": 6446,
      "etit": 6447,
      "ter.": 6448,
      "urz": 6449,
      "urme": 6450,
      "▁Lang": 6451,
      "▁Tal": 6452,
      "dell": 6453,
      "▁Vieh": 6454,
      "▁unf": 6455,
      "▁Zeug": 6456,
      "▁Zaun": 6457,
      "▁Rest": 6458,
      "eugen": 6459,
      "issen,": 6460,
      "angt": 6461,
      "▁sagten": 6462,
      "limm": 6463,
      "ftiger": 6464,
      "▁fürchte,": 6465,
      "▁hinein,": 6466,
      "▁stamm": 6467,
      "▁mich;": 6468,
      "▁gewünsch": 6469,
      "▁gewaltig": 6470,
      "lehn": 6471,
      "▁Anlaß": 6472,
      "▁gehüll": 6473,
      "▁Opfer": 6474,
      "▁passen": 6475,
      "▁abscheu": 6476,
      "▁immer,": 6477,
      "▁Vorwür": 6478,
      "▁»Sind": 6479,
      "▁schlank": 6480,
      "▁gelegt": 6481,
      "▁geschickt": 6482,
      "▁Haut": 6483,
      "▁Haustür": 6484,
      "▁gefaßt": 6485,
      "mitten": 6486,
      "▁halten.": 6487,
      "▁liebte,": 6488,
      "▁wahr?«": 6489,
      "▁Tür.": 6490,
      "▁heirat": 6491,
      "▁Sehn": 6492,
      "▁erhaben": 6493,
      "▁»Mr": 6494,
      "▁Beide": 6495,
      "▁Kinde": 6496,
      "arrte": 6497,
      "▁suchen,": 6498,
      "▁gestat": 6499,
      "holz": 6500,
      "sprache": 6501,
      "▁vierzehn": 6502,
      "tellvertr": 6503,
      "ällen": 6504,
      "▁fielen": 6505,
      "▁Uhr,": 6506,
      "▁Haar,": 6507,
      "▁hinein.": 6508,
      "▁Gregors": 6509,
      "▁Wesen,": 6510,
      "zog,": 6511,
      "uldigen": 6512,
      "nahm,": 6513,
      "▁Hilf": 6514,
      "▁Ehren": 6515,
      "▁leichten": 6516,
      "▁Phöbus,": 6517,
      "▁überzeugt": 6518,
      "▁dicke": 6519,
      "▁Glock": 6520,
      "▁Heiligen": 6521,
      "▁erkennen,": 6522,
      "▁Ärm": 6523,
      "▁Arbeitszimmer": 6524,
      "▁glänzenden": 6525,
      "verständlich": 6526,
      "-Stellvertr": 6527,
      "▁einzelnen": 6528,
      "▁Allerdings": 6529,
      "▁Direktor-Stellvertr": 6530,
      "▁Hindernis": 6531,
      "▁Pförtner": 6532,
      "▁Prokurist": 6533,
      "▁Henker": 6534,
      "▁Tafel": 6535,
      "▁u.s.w.": 6536,
      "brechen": 6537,
      "feuer": 6538,
      "fältig": 6539,
      "geiz": 6540,
      "züge": 6541,
      "ähm": 6542,
      "erten": 6543,
      "▁sä": 6544,
      "test": 6545,
      "▁goth": 6546,
      "▁hung": 6547,
      "▁Sat": 6548,
      "▁Sorgen": 6549,
      "▁Silber": 6550,
      "▁einschl": 6551,
      "▁erfahren,": 6552,
      "itten,": 6553,
      "orfen": 6554,
      "ons": 6555,
      "▁för": 6556,
      "ten.«": 6557,
      "ache.": 6558,
      "▁Bär": 6559,
      "▁Welt,": 6560,
      "▁Wolken": 6561,
      "▁Hast": 6562,
      "▁Hunde": 6563,
      "▁Fäh": 6564,
      "▁sofor": 6565,
      "▁Tel": 6566,
      "▁vergeb": 6567,
      "▁verbl": 6568,
      "rede": 6569,
      "abel": 6570,
      "▁Aug": 6571,
      "▁Erreg": 6572,
      "▁ausgeb": 6573,
      "inde": 6574,
      "▁gesetzt": 6575,
      "reißen": 6576,
      "▁Offen": 6577,
      "▁weib": 6578,
      "▁Einmal": 6579,
      "bart": 6580,
      "▁Unser": 6581,
      "ängt": 6582,
      "▁Französ": 6583,
      "▁,,J": 6584,
      "▁Vorsicht": 6585,
      "▁Vorbereit": 6586,
      "▁schluch": 6587,
      "▁Glöck": 6588,
      "ahmen": 6589,
      "▁Pfund": 6590,
      "▁Schwäger": 6591,
      "▁unsern": 6592,
      "▁gefahr": 6593,
      "▁nicht,«": 6594,
      "▁Schluß": 6595,
      "▁Nacht,": 6596,
      "▁solange": 6597,
      "▁rief:": 6598,
      "▁Alexander": 6599,
      "▁wahr?": 6600,
      "▁Rue": 6601,
      "▁Gewand": 6602,
      "führen,": 6603,
      "▁gegangen,": 6604,
      "▁»Ganz": 6605,
      "▁suchen.": 6606,
      "▁gestorben": 6607,
      "▁wegzu": 6608,
      "▁braucht": 6609,
      "hören,": 6610,
      "▁Arbeit,": 6611,
      "affen,": 6612,
      "▁Amt": 6613,
      "▁erzählt": 6614,
      "▁Empfang": 6615,
      "ziehen.": 6616,
      "▁starken": 6617,
      "▁liefen": 6618,
      "▁Verlangen": 6619,
      "▁allem,": 6620,
      "üge,": 6621,
      "ilipp": 6622,
      "▁unmöglich,": 6623,
      "▁Rechtsan": 6624,
      "▁eleg": 6625,
      "▁Taschent": 6626,
      "▁Antwort,": 6627,
      "▁Eure": 6628,
      "▁Bestimm": 6629,
      "▁»Nein«,": 6630,
      "▁sorgsam": 6631,
      "▁Balken": 6632,
      "▁Schwierigkeit": 6633,
      "▁Eigenschaften": 6634,
      "▁würdest": 6635,
      "▁Würde": 6636,
      "▁öf": 6637,
      "▁wünsche": 6638,
      "▁Sorge": 6639,
      "▁Olivier": 6640,
      "▁Jaschwin": 6641,
      "▁Kameraden": 6642,
      "▁links": 6643,
      "▁Entwick": 6644,
      "geblieben": 6645,
      "▁gekleidet": 6646,
      "▁packte": 6647,
      "▁verbarg": 6648,
      "▁Klausner": 6649,
      "a.": 6650,
      "ail": 6651,
      "gil": 6652,
      "ix": 6653,
      "laden": 6654,
      "mensch": 6655,
      "ömm": 6656,
      "üne": 6657,
      "▁mächtigen": 6658,
      "stlichen": 6659,
      "▁einger": 6660,
      "▁zeigen": 6661,
      "▁beunruh": 6662,
      "▁derartig": 6663,
      "▁kalten": 6664,
      "aglich": 6665,
      "▁Edel": 6666,
      "▁Bauer": 6667,
      "▁Mom": 6668,
      "▁Mün": 6669,
      "▁Heute": 6670,
      "▁schmerz": 6671,
      "▁Tur": 6672,
      "▁gezogen": 6673,
      "▁gebrochen": 6674,
      "genommen,": 6675,
      "▁Reicht": 6676,
      "▁alle,": 6677,
      "▁allein,": 6678,
      "▁ru": 6679,
      "rauch": 6680,
      "▁sagte.": 6681,
      "▁Verf": 6682,
      "▁Verhalten": 6683,
      "bar.": 6684,
      "▁schon,": 6685,
      "ers.": 6686,
      "▁solle.": 6687,
      "▁,,B": 6688,
      "▁verlassen.": 6689,
      "ogr": 6690,
      "lossen.": 6691,
      "▁angew": 6692,
      "▁Auseinandersetz": 6693,
      "▁Augenblicken": 6694,
      "▁blieben": 6695,
      "▁bin.": 6696,
      "▁hättest": 6697,
      "▁verschlossen": 6698,
      "▁dritte": 6699,
      "oden.": 6700,
      "▁befrei": 6701,
      "▁erschreck": 6702,
      "asse,": 6703,
      "▁Zustande": 6704,
      "▁Bour": 6705,
      "▁dreißig": 6706,
      "▁bewegte": 6707,
      "gebäu": 6708,
      "▁plauder": 6709,
      "▁vergangen": 6710,
      "▁Arkadjewna": 6711,
      "▁damit,": 6712,
      "▁erstenmal": 6713,
      "▁thut": 6714,
      "▁Markt": 6715,
      "▁Stimme:": 6716,
      "ähig": 6717,
      "▁Zigar": 6718,
      "elnden": 6719,
      "▁Iwanowitsch,": 6720,
      "▁denkst": 6721,
      "▁richtige": 6722,
      "stücke": 6723,
      "▁loszu": 6724,
      "▁seltsamen": 6725,
      "▁leeren": 6726,
      "▁»Vielleicht": 6727,
      "äufig": 6728,
      "▁Rückkehr": 6729,
      "sternis": 6730,
      "▁Helen": 6731,
      "▁Kleidung": 6732,
      "▁Bekanntschaft": 6733,
      "▁-«": 6734,
      "▁Verhältnisse": 6735,
      "▁drauf": 6736,
      "zieher": 6737,
      "▁teilte": 6738,
      "bildung": 6739,
      "▁überlegte": 6740,
      "▁›Was": 6741,
      "▁Geistes": 6742,
      "▁besaß,": 6743,
      "▁breiten": 6744,
      "▁nimmt": 6745,
      "ühenden": 6746,
      "▁erhielt": 6747,
      "▁beabsicht": 6748,
      "▁droh": 6749,
      "▁gewissermaßen": 6750,
      "▁gnädige": 6751,
      "▁Verwirrung": 6752,
      "▁zuletzt": 6753,
      "▁Gerechtigkeit": 6754,
      "▁Professor": 6755,
      "e!«": 6756,
      "ipfel": 6757,
      "ose": 6758,
      "zow": 6759,
      "eirat": 6760,
      "ein.": 6761,
      "▁Sy": 6762,
      "▁Satz": 6763,
      "▁erwei": 6764,
      "schen.": 6765,
      "aust": 6766,
      "▁fester": 6767,
      "▁Waffen": 6768,
      "▁Kuchen": 6769,
      "▁Fern": 6770,
      "▁Falten": 6771,
      "▁Laub": 6772,
      "▁verpf": 6773,
      "▁gefühl": 6774,
      "▁unend": 6775,
      "▁ist«,": 6776,
      "▁Zügel": 6777,
      "▁Rauch": 6778,
      "ennt": 6779,
      "▁ihnen,": 6780,
      "▁vorstell": 6781,
      "▁vortreff": 6782,
      "▁reichen": 6783,
      "▁gesehen.": 6784,
      "▁stat": 6785,
      "▁treten": 6786,
      "▁bedien": 6787,
      "▁gehand": 6788,
      "▁ents": 6789,
      "bar,": 6790,
      "▁hast,": 6791,
      "▁kann.«": 6792,
      "▁Vorh": 6793,
      "seligkeit": 6794,
      "loses": 6795,
      "ünste": 6796,
      "▁gefl": 6797,
      "▁dran": 6798,
      "▁Haus,": 6799,
      "öhnte": 6800,
      "▁erstick": 6801,
      "▁vergol": 6802,
      "▁getan,": 6803,
      "▁Reisen": 6804,
      "▁lag.": 6805,
      "▁Proc": 6806,
      "▁Prov": 6807,
      "▁Emma.": 6808,
      "▁Hause.": 6809,
      "▁Thürme": 6810,
      "sprüng": 6811,
      "▁Moor": 6812,
      "▁ändern": 6813,
      "▁höf": 6814,
      "▁fanden": 6815,
      "▁freilich": 6816,
      "▁Bildung": 6817,
      "dern.": 6818,
      "▁mal,": 6819,
      "▁Morgens": 6820,
      "▁Grunds": 6821,
      "▁denken.": 6822,
      "▁gedacht,": 6823,
      "▁Schwester,": 6824,
      "▁beteil": 6825,
      "▁Verlauf": 6826,
      "▁Montag": 6827,
      "▁Papa": 6828,
      "▁Ende.": 6829,
      "▁hinunter.": 6830,
      "▁angenommen": 6831,
      "▁benutz": 6832,
      "▁erfreu": 6833,
      "▁erfüllte": 6834,
      "▁heut": 6835,
      "▁entwick": 6836,
      "▁bedeckt": 6837,
      "▁bedeckte": 6838,
      "▁gemeinsam": 6839,
      "▁Rouaul": 6840,
      "▁Palast": 6841,
      "▁eher": 6842,
      "▁wahrhaftig": 6843,
      "ränkt": 6844,
      "▁Achtung": 6845,
      "▁eifrig": 6846,
      "▁möglichen": 6847,
      "▁Unternehm": 6848,
      "▁nützlich": 6849,
      "▁Serp": 6850,
      "skaja": 6851,
      "▁ungeduldig": 6852,
      "▁lediglich": 6853,
      "emoiselle": 6854,
      "6.": 6855,
      "ekt": 6856,
      "farb": 6857,
      "h!«": 6858,
      "jal": 6859,
      "kopf": 6860,
      "lag": 6861,
      "länd": 6862,
      "ma": 6863,
      "oli": 6864,
      "rak": 6865,
      "svoll": 6866,
      "y,": 6867,
      "ägen": 6868,
      "erlei": 6869,
      "eige": 6870,
      "▁sauber": 6871,
      "▁müh": 6872,
      "▁hü": 6873,
      "▁Sar": 6874,
      "▁zär": 6875,
      "▁bos": 6876,
      "▁erhalten,": 6877,
      "elei": 6878,
      "schul": 6879,
      "orgt": 6880,
      "▁Gür": 6881,
      "▁Gro": 6882,
      "achen.": 6883,
      "▁Eck": 6884,
      "▁Maus": 6885,
      "▁Kann": 6886,
      "▁Koll": 6887,
      "aste": 6888,
      "▁sein?": 6889,
      "▁sein?«": 6890,
      "▁das?": 6891,
      "▁schuldig": 6892,
      "▁mit,": 6893,
      "▁mitteil": 6894,
      "▁Thal": 6895,
      "▁Tasse": 6896,
      "reden": 6897,
      "▁Schau": 6898,
      "▁Pes": 6899,
      "▁Zun": 6900,
      "▁Zunge": 6901,
      "▁Erlaub": 6902,
      "▁Neigung": 6903,
      "▁wovon": 6904,
      "▁vorzüglich": 6905,
      "▁fürchten": 6906,
      "uchow": 6907,
      "reib": 6908,
      "▁du?«": 6909,
      "...": 6910,
      "bares": 6911,
      "▁Uniform": 6912,
      "▁schwank": 6913,
      "▁zweifel": 6914,
      "▁Beob": 6915,
      "ade,": 6916,
      "▁brav": 6917,
      "▁bereu": 6918,
      "▁geschn": 6919,
      "▁gleiche": 6920,
      "▁half": 6921,
      "▁liebt": 6922,
      "▁Wiese": 6923,
      "▁Liebling": 6924,
      "▁Türe": 6925,
      "▁heiraten": 6926,
      "▁Hausfrau": 6927,
      "▁Unterth": 6928,
      "thür": 6929,
      "▁Klasse": 6930,
      "menge": 6931,
      "▁blickte,": 6932,
      "▁Luke": 6933,
      "▁ruhiger": 6934,
      "▁Damit": 6935,
      "▁roth": 6936,
      "▁empfangen": 6937,
      "▁Abendessen": 6938,
      "▁kleine,": 6939,
      "gehalten": 6940,
      "euchten": 6941,
      "▁junges": 6942,
      "bracht.": 6943,
      "kam.": 6944,
      "▁erzählen,": 6945,
      "ziehen,": 6946,
      "▁dunklen": 6947,
      "▁fünfzig": 6948,
      "▁Stelle,": 6949,
      "mäßigen": 6950,
      "▁trug,": 6951,
      "▁unveränder": 6952,
      "▁fahren.": 6953,
      "▁zitterte": 6954,
      "▁Indianer": 6955,
      "▁Eindruck,": 6956,
      "▁Bemüh": 6957,
      "▁bereit,": 6958,
      "▁Coict": 6959,
      "▁froh,": 6960,
      "bringen,": 6961,
      "▁,,Was": 6962,
      "▁Seele,": 6963,
      "▁ferner": 6964,
      "▁Majestät": 6965,
      "▁Geschäfts": 6966,
      "▁Vater,": 6967,
      "▁Fahrt": 6968,
      "▁drängte": 6969,
      "▁eisernen": 6970,
      "▁Stiefel": 6971,
      "▁aufrichtig": 6972,
      "▁Rolle": 6973,
      "▁Loge": 6974,
      "▁Veränderung": 6975,
      "▁Pause": 6976,
      "▁dort,": 6977,
      "▁Gevatter": 6978,
      "▁Finsternis": 6979,
      "avier": 6980,
      "apfer": 6981,
      "dreh": 6982,
      "freu": 6983,
      "haufen": 6984,
      "kun": 6985,
      "lö": 6986,
      "mahl": 6987,
      "punk": 6988,
      "rin": 6989,
      "sache": 6990,
      "t's": 6991,
      "üsch": 6992,
      "▁wüß": 6993,
      "▁wilden": 6994,
      "▁italien": 6995,
      "stag": 6996,
      "▁bill": 6997,
      "▁Andern": 6998,
      "igte,": 6999,
      "schritt": 7000,
      "▁»er": 7001,
      "▁küs": 7002,
      "▁Buck": 7003,
      "▁Wagen,": 7004,
      "▁Hannah": 7005,
      "▁sich:": 7006,
      "▁verlei": 7007,
      "▁verächtlich": 7008,
      "▁gekommen.": 7009,
      "▁wiewohl": 7010,
      "▁unw": 7011,
      "▁unheim": 7012,
      "▁ist!": 7013,
      "▁Rande": 7014,
      "eutlich": 7015,
      "iste": 7016,
      "▁Ergeb": 7017,
      "▁reine": 7018,
      "▁gesam": 7019,
      "▁gewar": 7020,
      "▁gewand": 7021,
      "▁beeil": 7022,
      "▁du's": 7023,
      "ille,": 7024,
      "▁man,": 7025,
      "▁gehol": 7026,
      "▁unterhalten": 7027,
      "äule": 7028,
      "füh": 7029,
      "eln;": 7030,
      "▁Ihr,": 7031,
      "riech": 7032,
      "▁zweimal": 7033,
      "▁Bezug": 7034,
      "▁wenige": 7035,
      "▁fragte,": 7036,
      "▁verlegen": 7037,
      "selig": 7038,
      "▁ging.": 7039,
      "▁Insel": 7040,
      "los.": 7041,
      "ünk": 7042,
      "ützte": 7043,
      "▁möchte.": 7044,
      "▁Schwelle": 7045,
      "▁Strümpf": 7046,
      "▁befehl": 7047,
      "▁Geschick": 7048,
      "flucht": 7049,
      "▁gut.": 7050,
      "theidig": 7051,
      "▁strenge": 7052,
      "▁König,": 7053,
      "▁Fenstern": 7054,
      "▁gesagt.": 7055,
      "scheinend": 7056,
      "führt,": 7057,
      "▁Hölle": 7058,
      "▁»Geh": 7059,
      "▁schnellen": 7060,
      "▁schlechten": 7061,
      "ordnet": 7062,
      "▁festzu": 7063,
      "▁Gesellschaft,": 7064,
      "▁vernehm": 7065,
      "▁entschuldig": 7066,
      "▁Minister": 7067,
      "▁gekr": 7068,
      "setzen,": 7069,
      "▁erwarten": 7070,
      "▁»Oh,": 7071,
      "▁fünfzehn": 7072,
      "▁Notwend": 7073,
      "hängig": 7074,
      "üchtigen": 7075,
      "▁Verbrechen": 7076,
      "muth": 7077,
      "▁lächelnd,": 7078,
      "▁Männer,": 7079,
      "▁schreckliche": 7080,
      "▁unbeding": 7081,
      "▁schritt": 7082,
      "▁irgendwie": 7083,
      "▁Thee": 7084,
      "▁getragen": 7085,
      "▁»Für": 7086,
      "▁Gleichgültig": 7087,
      "▁hängen": 7088,
      "▁verloren,": 7089,
      "▁Widerstand": 7090,
      "▁Widerwill": 7091,
      "▁Kapitel.": 7092,
      "▁ertragen": 7093,
      "▁nein!": 7094,
      "▁abends": 7095,
      "▁Gegenteil,": 7096,
      "▁ängstlich": 7097,
      "▁Speise": 7098,
      "würdige": 7099,
      "▁Bedürf": 7100,
      "▁Stillschwei": 7101,
      "▁strengen": 7102,
      "▁los,": 7103,
      "▁öffentlichen": 7104,
      "▁Strafe": 7105,
      "▁Erfahrung": 7106,
      "▁Angeklagten": 7107,
      "▁Gouvernements": 7108,
      "▁eigentüm": 7109,
      "▁Murmelt": 7110,
      "▁ebensowenig": 7111,
      "▁Auskunft": 7112,
      "▁Kathedrale": 7113,
      "▁Telegr": 7114,
      "▁Serpuchow": 7115,
      "-T": 7116,
      "bu": 7117,
      "bein": 7118,
      "flichkeit": 7119,
      "hut": 7120,
      "rig": 7121,
      "tuch": 7122,
      "wenden": 7123,
      "erer": 7124,
      "erem": 7125,
      "iels": 7126,
      "es;": 7127,
      "▁ma": 7128,
      "▁gei": 7129,
      "▁nerv": 7130,
      "▁zier": 7131,
      "▁erlo": 7132,
      "ane": 7133,
      "▁Amm": 7134,
      "ign": 7135,
      "schön": 7136,
      "▁»C": 7137,
      "▁»...": 7138,
      "▁funk": 7139,
      "aten.": 7140,
      "▁inmitten": 7141,
      "▁Bart": 7142,
      "lichsten": 7143,
      "▁Wasch": 7144,
      "▁Kuß": 7145,
      "▁Kell": 7146,
      "▁Köpf": 7147,
      "▁sicher,": 7148,
      "▁lenk": 7149,
      "▁waren;": 7150,
      "▁Leder": 7151,
      "▁so.": 7152,
      "▁Treu": 7153,
      "▁hat;": 7154,
      "▁Sieh": 7155,
      "ingen.": 7156,
      "▁Erziehung": 7157,
      "▁Näch": 7158,
      "▁ausführ": 7159,
      "▁woher": 7160,
      "▁rufen": 7161,
      "▁überfl": 7162,
      "iere": 7163,
      "▁Stoff": 7164,
      "▁stock": 7165,
      "▁Geschen": 7166,
      "▁besitzen": 7167,
      "▁beendet": 7168,
      "▁trinken": 7169,
      "▁Oft": 7170,
      "▁klat": 7171,
      "innung": 7172,
      "ruf": 7173,
      "rug": 7174,
      "▁soll,": 7175,
      "▁»Ann": 7176,
      "▁»Ah,": 7177,
      "▁versicher": 7178,
      "▁möchten": 7179,
      "▁Wasili": 7180,
      "▁ungest": 7181,
      "klar": 7182,
      "fallen,": 7183,
      "▁»Jetzt": 7184,
      "▁lieben,": 7185,
      "▁erschrak": 7186,
      "mete": 7187,
      "▁Fürst,": 7188,
      "▁Zuerst": 7189,
      "▁Liebhaber": 7190,
      "fahrt": 7191,
      "▁bewußt": 7192,
      "▁hielt.": 7193,
      "erecht": 7194,
      "▁fleh": 7195,
      "▁andern,": 7196,
      "▁Arkadjewitschs": 7197,
      "rifft,": 7198,
      "▁wirklich,": 7199,
      "▁Bauwerk": 7200,
      "▁stellen": 7201,
      "▁Dolly.": 7202,
      "setzen": 7203,
      "▁wünschte,": 7204,
      "kraft": 7205,
      "▁Kapit": 7206,
      "▁mag,": 7207,
      "▁verstand,": 7208,
      "▁Quasimodo,": 7209,
      "▁beschäftigt,": 7210,
      "▁Gegend": 7211,
      "▁irgendwelche": 7212,
      "▁Eile": 7213,
      "▁Schnurr": 7214,
      "▁ehren": 7215,
      "▁fremde": 7216,
      "▁heutigen": 7217,
      "▁Kranke": 7218,
      "▁übel": 7219,
      "▁zerstör": 7220,
      "▁Onkel,": 7221,
      "▁bloßen": 7222,
      "▁Parteien": 7223,
      "sprechen,": 7224,
      "▁Ernst": 7225,
      "saal": 7226,
      "▁Umstände": 7227,
      "▁Gringoire.": 7228,
      "▁Thornfield-Hall": 7229,
      "▁unbeweg": 7230,
      "▁aufgestanden": 7231,
      "skoi": 7232,
      "▁Regierung": 7233,
      "▁Terrasse": 7234,
      "▁Hauptsache": 7235,
      "ridor": 7236,
      "▁Felicie": 7237,
      "▁Gürtel": 7238,
      "5.": 7239,
      "7.": 7240,
      "digen": 7241,
      "kammer": 7242,
      "laufen": 7243,
      "tau": 7244,
      "treu": 7245,
      "vais": 7246,
      "volk": 7247,
      "öhnen": 7248,
      "estig": 7249,
      "▁Sehen": 7250,
      "▁davo": 7251,
      "▁brumm": 7252,
      "llosen": 7253,
      "▁Aeg": 7254,
      "ichten,": 7255,
      "▁Eß": 7256,
      "▁Edell": 7257,
      "▁Bast": 7258,
      "▁Bitte,": 7259,
      "licher,": 7260,
      "▁Wä": 7261,
      "▁Wend": 7262,
      "▁Kron": 7263,
      "▁Hu": 7264,
      "▁Hipp": 7265,
      "▁Di": 7266,
      "▁Druck": 7267,
      "urtheil": 7268,
      "▁warten,": 7269,
      "anden,": 7270,
      "▁Laß": 7271,
      "▁Länge": 7272,
      "▁verfolg": 7273,
      "▁ununter": 7274,
      "▁Rand": 7275,
      "is,": 7276,
      "etzt.": 7277,
      "▁aus:": 7278,
      "▁ausgesch": 7279,
      "▁runz": 7280,
      "▁übern": 7281,
      "▁Städ": 7282,
      "ischt": 7283,
      "olog": 7284,
      "▁heran,": 7285,
      "ieb,": 7286,
      "▁durcheinander": 7287,
      "▁trüben": 7288,
      "▁Gefangen": 7289,
      "▁seinerseits": 7290,
      "▁abger": 7291,
      "▁begreif": 7292,
      "▁Unbekann": 7293,
      "▁schwier": 7294,
      "riß": 7295,
      "▁red": 7296,
      "▁verlieh": 7297,
      "▁Theil": 7298,
      "▁brenn": 7299,
      "▁berei": 7300,
      "▁Ausweg": 7301,
      "▁Ausgang": 7302,
      "▁Ausnahme": 7303,
      "▁geschr": 7304,
      "▁blut": 7305,
      "▁Spaß": 7306,
      "▁genommen,": 7307,
      "räum": 7308,
      "▁altes": 7309,
      "▁Strahlen": 7310,
      "▁Weise,": 7311,
      "▁sprich": 7312,
      "▁Rechte": 7313,
      "▁liebk": 7314,
      "▁liebsten": 7315,
      "▁Wiesen": 7316,
      "▁fortzu": 7317,
      "recher": 7318,
      "▁nahm,": 7319,
      "▁streich": 7320,
      "▁ström": 7321,
      "▁flamm": 7322,
      "▁Blätter": 7323,
      "▁Adj": 7324,
      "▁Parlam": 7325,
      "▁Abend,": 7326,
      "auerte": 7327,
      "▁gehörte": 7328,
      "deckten": 7329,
      "▁vierzig": 7330,
      "▁Alt": 7331,
      "▁Alten": 7332,
      "▁Unged": 7333,
      "▁gewöhnt": 7334,
      "▁vernach": 7335,
      "▁Freundschaft": 7336,
      "setzung": 7337,
      "▁Tour": 7338,
      "▁schmeich": 7339,
      "▁fahre": 7340,
      "▁Verbeug": 7341,
      "zugehen,": 7342,
      "▁furchtbare": 7343,
      "▁furchtbaren": 7344,
      "▁Dienstmädchen": 7345,
      "▁elf": 7346,
      "▁tatsächlich": 7347,
      "▁steht,": 7348,
      "▁Mademoiselle": 7349,
      "▁Gesetze": 7350,
      "▁inne,": 7351,
      "▁geistigen": 7352,
      "▁sorgfältig": 7353,
      "▁weinte": 7354,
      "▁erröten": 7355,
      "▁errötete": 7356,
      "▁französischen": 7357,
      "▁begrüß": 7358,
      "▁Gutes": 7359,
      "▁Eyre,": 7360,
      "▁Entsetz": 7361,
      "▁Sterben": 7362,
      "▁Rechnung": 7363,
      "müd": 7364,
      "▁anfangs": 7365,
      "▁Erzählung": 7366,
      "▁Hunger": 7367,
      "▁zurückgekehrt": 7368,
      "▁Schildkröte": 7369,
      "▁ertönte": 7370,
      "▁Universitäts": 7371,
      "▁Livres": 7372,
      "▁Grubach": 7373,
      "▁Charmolue": 7374,
      "▁Gnade": 7375,
      "▁Begegnung": 7376,
      "▁Tänzer": 7377,
      "▁preßte": 7378,
      "▁förmlich": 7379,
      "▁Vorbereitungen": 7380,
      "ograph": 7381,
      "▁Peszow": 7382,
      "▁davong": 7383,
      ").": 7384,
      "-M": 7385,
      "bill": 7386,
      "eff": 7387,
      "je": 7388,
      "lern": 7389,
      "machen": 7390,
      "rag": 7391,
      "rimm": 7392,
      "äme": 7393,
      "esen,": 7394,
      "▁gieb": 7395,
      "▁gütig": 7396,
      "▁hingen": 7397,
      "▁zeich": 7398,
      "▁zuwider": 7399,
      "▁dergleichen": 7400,
      "igor": 7401,
      "one": 7402,
      "▁»ein": 7403,
      "▁»wir": 7404,
      "▁inzwischen": 7405,
      "▁Bir": 7406,
      "▁Bilde": 7407,
      "▁Mag": 7408,
      "▁Med": 7409,
      "▁sich;": 7410,
      "astes": 7411,
      "▁lasse": 7412,
      "▁ich.«": 7413,
      "▁schlich": 7414,
      "▁schenk": 7415,
      "▁Schlos": 7416,
      "▁Scherz": 7417,
      "▁unent": 7418,
      "▁uns,": 7419,
      "ing.": 7420,
      "isa": 7421,
      "▁überdies": 7422,
      "iert,": 7423,
      "▁beider": 7424,
      "▁mich!": 7425,
      "▁Vergleich": 7426,
      "▁tö": 7427,
      "▁taub": 7428,
      "▁beein": 7429,
      "▁beantwor": 7430,
      "▁herzlich": 7431,
      "▁dul": 7432,
      "t.\"": 7433,
      "▁ganzer": 7434,
      "stehen,": 7435,
      "ätig": 7436,
      "▁fried": 7437,
      "iefer": 7438,
      "▁Grigor": 7439,
      "▁denn?": 7440,
      "▁begangen": 7441,
      "▁habe;": 7442,
      "etwegen": 7443,
      "▁seien,": 7444,
      "▁seien.": 7445,
      "▁Ihres": 7446,
      "▁hätten.": 7447,
      "▁großem": 7448,
      "usses": 7449,
      "▁,,G": 7450,
      "▁wenden": 7451,
      "selige": 7452,
      "▁That,": 7453,
      "gend,": 7454,
      "▁genannt": 7455,
      "gelegt": 7456,
      "itzte": 7457,
      "▁Besser": 7458,
      "▁leider": 7459,
      "▁leid,": 7460,
      "▁Pläne": 7461,
      "▁Geschrei": 7462,
      "▁Jahres": 7463,
      "▁kommt,": 7464,
      "fluch": 7465,
      "recht,": 7466,
      "▁gründ": 7467,
      "▁Klavier": 7468,
      "▁Bewunderung": 7469,
      "▁getreten": 7470,
      "▁bemerkt,": 7471,
      "▁trat.": 7472,
      "▁gegeben.": 7473,
      "▁erregt": 7474,
      "▁rote": 7475,
      "▁rechts": 7476,
      "▁weg.": 7477,
      "▁Org": 7478,
      "▁Gebie": 7479,
      "▁sogar,": 7480,
      "▁zeigte,": 7481,
      "▁zerbrochen": 7482,
      "▁»du": 7483,
      "▁gewöhnliche": 7484,
      "▁verbrei": 7485,
      "▁verbunden": 7486,
      "▁niemandem": 7487,
      "▁hingehen": 7488,
      "▁Buchst": 7489,
      "▁Toten": 7490,
      "▁Tropfen": 7491,
      "illef": 7492,
      "tworten,": 7493,
      "▁Trepp": 7494,
      "▁los.": 7495,
      "othek": 7496,
      "▁holen": 7497,
      "▁holen.": 7498,
      "▁entfernte": 7499,
      "▁widerwärtig": 7500,
      "▁spielen": 7501,
      "üllte": 7502,
      "▁gelangt": 7503,
      "▁Regiment": 7504,
      "▁Johann,": 7505,
      "▁traurigen": 7506,
      "▁unglückliche": 7507,
      "▁Ansichten": 7508,
      "▁beruhigen": 7509,
      "▁empör": 7510,
      "▁heilige": 7511,
      "▁Jane?«": 7512,
      "▁umher,": 7513,
      "▁Verwalt": 7514,
      "▁verschwind": 7515,
      "hielt,": 7516,
      "uschk": 7517,
      "denken,": 7518,
      "denken.": 7519,
      "▁Bursche": 7520,
      "▁Nikola": 7521,
      "▁starrte": 7522,
      "▁selben": 7523,
      "▁»Ach!": 7524,
      "▁Haupte": 7525,
      "▁schwieg.": 7526,
      "obert": 7527,
      "▁Schmutz": 7528,
      "euchteten": 7529,
      "▁Karenina": 7530,
      "▁befindet": 7531,
      "▁erinnere": 7532,
      "▁Zähnen": 7533,
      "▁begreifen": 7534,
      "▁Sonntags": 7535,
      "▁Dichter": 7536,
      "▁Weißt": 7537,
      "▁schlechterdings": 7538,
      "▁Lippen,": 7539,
      "▁hält": 7540,
      "▁Punkte": 7541,
      "▁Vernunft": 7542,
      "▁stimmte": 7543,
      "▁Mitteilung": 7544,
      "▁Versammlung": 7545,
      "▁Sofa": 7546,
      "▁»Jane,": 7547,
      "▁Ähnlichkeit": 7548,
      "▁nirgends": 7549,
      "▁Befriedigung": 7550,
      "▁Vergangenheit": 7551,
      "▁Schwägerin": 7552,
      "apf": 7553,
      "bst": 7554,
      "bt,": 7555,
      "gern": 7556,
      "iver": 7557,
      "nach": 7558,
      "passen": 7559,
      "wäl": 7560,
      "ümlich": 7561,
      "eiger": 7562,
      "ieu": 7563,
      "▁nickte": 7564,
      "art,": 7565,
      "elis": 7566,
      "itt,": 7567,
      "schie": 7568,
      "iner": 7569,
      "▁»der": 7570,
      "atzen": 7571,
      "▁käm": 7572,
      "agte,": 7573,
      "▁Bande": 7574,
      "liches,": 7575,
      "▁Mütze": 7576,
      "eth": 7577,
      "▁Kne": 7578,
      "▁Kommen": 7579,
      "▁Küch": 7580,
      "▁Himm": 7581,
      "▁warm": 7582,
      "irt": 7583,
      "▁Fal": 7584,
      "▁Twer": 7585,
      "▁Tugend": 7586,
      "▁vergeben": 7587,
      "▁aneinander": 7588,
      "▁anscheinend": 7589,
      "▁Schle": 7590,
      "▁Schaden": 7591,
      "▁Pir": 7592,
      "▁Pelz": 7593,
      "▁Potter": 7594,
      "▁Reu": 7595,
      "▁Raup": 7596,
      "tropf": 7597,
      "isation": 7598,
      "unnen": 7599,
      "▁sagten,": 7600,
      "▁desselben": 7601,
      "▁Erb": 7602,
      "roff": 7603,
      "▁Nahr": 7604,
      "ückte": 7605,
      "▁relig": 7606,
      "▁Stär": 7607,
      "olch": 7608,
      "▁umarm": 7609,
      "end;": 7610,
      "▁hinreich": 7611,
      "▁geschen": 7612,
      "entum": 7613,
      "▁Verk": 7614,
      "lot": 7615,
      "▁trü": 7616,
      "▁entbl": 7617,
      "▁Grafen": 7618,
      "gesetzten": 7619,
      "▁par": 7620,
      "▁absch": 7621,
      "▁begonnen": 7622,
      "änglich": 7623,
      "▁würdig": 7624,
      "▁sind.«": 7625,
      "▁Zeitlang": 7626,
      "▁Handlungen": 7627,
      "▁Vormittag": 7628,
      "▁eifers": 7629,
      "▁verletzt": 7630,
      "▁wurde;": 7631,
      "▁Ins": 7632,
      "▁anger": 7633,
      "▁versich": 7634,
      "▁versamm": 7635,
      "▁gelebt": 7636,
      "▁Glut": 7637,
      "▁Spur": 7638,
      "▁mögen,": 7639,
      "eigt,": 7640,
      "▁Strumpf": 7641,
      "▁Flucht": 7642,
      "▁wahre": 7643,
      "flügel": 7644,
      "▁bewei": 7645,
      "▁Ruhm": 7646,
      "▁beschloß": 7647,
      "▁Klar": 7648,
      "▁erheben": 7649,
      "▁Herzen,": 7650,
      "▁Gewiß": 7651,
      "▁Luft,": 7652,
      "▁Alexandrowitsch.": 7653,
      "▁Angst,": 7654,
      "führer": 7655,
      "▁Enttäusch": 7656,
      "▁Stud": 7657,
      "teilen,": 7658,
      "▁änder": 7659,
      "▁Alles,": 7660,
      "▁kurzer": 7661,
      "wohl,": 7662,
      "▁fiel,": 7663,
      "gehenden": 7664,
      "▁gegenüber,": 7665,
      "▁Trost": 7666,
      "▁Notar": 7667,
      "▁merkwürdig": 7668,
      "ublik": 7669,
      "▁wünschen,": 7670,
      "▁Weshalb": 7671,
      "fangen,": 7672,
      "zogen.": 7673,
      "▁vorüber,": 7674,
      "▁hinunter,": 7675,
      "▁Miene,": 7676,
      "▁beschäftigte": 7677,
      "▁Winde": 7678,
      "▁Ehrgeiz": 7679,
      "▁nehme": 7680,
      "▁Moskauer": 7681,
      "▁Ansicht,": 7682,
      "▁handelt": 7683,
      "▁Jup": 7684,
      "▁Eifer": 7685,
      "▁überließ": 7686,
      "▁Folgen": 7687,
      "▁Warjenk": 7688,
      "kaja": 7689,
      "▁Europ": 7690,
      "▁Andre": 7691,
      "▁Hotel": 7692,
      "▁höheren": 7693,
      "▁persönlich": 7694,
      "▁Muff": 7695,
      "▁ehem": 7696,
      "▁Morgen,": 7697,
      "▁Laufe": 7698,
      "▁grünen": 7699,
      "▁Staats": 7700,
      "▁unschuldig": 7701,
      "▁Bibel": 7702,
      "▁Bienen": 7703,
      "▁moder": 7704,
      "▁Etwas": 7705,
      "▁Gutsbesitzer": 7706,
      "schriften": 7707,
      "▁verpflich": 7708,
      "▁Serpuchowskoi": 7709,
      "▁Aegyp": 7710,
      "▁religi": 7711,
      "abend": 7712,
      "fte,": 7713,
      "h.": 7714,
      "lin": 7715,
      "lad": 7716,
      "lage": 7717,
      "pal": 7718,
      "sweise": 7719,
      "vort": 7720,
      "enzen": 7721,
      "eres": 7722,
      "▁seg": 7723,
      "▁wander": 7724,
      "este": 7725,
      "▁gelb": 7726,
      "▁hilf": 7727,
      "▁Sau": 7728,
      "▁Säng": 7729,
      "▁Sire": 7730,
      "stoff": 7731,
      "streck": 7732,
      "▁eingel": 7733,
      "▁er;": 7734,
      "llos": 7735,
      "▁zufrie": 7736,
      "▁Apfel": 7737,
      "schei": 7738,
      "schauer": 7739,
      "▁Gatte": 7740,
      "▁fall": 7741,
      "agel": 7742,
      "▁Bli": 7743,
      "▁Mön": 7744,
      "etten,": 7745,
      "▁Wahnsinn": 7746,
      "▁Korn": 7747,
      "ur,": 7748,
      "▁laufen": 7749,
      "egen,": 7750,
      "▁Fas": 7751,
      "▁Farben": 7752,
      "▁Lein": 7753,
      "▁Loch": 7754,
      "▁Laden": 7755,
      "▁schien.": 7756,
      "▁aufw": 7757,
      "▁aufgesch": 7758,
      "▁aufgew": 7759,
      "▁anb": 7760,
      "▁antworten,": 7761,
      "▁Schaf": 7762,
      "▁Schmerzen": 7763,
      "annt,": 7764,
      "▁Ring": 7765,
      "▁Rund": 7766,
      "▁sagst": 7767,
      "▁Erfüll": 7768,
      "▁auszur": 7769,
      "▁wol": 7770,
      "▁röm": 7771,
      "▁Steine": 7772,
      "▁Stoß": 7773,
      "▁Stadt,": 7774,
      "▁Verfahren": 7775,
      "▁Verschw": 7776,
      "▁gewähl": 7777,
      "▁bekl": 7778,
      "▁bekommen.": 7779,
      "▁durchzu": 7780,
      "▁glüh": 7781,
      "▁trägt": 7782,
      "▁Geber": 7783,
      "▁frische": 7784,
      "▁Grace": 7785,
      "leiden": 7786,
      "▁»Im": 7787,
      "▁pass": 7788,
      "▁Einrichtung": 7789,
      "aufe": 7790,
      "▁Col": 7791,
      "▁sollen.": 7792,
      "▁sollten,": 7793,
      "▁zweihundert": 7794,
      "▁eind": 7795,
      "▁konnten,": 7796,
      "▁kamen,": 7797,
      "gendes": 7798,
      "▁wenigsten": 7799,
      "üssig": 7800,
      "▁unsicht": 7801,
      "tern.": 7802,
      "▁hörte.": 7803,
      "▁volle": 7804,
      "▁befestig": 7805,
      "▁Geschw": 7806,
      "▁bescheiden": 7807,
      "▁Händen,": 7808,
      "▁Klang": 7809,
      "übt": 7810,
      "▁einzig": 7811,
      "▁einziger": 7812,
      "▁Umgebung": 7813,
      "▁strei": 7814,
      "▁Kind!": 7815,
      "▁Kindheit": 7816,
      "▁Lust,": 7817,
      "▁ruhig,": 7818,
      "▁unserem": 7819,
      "▁behalten": 7820,
      "▁behilf": 7821,
      "▁Fenster.": 7822,
      "▁»Hast": 7823,
      "▁Ton,": 7824,
      "▁Baudenk": 7825,
      "▁Euch,": 7826,
      "▁entschlossen,": 7827,
      "▁Halse": 7828,
      "▁Petrizk": 7829,
      "armherz": 7830,
      "▁still,": 7831,
      "▁unbeg": 7832,
      "▁unbesch": 7833,
      "sinnig": 7834,
      "▁Treppen": 7835,
      "▁unverständ": 7836,
      "ufen.": 7837,
      "▁»Laß": 7838,
      "▁bestehen": 7839,
      "▁besteht": 7840,
      "▁Oberst": 7841,
      "▁herrsch": 7842,
      "▁Juli": 7843,
      "▁ärgerte": 7844,
      "▁Wiedersehen": 7845,
      "▁erfüllt": 7846,
      "▁Jeden": 7847,
      "▁sieht,": 7848,
      "▁Madam": 7849,
      "▁lachend": 7850,
      "▁rührte": 7851,
      "▁angesehen": 7852,
      "sprechen.": 7853,
      "▁Beziehung": 7854,
      "▁Beleidig": 7855,
      "▁seufz": 7856,
      "▁›Aber": 7857,
      "▁Trotzdem": 7858,
      "▁horchte": 7859,
      "▁Sense": 7860,
      "▁Lippen.": 7861,
      "▁leuchtete": 7862,
      "▁Zeichen,": 7863,
      "▁verzweifel": 7864,
      "▁Gerichtsdiener": 7865,
      "▁Erwartung": 7866,
      "▁Erkenntnis": 7867,
      "▁königlichen": 7868,
      "▁Appetit": 7869,
      "▁Direktor-Stellvertreter": 7870,
      "▁Ergebnis": 7871,
      "▁Telegramm": 7872,
      "-P": 7873,
      "4.": 7874,
      "brot": 7875,
      "dreiß": 7876,
      "efähr": 7877,
      "geln": 7878,
      "gange": 7879,
      "hwend": 7880,
      "ken,": 7881,
      "leitung": 7882,
      "mitt": 7883,
      "mauer": 7884,
      "ns": 7885,
      "pap": 7886,
      "rang": 7887,
      "sher": 7888,
      "äser": 7889,
      "äht": 7890,
      "üpp": 7891,
      "iedr": 7892,
      "▁hegte": 7893,
      "▁Sel": 7894,
      "ark": 7895,
      "elh": 7896,
      "ine,": 7897,
      "atten,": 7898,
      "▁Eh": 7899,
      "▁Beinen": 7900,
      "lichste": 7901,
      "▁denkt": 7902,
      "ette,": 7903,
      "▁Wäre": 7904,
      "▁Küs": 7905,
      "▁Katz": 7906,
      "▁Koff": 7907,
      "▁Haf": 7908,
      "▁Hätte": 7909,
      "▁Deck": 7910,
      "▁Farbe": 7911,
      "▁Lohn": 7912,
      "▁Täusch": 7913,
      "▁Teller": 7914,
      "▁verder": 7915,
      "▁gepf": 7916,
      "▁geeig": 7917,
      "▁gedrück": 7918,
      "ürr": 7919,
      "▁an:": 7920,
      "▁anerk": 7921,
      "▁ansehen": 7922,
      "▁Schenk": 7923,
      "amt": 7924,
      "▁Zahn": 7925,
      "▁Reit": 7926,
      "▁Rosen": 7927,
      "▁Nieder": 7928,
      "▁Narren": 7929,
      "liothek": 7930,
      "▁vornehmen": 7931,
      "▁überkam": 7932,
      "▁Stre": 7933,
      "▁Stunde,": 7934,
      "▁umgab": 7935,
      "▁nachts": 7936,
      "unddreiß": 7937,
      "▁hin;": 7938,
      "ernt": 7939,
      "▁Versprechen": 7940,
      "reiben": 7941,
      "▁herüber": 7942,
      "örter": 7943,
      "▁was,": 7944,
      "nete.": 7945,
      "mal,": 7946,
      "▁Gefallen": 7947,
      "▁macht,": 7948,
      "▁klu": 7949,
      "skomm": 7950,
      "afft": 7951,
      "barer": 7952,
      "▁schwachen": 7953,
      "▁langen,": 7954,
      "▁Frauen,": 7955,
      "▁Che": 7956,
      "▁solle,": 7957,
      "▁Vorrat": 7958,
      "▁Vorhang": 7959,
      "▁hier?«": 7960,
      "▁»Natürlich": 7961,
      "▁erwachte": 7962,
      "▁wird.«": 7963,
      "▁angeg": 7964,
      "▁will.": 7965,
      "▁geschick": 7966,
      "▁Geduld": 7967,
      "▁Weiter": 7968,
      "▁Nachdenken": 7969,
      "▁Mittern": 7970,
      "▁Abt": 7971,
      "▁weiteren": 7972,
      "▁Flur": 7973,
      "▁wahren": 7974,
      "▁Unterricht": 7975,
      "kommen.«": 7976,
      "them": 7977,
      "▁Sek": 7978,
      "▁Hände,": 7979,
      "▁Klub": 7980,
      "ungsvoll": 7981,
      "eckt": 7982,
      "▁(denn": 7983,
      "esseln": 7984,
      "▁vermut": 7985,
      "▁Schulzimmer": 7986,
      "▁roll": 7987,
      "▁roman": 7988,
      "▁lautete": 7989,
      "decke": 7990,
      "ündel": 7991,
      "▁schneller": 7992,
      "▁versteht": 7993,
      "▁versteckt": 7994,
      "ive": 7995,
      "▁Knabe": 7996,
      "▁Beglei": 7997,
      "▁Namen,": 7998,
      "wärts,": 7999,
      "▁versuchen,": 8000,
      "▁Gemach": 8001,
      "▁Uhr.": 8002,
      "▁Berührung": 8003,
      "▁»Bitte,": 8004,
      "▁reisen": 8005,
      "▁Stellen": 8006,
      "▁daher,": 8007,
      "▁befanden": 8008,
      "▁Höhe.": 8009,
      "▁Felsen": 8010,
      "▁brachten": 8011,
      "▁wären,": 8012,
      "▁Stirn,": 8013,
      "boten": 8014,
      "▁Faç": 8015,
      "▁unbedeuten": 8016,
      "▁Mund,": 8017,
      "▁Schuhe": 8018,
      "▁empfand,": 8019,
      "▁»wie": 8020,
      "▁Indem": 8021,
      "▁deutlicher": 8022,
      "▁Guts": 8023,
      "▁Dorfe": 8024,
      "schnitt": 8025,
      "▁Petersburger": 8026,
      "▁niedrig": 8027,
      "▁helfen,": 8028,
      "▁Trib": 8029,
      "▁einsamen": 8030,
      "▁Kaufmann,": 8031,
      "▁Arzn": 8032,
      "▁Muster": 8033,
      "▁Bahnhof": 8034,
      "▁Linie": 8035,
      "▁berühmten": 8036,
      "▁nackten": 8037,
      "▁Güte": 8038,
      "▁bedeutet": 8039,
      "▁Sympath": 8040,
      "▁Verzeihung": 8041,
      "▁zahllosen": 8042,
      "▁Hutmacher": 8043,
      "▁nämlichen": 8044,
      "▁Ruhe,": 8045,
      "▁keineswegs": 8046,
      "▁Altstadt": 8047,
      "▁Aufseher": 8048,
      "▁Augenbrauen": 8049,
      "▁»Mr.": 8050,
      "▁Moment": 8051,
      "▁Rouault": 8052,
      "▁Unterthanen": 8053,
      "▁unbedingt": 8054,
      "▁Murmelthier": 8055,
      "-C": 8056,
      "-G": 8057,
      "-J": 8058,
      "O,": 8059,
      "jat": 8060,
      "ja,": 8061,
      "lem": 8062,
      "mäl": 8063,
      "messer": 8064,
      "regen": 8065,
      "uar": 8066,
      "zen.": 8067,
      "▁?«": 8068,
      "erl": 8069,
      "iegen,": 8070,
      "▁gaben": 8071,
      "▁griech": 8072,
      "▁Samm": 8073,
      "▁bar": 8074,
      "▁beug": 8075,
      "antwort": 8076,
      "itut": 8077,
      "inzen": 8078,
      "▁feur": 8079,
      "▁Eliz": 8080,
      "▁Bör": 8081,
      "lich;": 8082,
      "▁Mach": 8083,
      "eta": 8084,
      "▁Wild": 8085,
      "▁Deshalb": 8086,
      "▁wartete,": 8087,
      "altete": 8088,
      "▁Fieber": 8089,
      "▁Fällen": 8090,
      "▁Lichte": 8091,
      "eitausend": 8092,
      "▁Scheu": 8093,
      "▁Schrank": 8094,
      "▁Pi": 8095,
      "▁unzufrieden": 8096,
      "▁ist?": 8097,
      "▁Zettel": 8098,
      "▁Ros": 8099,
      "▁Erober": 8100,
      "enne": 8101,
      "▁vorigen": 8102,
      "▁Stamm": 8103,
      "gezogen": 8104,
      "uße": 8105,
      "▁stol": 8106,
      "▁mich!«": 8107,
      "▁Jüng": 8108,
      "▁Verh": 8109,
      "▁Gesang": 8110,
      "reisen": 8111,
      "▁töd": 8112,
      "▁bezeich": 8113,
      "▁Gep": 8114,
      "▁Antrag": 8115,
      "▁entf": 8116,
      "▁Gründ": 8117,
      "▁anderen,": 8118,
      "gessen": 8119,
      "▁machen.«": 8120,
      "▁»Wahr": 8121,
      "▁»Wollen": 8122,
      "▁»Weshalb": 8123,
      "▁pol": 8124,
      "▁Einer": 8125,
      "▁gerech": 8126,
      "achtungen": 8127,
      "▁Unrecht": 8128,
      "▁kannte,": 8129,
      "▁stehe": 8130,
      "▁,,Ja,": 8131,
      "▁Vorwand": 8132,
      "▁zurück;": 8133,
      "▁»Sir": 8134,
      "▁ja!": 8135,
      "ünftigen": 8136,
      "ützt": 8137,
      "▁Glieder": 8138,
      "unken,": 8139,
      "▁möchte,": 8140,
      "▁›M": 8141,
      "▁Kopfe,": 8142,
      "▁leise,": 8143,
      "▁Sohne": 8144,
      "▁Kragen": 8145,
      "▁gut!": 8146,
      "▁Bett,": 8147,
      "▁allerhand": 8148,
      "▁irgendeine": 8149,
      "▁beschl": 8150,
      "legen,": 8151,
      "▁bemerken": 8152,
      "▁Dampf": 8153,
      "▁»Um": 8154,
      "führen.": 8155,
      "essen.": 8156,
      "▁»Guten": 8157,
      "▁Fürstin,": 8158,
      "▁Orden": 8159,
      "▁außerhalb": 8160,
      "▁angekommen": 8161,
      "▁angezogen": 8162,
      "▁sehen;": 8163,
      "utzend": 8164,
      "▁weit,": 8165,
      "gestalt": 8166,
      "▁versucht": 8167,
      "▁Glück,": 8168,
      "wege": 8169,
      "▁Gott!«": 8170,
      "▁Herrn,": 8171,
      "▁Sir;": 8172,
      "werden": 8173,
      "▁Platz,": 8174,
      "▁Geistlichen": 8175,
      "▁Iwanowitsch.": 8176,
      "▁Trennung": 8177,
      "▁Advokat,": 8178,
      "▁Büro": 8179,
      "▁Fall,": 8180,
      "mäßige": 8181,
      "▁bringt": 8182,
      "▁brachte,": 8183,
      "▁holen,": 8184,
      "▁Stücke": 8185,
      "▁Person,": 8186,
      "▁Besucher": 8187,
      "ützt,": 8188,
      "▁besteh": 8189,
      "▁heller": 8190,
      "▁herrschte": 8191,
      "hofes": 8192,
      "▁Formen": 8193,
      "▁Weib,": 8194,
      "▁sonderbare": 8195,
      "▁Folter": 8196,
      "▁Jede": 8197,
      "▁Jedes": 8198,
      "▁fromm": 8199,
      "▁folgende": 8200,
      "▁Erstaun": 8201,
      "▁innere": 8202,
      "▁wirkliche": 8203,
      "▁berührte": 8204,
      "schreiber": 8205,
      "▁Ärger": 8206,
      "▁Korridor": 8207,
      "▁Nebenzimmer": 8208,
      "▁begrüßte": 8209,
      "▁erinnern,": 8210,
      "▁Fortschrit": 8211,
      "▁rückte": 8212,
      "▁Idee": 8213,
      "▁Bewußtsein,": 8214,
      "▁eintrat,": 8215,
      "▁Walde": 8216,
      "▁Käse": 8217,
      "▁Persönlichkeit": 8218,
      "▁Neugierde": 8219,
      "▁öfters": 8220,
      "▁Klausnerin": 8221,
      "jali": 8222,
      "▁Gleichgültigkeit": 8223,
      "▁Wäsche": 8224,
      "brei": 8225,
      "bank": 8226,
      "ftete": 8227,
      "hob": 8228,
      "ke,": 8229,
      "köpf": 8230,
      "ners": 8231,
      "näck": 8232,
      "rück": 8233,
      "sied": 8234,
      "zauber": 8235,
      "ämen": 8236,
      "äfte": 8237,
      "üchte": 8238,
      "üstern": 8239,
      "eiden.": 8240,
      "ieger": 8241,
      "▁wid": 8242,
      "▁mam": 8243,
      "▁mächtige": 8244,
      "▁mürr": 8245,
      "▁dageg": 8246,
      "▁eingeh": 8247,
      "▁zarten": 8248,
      "▁bau": 8249,
      "▁bild": 8250,
      "▁ersp": 8251,
      "▁erfr": 8252,
      "▁erste,": 8253,
      "▁zuviel": 8254,
      "anischen": 8255,
      "schuld": 8256,
      "or,": 8257,
      "▁fassen": 8258,
      "▁fingen": 8259,
      "▁Ew": 8260,
      "▁Bade": 8261,
      "▁Wen": 8262,
      "▁Wall": 8263,
      "▁Wün": 8264,
      "▁Kart": 8265,
      "▁Kasten": 8266,
      "▁Haben": 8267,
      "alt.": 8268,
      "irne": 8269,
      "▁Fer": 8270,
      "▁Fack": 8271,
      "▁Lüge": 8272,
      "▁scherz": 8273,
      "▁mitt": 8274,
      "▁mittel": 8275,
      "ürchte": 8276,
      "eht": 8277,
      "ehör": 8278,
      "▁jugend": 8279,
      "▁Pa": 8280,
      "▁Nord": 8281,
      "▁Nummer": 8282,
      "▁Nutzen": 8283,
      "▁ritt": 8284,
      "▁Stall": 8285,
      "geber": 8286,
      "utsch": 8287,
      "▁Vertr": 8288,
      "reifen,": 8289,
      "▁to": 8290,
      "▁beurteil": 8291,
      "weisen": 8292,
      "stete": 8293,
      "iller": 8294,
      "um,": 8295,
      "▁wenn's": 8296,
      "▁Anteil": 8297,
      "▁Anhäng": 8298,
      "▁kläglich": 8299,
      "brett": 8300,
      "▁»Weil": 8301,
      "▁füllte": 8302,
      "▁Esht": 8303,
      "▁geraten": 8304,
      "▁gerühr": 8305,
      "barm": 8306,
      "▁begeben": 8307,
      "äus": 8308,
      "▁schwache": 8309,
      "▁muß.": 8310,
      "▁Freit": 8311,
      "beam": 8312,
      "agenden": 8313,
      "elle,": 8314,
      "gerichts": 8315,
      "▁Bedien": 8316,
      "▁»Nach": 8317,
      "▁»Ah!": 8318,
      "▁»Sehen": 8319,
      "▁vieles": 8320,
      "▁Them": 8321,
      "▁jammer": 8322,
      "▁versank": 8323,
      "▁versäum": 8324,
      "▁gelben": 8325,
      "▁weißt,": 8326,
      "▁Glied": 8327,
      "▁geschehen,": 8328,
      "▁geschlagen": 8329,
      "▁gegenwär": 8330,
      "▁Gesichtern": 8331,
      "▁Schwieger": 8332,
      "▁Streich": 8333,
      "▁gefol": 8334,
      "▁gefallen,": 8335,
      "▁Recht,": 8336,
      "▁Abw": 8337,
      "▁Abteil": 8338,
      "▁Abscheu": 8339,
      "▁weitere": 8340,
      "▁erschien.": 8341,
      "▁geboren": 8342,
      "aps": 8343,
      "▁irr": 8344,
      "▁Geländer": 8345,
      "▁Gering": 8346,
      "▁Gervais": 8347,
      "▁Soph": 8348,
      "▁begann.": 8349,
      "▁Zuschauer": 8350,
      "▁Flasche": 8351,
      "▁Brücke": 8352,
      "fläch": 8353,
      "▁blickten": 8354,
      "ichtet,": 8355,
      "stellen.": 8356,
      "▁näh": 8357,
      "▁gab.": 8358,
      "▁unseres": 8359,
      "▁Entdeck": 8360,
      "perr": 8361,
      "▁Dienste": 8362,
      "▁Thüren": 8363,
      "▁Fußsp": 8364,
      "▁Weg,": 8365,
      "▁Philipp": 8366,
      "gewöhn": 8367,
      "▁Gebur": 8368,
      "▁Beginn": 8369,
      "▁öffnete,": 8370,
      "▁Pferdes": 8371,
      "affen.": 8372,
      "▁verborgen": 8373,
      "wegen,": 8374,
      "▁kroch": 8375,
      "▁entscheiden": 8376,
      "▁belieb": 8377,
      "▁jemand,": 8378,
      "▁jemandem": 8379,
      "▁starke": 8380,
      "▁fünfzehnten": 8381,
      "▁klare": 8382,
      "▁betrifft,": 8383,
      "▁befand.": 8384,
      "▁hoher": 8385,
      "handlung": 8386,
      "▁Felder": 8387,
      "nahm.": 8388,
      "▁Konstantin,": 8389,
      "▁entfernt,": 8390,
      "▁Männern": 8391,
      "aupts": 8392,
      "▁erkannte,": 8393,
      "▁Unglückliche": 8394,
      "▁feste": 8395,
      "▁fest.": 8396,
      "▁ausgezeichnet": 8397,
      "▁unglücklichen": 8398,
      "▁energ": 8399,
      "▁Rechts": 8400,
      "▁überlegen": 8401,
      "▁überlassen": 8402,
      "gestellt,": 8403,
      "regel": 8404,
      "▁Burschen": 8405,
      "▁interessierte": 8406,
      "▁Baumeister": 8407,
      "▁treffen": 8408,
      "▁Ludwigs": 8409,
      "kleide": 8410,
      "▁äußersten": 8411,
      "▁Ursachen": 8412,
      "▁Entschuldig": 8413,
      "▁klopf": 8414,
      "▁Abende": 8415,
      "▁Abenteuer": 8416,
      "▁fürchterlichen": 8417,
      "▁glänzende": 8418,
      "▁Sitzung": 8419,
      "▁eingeschl": 8420,
      "▁Grausamkeit": 8421,
      "▁Anschauung": 8422,
      "▁Beweis": 8423,
      "▁Zuhörer": 8424,
      "▁Pfarrer": 8425,
      "-Ad": 8426,
      "▁kühn": 8427,
      "▁Landstreicher": 8428,
      "▁Coppenole": 8429,
      "▁ungeheuern": 8430,
      "▁,,Tom,": 8431,
      "▁Edelmann": 8432,
      "▁Coictier": 8433,
      "▁Grigori": 8434,
      "▁entblöß": 8435,
      "9.": 8436,
      "baum": 8437,
      "dlichen": 8438,
      "falt": 8439,
      "fälle": 8440,
      "impf": 8441,
      "kne": 8442,
      "sitz": 8443,
      "upf": 8444,
      "uster": 8445,
      "wy": 8446,
      "welt": 8447,
      "wow": 8448,
      "ze,": 8449,
      "zeits": 8450,
      "ähne": 8451,
      "äbe": 8452,
      "ädig": 8453,
      "erw": 8454,
      "ieth": 8455,
      "▁singen": 8456,
      "te:": 8457,
      "▁himm": 8458,
      "▁haupts": 8459,
      "▁Skl": 8460,
      "▁Sech": 8461,
      "▁Sub": 8462,
      "▁da?«": 8463,
      "▁ermü": 8464,
      "▁zu;": 8465,
      "▁zuhör": 8466,
      "▁Ahn": 8467,
      "▁Akten": 8468,
      "schr": 8469,
      "austr": 8470,
      "▁Gau": 8471,
      "▁Gehen": 8472,
      "▁»m": 8473,
      "▁freut": 8474,
      "atte,": 8475,
      "▁kahl": 8476,
      "▁koste": 8477,
      "▁Butter": 8478,
      "▁Boden.": 8479,
      "▁Wänd": 8480,
      "▁Welche": 8481,
      "▁Wände": 8482,
      "▁Hon": 8483,
      "▁Hosen": 8484,
      "▁Halle": 8485,
      "▁Dutzend": 8486,
      "urer": 8487,
      "▁l'": 8488,
      "▁lö": 8489,
      "▁lachen": 8490,
      "▁lernen": 8491,
      "▁läst": 8492,
      "▁warst": 8493,
      "▁sein!«": 8494,
      "▁Lob": 8495,
      "▁Lage,": 8496,
      "▁Lond": 8497,
      "▁Lwow": 8498,
      "▁Tsch": 8499,
      "▁Taube": 8500,
      "▁aufges": 8501,
      "reche": 8502,
      "▁anstr": 8503,
      "▁Schlimm": 8504,
      "▁Publik": 8505,
      "▁Sie!«": 8506,
      "▁Viel": 8507,
      "▁Vene": 8508,
      "anne": 8509,
      "▁Ritter": 8510,
      "▁Räuber": 8511,
      "ision": 8512,
      "▁ohnm": 8513,
      "▁Neig": 8514,
      "▁auss": 8515,
      "▁aussehen": 8516,
      "ennen,": 8517,
      "▁womit": 8518,
      "ften,": 8519,
      "▁vorstellen,": 8520,
      "▁Stat": 8521,
      "▁meinst": 8522,
      "▁stre": 8523,
      "▁Ja": 8524,
      "▁Jetzt,": 8525,
      "▁Verachtung": 8526,
      "▁tue": 8527,
      "▁tüchtig": 8528,
      "▁teils": 8529,
      "lepp": 8530,
      "▁du?": 8531,
      "ilfe": 8532,
      "▁Gebe": 8533,
      "▁Anzahl": 8534,
      "oten,": 8535,
      "▁doch!": 8536,
      "▁gehen;": 8537,
      "ärmer": 8538,
      "▁mehrmals": 8539,
      "innen.": 8540,
      "▁köst": 8541,
      "▁Einbildung": 8542,
      "▁gerei": 8543,
      "äug": 8544,
      "▁»Dar": 8545,
      "▁schwatz": 8546,
      "▁immerhin": 8547,
      "▁Can": 8548,
      "▁alles.": 8549,
      "▁haben?«": 8550,
      "▁schlagen": 8551,
      "▁willen,": 8552,
      "▁geschäft": 8553,
      "▁Pfei": 8554,
      "▁Schwager": 8555,
      "▁hörten": 8556,
      "▁ungesch": 8557,
      "▁fühlen": 8558,
      "▁drüben": 8559,
      "▁riefen": 8560,
      "▁gebeug": 8561,
      "▁Geruch": 8562,
      "▁Tom.": 8563,
      "▁bewußt,": 8564,
      "▁allerlieb": 8565,
      "▁erstarr": 8566,
      "▁arb": 8567,
      "▁armer": 8568,
      "▁Bewohn": 8569,
      "▁Herz,": 8570,
      "▁Reis": 8571,
      "richten": 8572,
      "▁vermö": 8573,
      "ehnt": 8574,
      "▁Höflichkeit": 8575,
      "▁tiefsten": 8576,
      "▁that,": 8577,
      "▁»Gott": 8578,
      "▁Warwar": 8579,
      "inkte": 8580,
      "▁wegge": 8581,
      "▁verhäl": 8582,
      "ivil": 8583,
      "▁braunen": 8584,
      "▁führen.": 8585,
      "affte": 8586,
      "▁Sawy": 8587,
      "▁erzählt,": 8588,
      "▁verbeugte": 8589,
      "▁Gemäl": 8590,
      "▁Gemahl": 8591,
      "▁Prüf": 8592,
      "▁Pranger": 8593,
      "▁vernünftig": 8594,
      "▁Bericht": 8595,
      "▁Lichter": 8596,
      "▁still.": 8597,
      "▁einfache": 8598,
      "▁gesagt:": 8599,
      "▁starb": 8600,
      "▁schwerer": 8601,
      "ühlen": 8602,
      "▁Trou": 8603,
      "▁nächste": 8604,
      "▁Volkes": 8605,
      "▁verdopp": 8606,
      "▁erklären": 8607,
      "▁erklärte,": 8608,
      "▁wunderte": 8609,
      "▁Stirn.": 8610,
      "▁erkannt": 8611,
      "▁gelangte": 8612,
      "▁hoffte,": 8613,
      "jenigen": 8614,
      "▁,,Na": 8615,
      "▁beruhigte": 8616,
      "▁Dienstboten": 8617,
      "▁»Ja.«": 8618,
      "▁beinah": 8619,
      "▁kräftigen": 8620,
      "▁verlangte": 8621,
      "▁Pflichten": 8622,
      "▁wichtige": 8623,
      "▁Hochzeits": 8624,
      "▁inneren": 8625,
      "▁prächtige": 8626,
      "▁»Zum": 8627,
      "▁wirklichen": 8628,
      "▁Bemerkungen": 8629,
      "eißt": 8630,
      "▁übrige": 8631,
      "▁vergnüg": 8632,
      "▁Kors": 8633,
      "arbeiten": 8634,
      "▁gnädiger": 8635,
      "▁Millc": 8636,
      "▁begreifen,": 8637,
      "liebe": 8638,
      "▁ewige": 8639,
      "▁Gemüts": 8640,
      "▁Italiener": 8641,
      "▁Auffassung": 8642,
      "▁Verwandten": 8643,
      "▁geheimnisvolle": 8644,
      "▁ursprüng": 8645,
      "▁Scheiben": 8646,
      "▁Geliebte": 8647,
      "zunehmen,": 8648,
      "▁beabsichtig": 8649,
      "▁›Es": 8650,
      "▁jetzigen": 8651,
      "▁Mahlzeit": 8652,
      "▁senkte": 8653,
      "▁Binet": 8654,
      "▁Patien": 8655,
      "▁steinernen": 8656,
      "▁umsonst": 8657,
      "▁Säulen": 8658,
      "▁Möbel": 8659,
      "▁zerrissen": 8660,
      "▁geglaubt,": 8661,
      "▁Vorhänge": 8662,
      "▁General": 8663,
      "▁Billard": 8664,
      "▁sofort,": 8665,
      "▁Indianer-J": 8666,
      "▁Buckl": 8667,
      "▁ununterbrochen": 8668,
      "▁Faselh": 8669,
      "▁Indianer-Jo": 8670,
      "1.": 8671,
      "e.«": 8672,
      "farben": 8673,
      "förm": 8674,
      "gut": 8675,
      "gieb": 8676,
      "hall": 8677,
      "kow": 8678,
      "kos": 8679,
      "kömm": 8680,
      "leuch": 8681,
      "lauben": 8682,
      "mat": 8683,
      "ründ": 8684,
      "siden": 8685,
      "wink": 8686,
      "engt": 8687,
      "ichte.": 8688,
      "▁weichen": 8689,
      "▁ad": 8690,
      "▁Szen": 8691,
      "▁Suppe": 8692,
      "▁Sache,": 8693,
      "steine": 8694,
      "▁damals,": 8695,
      "▁eingeb": 8696,
      "▁zu:": 8697,
      "ant,": 8698,
      "▁Atl": 8699,
      "itä": 8700,
      "onie": 8701,
      "▁Gre": 8702,
      "▁»Ü": 8703,
      "▁Bü": 8704,
      "▁Bän": 8705,
      "▁Bitter": 8706,
      "lich!": 8707,
      "▁Mäng": 8708,
      "▁Wolke": 8709,
      "▁Däch": 8710,
      "▁laßt": 8711,
      "▁Fassung": 8712,
      "▁Lesen": 8713,
      "▁Locken": 8714,
      "▁schoß": 8715,
      "▁auffall": 8716,
      "▁verli": 8717,
      "▁verdr": 8718,
      "derung": 8719,
      "▁anvertrau": 8720,
      "▁Schar": 8721,
      "▁Pein": 8722,
      "▁Pier": 8723,
      "▁Vom": 8724,
      "annen": 8725,
      "annehm": 8726,
      "▁Rie": 8727,
      "abin": 8728,
      "angen;": 8729,
      "▁sagen;": 8730,
      "▁off": 8731,
      "▁Nad": 8732,
      "▁Narr": 8733,
      "▁ausger": 8734,
      "ierte,": 8735,
      "oly": 8736,
      "anze": 8737,
      "▁steig": 8738,
      "▁stütz": 8739,
      "▁stützte": 8740,
      "▁Veranl": 8741,
      "ört,": 8742,
      "orth": 8743,
      "▁doch!«": 8744,
      "▁Ofen": 8745,
      "▁unterbrochen": 8746,
      "▁unterwegs": 8747,
      "afen,": 8748,
      "afen.": 8749,
      "▁»Welch": 8750,
      "▁abgem": 8751,
      "▁gerettet": 8752,
      "adi": 8753,
      "ades": 8754,
      "▁Unannehm": 8755,
      "▁stecken": 8756,
      "▁groß,": 8757,
      "▁große,": 8758,
      "▁Handlungs": 8759,
      "▁»Nur": 8760,
      "▁»Sieh": 8761,
      "▁wendete": 8762,
      "ogen,": 8763,
      "▁Thun": 8764,
      "unken.": 8765,
      "▁werde;": 8766,
      "▁Schwarm": 8767,
      "▁Schwäche": 8768,
      "▁alber": 8769,
      "▁Aufreg": 8770,
      "▁Weis": 8771,
      "▁verschl": 8772,
      "▁liebe,": 8773,
      "▁Worte.": 8774,
      "▁erschien,": 8775,
      "igerweise": 8776,
      "▁Wirt": 8777,
      "▁bewegen": 8778,
      "▁bewundern": 8779,
      "▁beschränk": 8780,
      "▁Mädchen.": 8781,
      "▁Landwir": 8782,
      "▁Umstand": 8783,
      "▁Mutter.": 8784,
      "antast": 8785,
      "▁getrieben": 8786,
      "▁Blät": 8787,
      "▁besonderer": 8788,
      "▁(und": 8789,
      "▁Gedankengang": 8790,
      "▁Dazu": 8791,
      "▁rollte": 8792,
      "▁empfunden": 8793,
      "▁Mark": 8794,
      "▁Diener,": 8795,
      "▁Maler,": 8796,
      "utzt": 8797,
      "▁zog,": 8798,
      "▁Gebiete": 8799,
      "▁öffnen": 8800,
      "▁offenen": 8801,
      "▁Saale": 8802,
      "▁»Wieso": 8803,
      "▁Bilds": 8804,
      "▁Sir.": 8805,
      "dienst": 8806,
      "▁gekränkt": 8807,
      "▁anzusehen,": 8808,
      "▁dunkeln": 8809,
      "▁hineinzu": 8810,
      "▁Zigeunerin,": 8811,
      "▁ernste": 8812,
      "platze": 8813,
      "▁entgegen,": 8814,
      "▁solchem": 8815,
      "▁deut": 8816,
      "▁Trink": 8817,
      "▁gehabt.": 8818,
      "▁wissen.": 8819,
      "▁Monaten": 8820,
      "▁lebendig": 8821,
      "ösung": 8822,
      "▁unverm": 8823,
      "▁verwick": 8824,
      "▁fahren,": 8825,
      "▁Katzen": 8826,
      "▁dahin,": 8827,
      "▁Frauenzimmer": 8828,
      "▁Thatcher": 8829,
      "▁»Verz": 8830,
      "▁Trauer": 8831,
      "warf": 8832,
      "▁Heft": 8833,
      "▁geringsch": 8834,
      "▁äußerst": 8835,
      "▁äußeren": 8836,
      "▁Michail": 8837,
      "▁stark,": 8838,
      "▁fremd": 8839,
      "artiges": 8840,
      "beweg": 8841,
      "▁verlangt": 8842,
      "▁Ganzen": 8843,
      "▁Kutsch": 8844,
      "▁schwarzes": 8845,
      "▁bloße": 8846,
      "achsenen": 8847,
      "▁falsch": 8848,
      "▁Saint-G": 8849,
      "▁Notre-Dam": 8850,
      "▁Neues": 8851,
      "▁bemüht,": 8852,
      "▁Samt": 8853,
      "▁Denken": 8854,
      "▁düsteren": 8855,
      "▁ausgesprochen": 8856,
      "▁überrascht": 8857,
      "▁süße": 8858,
      "▁Dankbarkeit": 8859,
      "müth": 8860,
      "▁häufiger": 8861,
      "▁Leben.": 8862,
      "üstung": 8863,
      "▁Kirche,": 8864,
      "▁begleitete": 8865,
      "▁ewig": 8866,
      "▁jedesmal,": 8867,
      "▁Zurück": 8868,
      "▁Feuer,": 8869,
      "▁geheimnisvoll": 8870,
      "▁Getrei": 8871,
      "▁›Er": 8872,
      "▁Bibliothek": 8873,
      "▁Justiz": 8874,
      "▁Wichtigkeit": 8875,
      "äschchen": 8876,
      "▁goldenen": 8877,
      "▁Gefängnis": 8878,
      "▁Unwahr": 8879,
      "▁Vorstellung,": 8880,
      "▁gestellt": 8881,
      "▁Überlegung": 8882,
      "liegenden": 8883,
      "▁gesellschaftlichen": 8884,
      "▁Georgina": 8885,
      "▁Drosch": 8886,
      "▁Grèveplatz": 8887,
      "▁wahnsinnig": 8888,
      "▁Zerstreu": 8889,
      "▁blind": 8890,
      "▁Käfig": 8891,
      "▁Laska": 8892,
      "▁Prozesses": 8893,
      "▁Notwendigkeit": 8894,
      "▁Hippoly": 8895,
      "▁geschenkt": 8896,
      "▁Jupiter": 8897,
      "▁Erfüllung": 8898,
      "▁unbegreif": 8899,
      "-Adelsmarschall": 8900,
      "▁Trouillef": 8901,
      "0.": 8902,
      "3.": 8903,
      "bür": 8904,
      "ebe": 8905,
      "gn": 8906,
      "gs": 8907,
      "ger,": 8908,
      "las": 8909,
      "lust": 8910,
      "mte": 8911,
      "mon": 8912,
      "mod": 8913,
      "ous": 8914,
      "ste.": 8915,
      "u,": 8916,
      "ufen,": 8917,
      "wache": 8918,
      "wasser": 8919,
      "zten": 8920,
      "äte": 8921,
      "öpft": 8922,
      "üche": 8923,
      "chten,": 8924,
      "▁dis": 8925,
      "▁durf": 8926,
      "▁sink": 8927,
      "▁sehnte": 8928,
      "tels": 8929,
      "iche": 8930,
      "▁wich": 8931,
      "▁wundern": 8932,
      "▁wischte": 8933,
      "eins": 8934,
      "▁maß": 8935,
      "▁haf": 8936,
      "stro": 8937,
      "stieß": 8938,
      "▁erd": 8939,
      "▁erteil": 8940,
      "an.": 8941,
      "anch": 8942,
      "itik": 8943,
      "au,": 8944,
      "inte": 8945,
      "insel": 8946,
      "▁Gent": 8947,
      "▁fähr": 8948,
      "▁Ener": 8949,
      "▁Ehem": 8950,
      "▁Kus": 8951,
      "▁Hüt": 8952,
      "▁Heller": 8953,
      "▁Deine": 8954,
      "▁Deut": 8955,
      "astete": 8956,
      "▁legen": 8957,
      "▁lauf": 8958,
      "▁warfen": 8959,
      "alteten": 8960,
      "▁Fisch": 8961,
      "▁Fächer": 8962,
      "▁dasselb": 8963,
      "andid": 8964,
      "▁schaffen": 8965,
      "▁mit.": 8966,
      "▁aufhör": 8967,
      "▁gebracht,": 8968,
      "re,": 8969,
      "▁anhör": 8970,
      "▁Puls": 8971,
      "▁Sie?«": 8972,
      "▁unum": 8973,
      "▁unwider": 8974,
      "▁unklar": 8975,
      "ament": 8976,
      "aben.": 8977,
      "ingt": 8978,
      "▁Auge,": 8979,
      "▁North": 8980,
      "▁ausspr": 8981,
      "▁rund": 8982,
      "▁runden": 8983,
      "▁umgeben": 8984,
      "▁umring": 8985,
      "pflanz": 8986,
      "▁meine,": 8987,
      "entreffen": 8988,
      "▁Gesichtes": 8989,
      "▁mir!": 8990,
      "▁mir!«": 8991,
      "▁gewahr": 8992,
      "▁gewendet": 8993,
      "▁gewußt": 8994,
      "▁herzu": 8995,
      "▁hervort": 8996,
      "ätsel": 8997,
      "▁glitt": 8998,
      "herzig": 8999,
      "▁gehangen": 9000,
      "ankt": 9001,
      "▁entschl": 9002,
      "▁O,": 9003,
      "▁machen;": 9004,
      "▁wollten.": 9005,
      "brücke": 9006,
      "erkl": 9007,
      "erkt": 9008,
      "af,": 9009,
      "etwillen": 9010,
      "▁Uns": 9011,
      "ängen": 9012,
      "▁Fröh": 9013,
      "▁,,E": 9014,
      "▁,,K": 9015,
      "▁Herrschaften": 9016,
      "▁Vors": 9017,
      "▁Vorschlag": 9018,
      "▁»St": 9019,
      "▁viel,": 9020,
      "digkeit": 9021,
      "▁versetz": 9022,
      "▁versunken": 9023,
      "▁brannte": 9024,
      "▁zwang": 9025,
      "▁Mann.": 9026,
      "▁weißer": 9027,
      "▁weißes": 9028,
      "▁Pforte": 9029,
      "▁Schwäch": 9030,
      "▁Auftrag": 9031,
      "verg": 9032,
      "▁Besprech": 9033,
      "▁unges": 9034,
      "▁Gedanken.": 9035,
      "▁Abwesenheit": 9036,
      "▁weiteres": 9037,
      "▁gemäß": 9038,
      "▁Gelehr": 9039,
      "▁Geschäf": 9040,
      "▁Jahren,": 9041,
      "▁Liebkos": 9042,
      "▁Landstraße": 9043,
      "▁getäusch": 9044,
      "▁Reim": 9045,
      "imp": 9046,
      "▁Duft": 9047,
      "▁ros": 9048,
      "▁»Gn": 9049,
      "▁suchte,": 9050,
      "nüpf": 9051,
      "▁Leid": 9052,
      "▁Stufe": 9053,
      "▁Mode": 9054,
      "▁Worte:": 9055,
      "ritten": 9056,
      "▁schnell,": 9057,
      "wirk": 9058,
      "▁Bauern,": 9059,
      "▁führte,": 9060,
      "▁möglicherweise": 9061,
      "▁Arm,": 9062,
      "▁versucht,": 9063,
      "▁erzählen": 9064,
      "▁Pracht": 9065,
      "▁stellen,": 9066,
      "▁hinge": 9067,
      "▁krampf": 9068,
      "▁Freund,": 9069,
      "willig": 9070,
      "▁jemanden": 9071,
      "▁Leah": 9072,
      "▁»Ob": 9073,
      "▁Brief,": 9074,
      "▁erleich": 9075,
      "▁klarer": 9076,
      "▁paarmal": 9077,
      "▁Ohre": 9078,
      "▁Westen": 9079,
      "üchtige": 9080,
      "▁heftigen": 9081,
      "▁heftete": 9082,
      "▁verwunder": 9083,
      "▁Quasimodo's": 9084,
      "▁vorüber.": 9085,
      "▁brachte.": 9086,
      "▁Teufel,": 9087,
      "▁Schreib": 9088,
      "▁traurige": 9089,
      "▁zitternder": 9090,
      "▁unmöglich.": 9091,
      "▁Archidiaconus,": 9092,
      "ägt,": 9093,
      "▁handeln": 9094,
      "▁schauk": 9095,
      "▁schauder": 9096,
      "▁Theat": 9097,
      "▁Absichten": 9098,
      "▁verschwunden.": 9099,
      "hielt.": 9100,
      "▁sonderbaren": 9101,
      "▁nötig,": 9102,
      "▁sicherlich": 9103,
      "▁verloren.": 9104,
      "▁zerstreut": 9105,
      "▁Thron": 9106,
      "▁bösen": 9107,
      "▁Büchern": 9108,
      "▁darum,": 9109,
      "▁Anstrengungen": 9110,
      "▁Samsa": 9111,
      "▁geistige": 9112,
      "▁Leser,": 9113,
      "▁begegnet": 9114,
      "herrn": 9115,
      "▁Hofe": 9116,
      "▁müßt": 9117,
      "▁Balkon": 9118,
      "▁Untersuchung": 9119,
      "▁französisch": 9120,
      "▁quälte": 9121,
      "▁erinnern": 9122,
      "▁atmete": 9123,
      "▁oberen": 9124,
      "▁Profoß": 9125,
      "▁philosoph": 9126,
      "▁Linien": 9127,
      "önnen": 9128,
      "▁Schülerin": 9129,
      "▁›Nein,": 9130,
      "▁gefällig": 9131,
      "▁Kanzlei": 9132,
      "▁Anschauungen": 9133,
      "▁Donnerst": 9134,
      "▁inne.": 9135,
      "▁verzweif": 9136,
[...]
