{
  "version": "1.0",
  "truncation": null,
  "padding": null,
  "added_tokens": [
    {
      "id": 0,
      "content": "[UNK]",
      "single_word": false,
      "lstrip": false,
      "rstrip": false,
      "normalized": false,
      "special": true
    },
    {
      "id": 1,
      "content": "[EOS]",
      "single_word": false,
      "lstrip": false,
      "rstrip": false,
      "normalized": false,
      "special": true
    },
    {
      "id": 2,
      "content": "[SOS]",
      "single_word": false,
      "lstrip": false,
      "rstrip": false,
      "normalized": false,
      "special": true
    },
    {
      "id": 3,
      "content": "[PAD]",
      "single_word": false,
      "lstrip": false,
      "rstrip": false,
      "normalized": false,
      "special": true
    }
  ],
  "normalizer": null,
  "pre_tokenizer": {
    "type": "Metaspace",
    "replacement": "▁",
    "prepend_scheme": "always",
    "split": true
  },
  "post_processor": null,
  "decoder": null,
  "model": {
    "type": "BPE",
    "dropout": null,
    "unk_token": "[UNK]",
    "continuing_subword_prefix": null,
    "end_of_word_suffix": null,
    "fuse_unk": false,
    "byte_fallback": false,
    "ignore_merges": false,
    "vocab": {
      "[UNK]": 0,
      "[EOS]": 1,
      "[SOS]": 2,
      "[PAD]": 3,
      "!": 4,
      "\"": 5,
      "&": 6,
      "'": 7,
      "(": 8,
      ")": 9,
      "*": 10,
      ",": 11,
      "-": 12,
      ".": 13,
      "/": 14,
      "0": 15,
      "1": 16,
      "2": 17,
      "3": 18,
      "4": 19,
      "5": 20,
      "6": 21,
      "7": 22,
      "8": 23,
      "9": 24,
      ":": 25,
      ";": 26,
      "?": 27,
      "A": 28,
      "B": 29,
      "C": 30,
      "D": 31,
      "E": 32,
      "F": 33,
      "G": 34,
      "H": 35,
      "I": 36,
      "J": 37,
      "K": 38,
      "L": 39,
      "M": 40,
      "N": 41,
      "O": 42,
      "P": 43,
      "Q": 44,
      "R": 45,
      "S": 46,
      "T": 47,
      "U": 48,
      "V": 49,
      "W": 50,
      "X": 51,
      "Y": 52,
      "Z": 53,
      "[": 54,
      "]": 55,
      "_": 56,
      "a": 57,
      "b": 58,
      "c": 59,
      "d": 60,
      "e": 61,
      "f": 62,
      "g": 63,
      "h": 64,
      "i": 65,
      "j": 66,
      "k": 67,
      "l": 68,
      "m": 69,
      "n": 70,
      "o": 71,
      "p": 72,
      "q": 73,
      "r": 74,
      "s": 75,
      "t": 76,
      "u": 77,
      "v": 78,
      "w": 79,
      "x": 80,
      "y": 81,
      "z": 82,
      "{": 83,
      "}": 84,
      "~": 85,
      "«": 86,
      "Ç": 87,
      "È": 88,
      "É": 89,
      "à": 90,
      "â": 91,
      "ã": 92,
      "ä": 93,
      "æ": 94,
      "ç": 95,
      "è": 96,
      "é": 97,
      "ê": 98,
      "ë": 99,
      "ï": 100,
      "ò": 101,
      "ô": 102,
      "ü": 103,
      "Œ": 104,
      "œ": 105,
      "έ": 106,
      "ί": 107,
      "α": 108,
      "β": 109,
      "γ": 110,
      "ε": 111,
      "ι": 112,
      "κ": 113,
      "λ": 114,
      "μ": 115,
      "ν": 116,
      "ο": 117,
      "τ": 118,
      "φ": 119,
      "ϊ": 120,
      "ό": 121,
      "А": 122,
      "Г": 123,
      "Н": 124,
      "–": 125,
      "—": 126,
      "‘": 127,
      "’": 128,
      "“": 129,
      "”": 130,
      "…": 131,
      "−": 132,
      "▁": 133,
      "▁t": 134,
      "he": 135,
      "▁a": 136,
      "in": 137,
      "▁s": 138,
      "▁w": 139,
      "▁the": 140,
      "re": 141,
      "▁o": 142,
      "▁h": 143,
      "nd": 144,
      "ou": 145,
      "ed": 146,
      "▁b": 147,
      "er": 148,
      "it": 149,
      "is": 150,
      "at": 151,
      "▁c": 152,
      "ing": 153,
      "▁m": 154,
      "▁f": 155,
      "▁to": 156,
      "en": 157,
      "▁and": 158,
      "▁he": 159,
      "on": 160,
      "▁d": 161,
      "▁of": 162,
      "▁th": 163,
      "as": 164,
      "ll": 165,
      "es": 166,
      "▁l": 167,
      "or": 168,
      "▁p": 169,
      "an": 170,
      "ar": 171,
      "▁n": 172,
      "▁in": 173,
      "▁ha": 174,
      "om": 175,
      "▁I": 176,
      "le": 177,
      "ot": 178,
      "▁be": 179,
      "▁g": 180,
      "ow": 181,
      "im": 182,
      "id": 183,
      "▁e": 184,
      "ut": 185,
      "▁was": 186,
      "ic": 187,
      "▁y": 188,
      "▁wh": 189,
      "ly": 190,
      "ve": 191,
      "▁that": 192,
      "▁on": 193,
      "ld": 194,
      "se": 195,
      "▁it": 196,
      "st": 197,
      "▁you": 198,
      "▁his": 199,
      "ent": 200,
      "▁re": 201,
      "▁her": 202,
      "▁\"": 203,
      "ith": 204,
      "gh": 205,
      "▁with": 206,
      "ce": 207,
      "et": 208,
      "ver": 209,
      "▁not": 210,
      "▁sa": 211,
      "▁T": 212,
      "▁u": 213,
      "ir": 214,
      "ion": 215,
      "▁had": 216,
      "▁as": 217,
      "▁st": 218,
      "ad": 219,
      "al": 220,
      "ur": 221,
      "▁for": 222,
      "▁r": 223,
      "▁'": 224,
      "▁him": 225,
      "ay": 226,
      "ght": 227,
      "s,": 228,
      "▁at": 229,
      "▁she": 230,
      "ere": 231,
      "ac": 232,
      "oo": 233,
      "ould": 234,
      "▁an": 235,
      "her": 236,
      "e,": 237,
      "▁A": 238,
      "ter": 239,
      "▁is": 240,
      "ain": 241,
      "if": 242,
      "ill": 243,
      "▁se": 244,
      "▁H": 245,
      "am": 246,
      "ch": 247,
      "▁The": 248,
      "'s": 249,
      "ke": 250,
      "▁fr": 251,
      "▁me": 252,
      "▁sh": 253,
      "▁said": 254,
      "ro": 255,
      "all": 256,
      "▁so": 257,
      "▁S": 258,
      "▁but": 259,
      "ich": 260,
      "ight": 261,
      "ore": 262,
      "ess": 263,
      "ct": 264,
      "▁su": 265,
      "▁have": 266,
      "▁all": 267,
      "▁k": 268,
      "pp": 269,
      "▁do": 270,
      "▁M": 271,
      "qu": 272,
      "ri": 273,
      "▁de": 274,
      "▁con": 275,
      "il": 276,
      "▁which": 277,
      "ant": 278,
      "▁my": 279,
      "▁ne": 280,
      "ome": 281,
      "out": 282,
      "us": 283,
      ".\"": 284,
      "y,": 285,
      "ul": 286,
      "and": 287,
      "ble": 288,
      "ard": 289,
      "▁whe": 290,
      "ell": 291,
      "res": 292,
      "lf": 293,
      "▁from": 294,
      "hing": 295,
      "▁ch": 296,
      "▁ex": 297,
      "▁B": 298,
      "▁by": 299,
      "▁who": 300,
      "▁li": 301,
      "very": 302,
      "▁up": 303,
      "pe": 304,
      "▁al": 305,
      "ust": 306,
      "▁this": 307,
      "▁one": 308,
      "▁v": 309,
      "s.": 310,
      "▁they": 311,
      "es,": 312,
      "el": 313,
      "ked": 314,
      "▁were": 315,
      "ag": 316,
      "are": 317,
      "em": 318,
      "▁would": 319,
      "▁ab": 320,
      "▁L": 321,
      "ie": 322,
      "self": 323,
      "▁kn": 324,
      "▁no": 325,
      "our": 326,
      "▁He": 327,
      "ist": 328,
      "ed,": 329,
      "ation": 330,
      "est": 331,
      "ind": 332,
      "itt": 333,
      "ong": 334,
      "os": 335,
      "▁K": 336,
      "--": 337,
      "▁C": 338,
      "▁or": 339,
      "ous": 340,
      "king": 341,
      "▁them": 342,
      "▁j": 343,
      "▁there": 344,
      "▁out": 345,
      "hed": 346,
      "ood": 347,
      "ast": 348,
      "au": 349,
      "▁le": 350,
      "ound": 351,
      "ure": 352,
      "▁W": 353,
      "▁P": 354,
      "art": 355,
      "▁int": 356,
      "'t": 357,
      "▁ar": 358,
      "▁what": 359,
      "ace": 360,
      "un": 361,
      "ort": 362,
      "▁when": 363,
      "ven": 364,
      "e.": 365,
      "▁go": 366,
      "▁qu": 367,
      "▁ag": 368,
      "▁are": 369,
      "▁been": 370,
      "▁man": 371,
      "ol": 372,
      "own": 373,
      "hat": 374,
      "▁could": 375,
      "▁un": 376,
      "ered": 377,
      "um": 378,
      "▁wor": 379,
      "▁loo": 380,
      "▁G": 381,
      "ire": 382,
      "▁more": 383,
      "ough": 384,
      "ig": 385,
      "▁their": 386,
      "▁did": 387,
      "ther": 388,
      "▁fe": 389,
      "▁will": 390,
      "ap": 391,
      "ons": 392,
      "▁com": 393,
      "?\"": 394,
      "ck": 395,
      "ame": 396,
      "ought": 397,
      "▁tr": 398,
      "▁about": 399,
      "nder": 400,
      "▁your": 401,
      "▁if": 402,
      "▁now": 403,
      "▁tim": 404,
      "way": 405,
      "▁br": 406,
      "urn": 407,
      "ose": 408,
      "ite": 409,
      "▁sp": 410,
      "ive": 411,
      "▁O": 412,
      "▁we": 413,
      "ate": 414,
      "ers": 415,
      "op": 416,
      "▁hand": 417,
      "▁am": 418,
      "ang": 419,
      "ack": 420,
      "▁cl": 421,
      "▁then": 422,
      "one": 423,
      "▁any": 424,
      "▁ta": 425,
      "!\"": 426,
      "ove": 427,
      "od": 428,
      "▁im": 429,
      "ress": 430,
      "ep": 431,
      "y.": 432,
      "▁like": 433,
      "▁She": 434,
      "▁very": 435,
      "ing,": 436,
      "ost": 437,
      "bl": 438,
      "▁some": 439,
      "▁af": 440,
      "..": 441,
      "▁pl": 442,
      "▁only": 443,
      "other": 444,
      "▁again": 445,
      "▁know": 446,
      "ass": 447,
      "ile": 448,
      "pt": 449,
      "nt": 450,
      "▁can": 451,
      "ev": 452,
      "ra": 453,
      "ov": 454,
      "▁R": 455,
      "▁too": 456,
      "▁It": 457,
      "▁other": 458,
      ",'": 459,
      ".'": 460,
      "▁D": 461,
      "▁into": 462,
      ",\"": 463,
      "pl": 464,
      "▁\"I": 465,
      "ed.": 466,
      "▁V": 467,
      "▁pro": 468,
      "▁see": 469,
      "▁dis": 470,
      "▁thought": 471,
      "▁over": 472,
      "▁F": 473,
      "▁long": 474,
      "oll": 475,
      "reat": 476,
      "ittle": 477,
      "ence": 478,
      "ance": 479,
      "ide": 480,
      "▁But": 481,
      "ud": 482,
      "▁E": 483,
      "▁tw": 484,
      "▁little": 485,
      "▁gr": 486,
      "▁bl": 487,
      "▁N": 488,
      "▁ad": 489,
      "▁sm": 490,
      "▁even": 491,
      "▁than": 492,
      "▁ey": 493,
      "▁under": 494,
      "fore": 495,
      "ci": 496,
      "▁himself": 497,
      "th": 498,
      "▁off": 499,
      "▁And": 500,
      "ally": 501,
      "ving": 502,
      "?'": 503,
      "ak": 504,
      "cc": 505,
      "▁bec": 506,
      "▁pr": 507,
      "ice": 508,
      "!'": 509,
      "evin": 510,
      "▁every": 511,
      "▁down": 512,
      "▁ro": 513,
      "▁Levin": 514,
      "able": 515,
      "You": 516,
      "▁'I": 517,
      "er,": 518,
      "▁pe": 519,
      "▁beg": 520,
      "ade": 521,
      "ish": 522,
      "on't": 523,
      "▁rem": 524,
      "onsk": 525,
      "▁J": 526,
      "ect": 527,
      "▁should": 528,
      "▁went": 529,
      "ry": 530,
      "▁gl": 531,
      "▁fl": 532,
      "ff": 533,
      "ave": 534,
      "▁co": 535,
      "▁en": 536,
      "ment": 537,
      "air": 538,
      "▁how": 539,
      "ly,": 540,
      "red": 541,
      "▁ma": 542,
      "ity": 543,
      "▁app": 544,
      "▁its": 545,
      "na": 546,
      "▁day": 547,
      "▁seem": 548,
      "ear": 549,
      "▁time": 550,
      "ated": 551,
      "▁po": 552,
      "▁thin": 553,
      "▁say": 554,
      "▁just": 555,
      "ild": 556,
      "▁cont": 557,
      "▁has": 558,
      "ine": 559,
      "ary": 560,
      "▁good": 561,
      "ng": 562,
      "wn": 563,
      "▁before": 564,
      "ward": 565,
      "▁str": 566,
      "ull": 567,
      "ge": 568,
      "ied": 569,
      "▁turn": 570,
      "▁bet": 571,
      "thing": 572,
      "ved": 573,
      "▁back": 574,
      "omet": 575,
      "▁two": 576,
      "uch": 577,
      "▁imp": 578,
      "▁after": 579,
      "▁thr": 580,
      "ful": 581,
      "▁made": 582,
      "▁way": 583,
      "▁fir": 584,
      "ause": 585,
      "▁door": 586,
      "h,": 587,
      "▁still": 588,
      "▁head": 589,
      "▁must": 590,
      "▁K.": 591,
      "act": 592,
      "es.": 593,
      "ab": 594,
      "leas": 595,
      "ree": 596,
      "▁spe": 597,
      "orn": 598,
      "si": 599,
      "▁much": 600,
      "ft": 601,
      "▁want": 602,
      "▁\"W": 603,
      "▁without": 604,
      "ness": 605,
      "▁us": 606,
      "▁des": 607,
      "tain": 608,
      "▁never": 609,
      "elt": 610,
      "hen": 611,
      "▁somet": 612,
      "▁op": 613,
      "read": 614,
      "▁face": 615,
      "▁per": 616,
      "▁come": 617,
      "cl": 618,
      "ount": 619,
      "ach": 620,
      "▁–": 621,
      "▁him,": 622,
      "▁'W": 623,
      "▁thing": 624,
      "iss": 625,
      "ult": 626,
      "ue": 627,
      "▁Th": 628,
      "te": 629,
      "▁cons": 630,
      "▁first": 631,
      "▁pre": 632,
      "ened": 633,
      "ick": 634,
      "▁him.": 635,
      "ried": 636,
      "ious": 637,
      "▁get": 638,
      "▁pass": 639,
      "▁don't": 640,
      "▁An": 641,
      "▁away": 642,
      "ife": 643,
      "▁word": 644,
      "▁felt": 645,
      "oy": 646,
      "▁here": 647,
      "▁cr": 648,
      "anc": 649,
      "▁room": 650,
      "onsky": 651,
      "▁ent": 652,
      "▁where": 653,
      "ing.": 654,
      "▁res": 655,
      "▁came": 656,
      "▁well": 657,
      "▁seemed": 658,
      "per": 659,
      "▁such": 660,
      "▁let": 661,
      "▁old": 662,
      "▁sc": 663,
      "▁asked": 664,
      "me": 665,
      "ne": 666,
      "▁looked": 667,
      "ared": 668,
      "ather": 669,
      "▁it,": 670,
      "oc": 671,
      "▁great": 672,
      "ath": 673,
      "de": 674,
      "ouse": 675,
      "▁think": 676,
      "oment": 677,
      "▁moment": 678,
      "▁kne": 679,
      "ond": 680,
      "age": 681,
      "▁feel": 682,
      "av": 683,
      "▁nothing": 684,
      "ber": 685,
      "we": 686,
      "iff": 687,
      "▁Mr": 688,
      "▁something": 689,
      "▁began": 690,
      "▁love": 691,
      "▁child": 692,
      "▁saw": 693,
      "▁upon": 694,
      "int": 695,
      "▁these": 696,
      "▁it.": 697,
      "ies": 698,
      "▁wom": 699,
      "▁once": 700,
      "▁look": 701,
      "iv": 702,
      "▁sl": 703,
      "▁pos": 704,
      "ished": 705,
      "▁those": 706,
      "▁la": 707,
      "▁through": 708,
      "▁Ch": 709,
      "▁pleas": 710,
      "pect": 711,
      "▁comp": 712,
      "old": 713,
      "▁tal": 714,
      "▁att": 715,
      "ince": 716,
      "ways": 717,
      "▁because": 718,
      "▁\"T": 719,
      "▁last": 720,
      "▁quite": 721,
      "▁ke": 722,
      "arm": 723,
      "▁I'": 724,
      "▁arm": 725,
      "iz": 726,
      "▁Vr": 727,
      "▁acc": 728,
      "ly.": 729,
      "▁part": 730,
      "ople": 731,
      "▁Anna": 732,
      "▁own": 733,
      "▁read": 734,
      "▁cour": 735,
      "▁put": 736,
      "ook": 737,
      "▁happ": 738,
      "▁ser": 739,
      "les": 740,
      "▁\"A": 741,
      "▁wa": 742,
      "▁always": 743,
      "▁underst": 744,
      "▁bel": 745,
      "▁new": 746,
      "▁wind": 747,
      "ition": 748,
      "▁mar": 749,
      "cess": 750,
      "▁while": 751,
      "▁said,": 752,
      "▁people": 753,
      "ise": 754,
      "led": 755,
      "▁took": 756,
      "▁being": 757,
      "▁eyes": 758,
      "owed": 759,
      "▁In": 760,
      "oth": 761,
      "▁make": 762,
      "▁me,": 763,
      "▁might": 764,
      "▁They": 765,
      "▁vo": 766,
      "ting": 767,
      "▁herself": 768,
      "ign": 769,
      "atter": 770,
      "▁rep": 771,
      "▁heard": 772,
      "o,": 773,
      "▁right": 774,
      "▁call": 775,
      "er.": 776,
      "man": 777,
      "ever": 778,
      "here": 779,
      "▁wr": 780,
      "▁rec": 781,
      "▁tell": 782,
      "▁pres": 783,
      "▁dist": 784,
      "▁car": 785,
      "▁te": 786,
      "ock": 787,
      "▁You": 788,
      "▁wat": 789,
      "▁her.": 790,
      "▁'T": 791,
      "ted": 792,
      "ord": 793,
      "▁end": 794,
      "sw": 795,
      "aren": 796,
      "▁left": 797,
      "n't": 798,
      "▁Tom": 799,
      "▁house": 800,
      "▁sat": 801,
      "less": 802,
      "▁heart": 803,
      "ily": 804,
      "ian": 805,
      "ken": 806,
      "ions": 807,
      "uck": 808,
      "▁em": 809,
      "▁same": 810,
      "▁answ": 811,
      "▁shall": 812,
      "▁dr": 813,
      "▁Then": 814,
      "▁knew": 815,
      "▁take": 816,
      "▁sil": 817,
      "irl": 818,
      "▁another": 819,
      "▁round": 820,
      "the": 821,
      "den": 822,
      "▁light": 823,
      "▁ret": 824,
      "ched": 825,
      "ark": 826,
      "▁hor": 827,
      "get": 828,
      "ren": 829,
      "orm": 830,
      "ell,": 831,
      "▁ob": 832,
      "▁There": 833,
      "up": 834,
      "▁night": 835,
      "−−": 836,
      "Yes,": 837,
      "vers": 838,
      "▁Kitt": 839,
      "▁found": 840,
      "▁young": 841,
      "sible": 842,
      "▁yet": 843,
      "ently": 844,
      "▁her,": 845,
      "▁our": 846,
      "ret": 847,
      "▁exp": 848,
      "▁having": 849,
      "en,": 850,
      "s;": 851,
      "ict": 852,
      "ion,": 853,
      "ow,": 854,
      "▁got": 855,
      "▁girl": 856,
      "ither": 857,
      "▁going": 858,
      "oot": 859,
      "az": 860,
      "▁add": 861,
      "▁against": 862,
      "ced": 863,
      "ty": 864,
      "▁Obl": 865,
      "pped": 866,
      "og": 867,
      "ip": 868,
      "mm": 869,
      "rew": 870,
      "▁diff": 871,
      "ised": 872,
      "▁turned": 873,
      "▁toward": 874,
      "aster": 875,
      "▁cle": 876,
      "▁ord": 877,
      "▁ac": 878,
      "ont": 879,
      "▁work": 880,
      "a,": 881,
      "igh": 882,
      "▁che": 883,
      "hy": 884,
      "▁soon": 885,
      "▁(": 886,
      "▁Vronsky": 887,
      "ool": 888,
      "ertain": 889,
      "sk": 890,
      "▁At": 891,
      "aught": 892,
      "ired": 893,
      "ail": 894,
      "▁This": 895,
      "▁three": 896,
      "▁repl": 897,
      "▁understand": 898,
      "ained": 899,
      "▁better": 900,
      "ER": 901,
      "so": 902,
      "▁form": 903,
      "▁Gr": 904,
      "▁foll": 905,
      "iness": 906,
      "ange": 907,
      "hes": 908,
      "▁Mr.": 909,
      "ween": 910,
      "▁everything": 911,
      "▁When": 912,
      "▁anything": 913,
      "▁'A": 914,
      "▁woman": 915,
      "▁mother": 916,
      "▁and,": 917,
      "aint": 918,
      "le,": 919,
      "▁What": 920,
      "ier": 921,
      "▁though": 922,
      "▁rel": 923,
      "iend": 924,
      "▁find": 925,
      "▁beh": 926,
      "▁give": 927,
      "sh": 928,
      "▁mind": 929,
      "▁mean": 930,
      "▁you,": 931,
      "▁between": 932,
      "▁life": 933,
      "▁friend": 934,
      "ix": 935,
      "▁sur": 936,
      "▁inter": 937,
      "...": 938,
      "▁wait": 939,
      "▁hard": 940,
      "ank": 941,
      "▁place": 942,
      "▁point": 943,
      "▁hands": 944,
      "▁contin": 945,
      "arenin": 946,
      "on,": 947,
      "▁looking": 948,
      "ings": 949,
      "▁year": 950,
      "▁Karenin": 951,
      "▁\"N": 952,
      "▁ever": 953,
      "▁conf": 954,
      "▁set": 955,
      "raw": 956,
      "ss": 957,
      "▁lad": 958,
      "▁quest": 959,
      "▁Pr": 960,
      "▁pers": 961,
      "not": 962,
      "▁most": 963,
      "▁alread": 964,
      "▁many": 965,
      "▁may": 966,
      "▁sw": 967,
      "ister": 968,
      "▁fell": 969,
      "▁Al": 970,
      "▁stood": 971,
      "▁\"H": 972,
      "▁whole": 973,
      "ps": 974,
      "inn": 975,
      "▁whom": 976,
      "▁consid": 977,
      "▁return": 978,
      "▁el": 979,
      "ressed": 980,
      "▁cur": 981,
      "▁far": 982,
      "dden": 983,
      "▁both": 984,
      "▁pain": 985,
      "▁sec": 986,
      "oud": 987,
      "▁pri": 988,
      "arly": 989,
      "▁smile": 990,
      "iet": 991,
      "▁each": 992,
      "ody": 993,
      "ial": 994,
      "▁already": 995,
      "▁brother": 996,
      "▁law": 997,
      "ho": 998,
      "▁seen": 999,
      "▁half": 1000,
      "▁ref": 1001,
      "aut": 1002,
      "ating": 1003,
      "▁list": 1004,
      "▁hus": 1005,
      "ion.": 1006,
      "▁belie": 1007,
      "ual": 1008,
      "▁told": 1009,
      "ess,": 1010,
      "▁dou": 1011,
      "▁stre": 1012,
      "▁matter": 1013,
      "room": 1014,
      "ying": 1015,
      "▁hel": 1016,
      "▁sub": 1017,
      "▁window": 1018,
      "▁Kitty": 1019,
      "▁bus": 1020,
      "owing": 1021,
      "▁open": 1022,
      "But": 1023,
      "▁full": 1024,
      "▁sudden": 1025,
      "ru": 1026,
      "▁inst": 1027,
      "▁ev": 1028,
      "▁act": 1029,
      "▁gi": 1030,
      "▁\"O": 1031,
      "▁certain": 1032,
      "▁del": 1033,
      "▁tre": 1034,
      "▁inf": 1035,
      "app": 1036,
      "ity,": 1037,
      "ject": 1038,
      "▁also": 1039,
      "ined": 1040,
      "▁hear": 1041,
      "▁cap": 1042,
      "ster": 1043,
      "▁rest": 1044,
      "▁wal": 1045,
      "▁fin": 1046,
      "ung": 1047,
      "sel": 1048,
      "▁things": 1049,
      "▁continu": 1050,
      "or,": 1051,
      "ice,": 1052,
      "ached": 1053,
      "▁supp": 1054,
      "oved": 1055,
      "band": 1056,
      "ower": 1057,
      "▁reg": 1058,
      "▁kind": 1059,
      "used": 1060,
      "ten": 1061,
      "▁suff": 1062,
      "most": 1063,
      "▁care": 1064,
      "▁count": 1065,
      "▁does": 1066,
      "▁husband": 1067,
      "day": 1068,
      "▁\"You": 1069,
      "arn": 1070,
      "▁That": 1071,
      "HA": 1072,
      "▁myself": 1073,
      "▁Doll": 1074,
      "TER": 1075,
      "xt": 1076,
      "▁morn": 1077,
      "▁gave": 1078,
      "ug": 1079,
      "▁gent": 1080,
      "ross": 1081,
      "▁help": 1082,
      "aking": 1083,
      "▁aff": 1084,
      "▁eff": 1085,
      "▁need": 1086,
      "▁adv": 1087,
      "▁lar": 1088,
      "▁lif": 1089,
      "ations": 1090,
      "▁\"S": 1091,
      "▁speak": 1092,
      "▁es": 1093,
      "se,": 1094,
      "'ll": 1095,
      "ves": 1096,
      "eared": 1097,
      "ens": 1098,
      "▁gu": 1099,
      "▁called": 1100,
      "ling": 1101,
      "▁hour": 1102,
      "▁them,": 1103,
      "▁comm": 1104,
      "▁hum": 1105,
      "▁ind": 1106,
      "▁So": 1107,
      "ple": 1108,
      "▁remem": 1109,
      "▁replied": 1110,
      "▁men": 1111,
      "▁keep": 1112,
      "▁occ": 1113,
      "cept": 1114,
      "▁His": 1115,
      "▁them.": 1116,
      "▁disc": 1117,
      "ent,": 1118,
      "▁dec": 1119,
      "▁wanted": 1120,
      "▁vis": 1121,
      "▁aw": 1122,
      "▁few": 1123,
      "leep": 1124,
      "▁rose": 1125,
      "▁me.": 1126,
      "▁ho": 1127,
      "▁min": 1128,
      "▁On": 1129,
      "ase": 1130,
      "▁step": 1131,
      "ation,": 1132,
      "▁mon": 1133,
      "▁lau": 1134,
      "▁CHA": 1135,
      "▁words": 1136,
      "▁it's": 1137,
      "▁table": 1138,
      "▁nor": 1139,
      "▁voice": 1140,
      "▁ter": 1141,
      "▁sou": 1142,
      "▁cannot": 1143,
      "PTER": 1144,
      "▁Jo": 1145,
      "▁CHAPTER": 1146,
      "ering": 1147,
      "▁ins": 1148,
      "▁wish": 1149,
      "▁Miss": 1150,
      "▁behind": 1151,
      "▁bro": 1152,
      "▁fam": 1153,
      "▁'O": 1154,
      "full": 1155,
      "▁bre": 1156,
      "▁done": 1157,
      "▁ra": 1158,
      "ers,": 1159,
      "▁\"M": 1160,
      "▁St": 1161,
      "▁spo": 1162,
      "▁talk": 1163,
      "irect": 1164,
      "▁black": 1165,
      "und": 1166,
      "▁ir": 1167,
      "erest": 1168,
      "▁sort": 1169,
      "▁inv": 1170,
      "ention": 1171,
      "▁def": 1172,
      "▁Oblonsky": 1173,
      "hap": 1174,
      "▁hold": 1175,
      "ured": 1176,
      "▁arch": 1177,
      "▁God": 1178,
      "▁stand": 1179,
      "▁pa": 1180,
      "▁almost": 1181,
      "osed": 1182,
      "▁imm": 1183,
      "▁cal": 1184,
      "bt": 1185,
      "ory": 1186,
      "▁expect": 1187,
      "▁longer": 1188,
      "▁\"What": 1189,
      "ieur": 1190,
      "ure,": 1191,
      "row": 1192,
      "▁sir": 1193,
      "▁sch": 1194,
      "▁wall": 1195,
      "▁bo": 1196,
      "▁Q": 1197,
      "▁bed": 1198,
      "▁since": 1199,
      "aris": 1200,
      "pr": 1201,
      "▁draw": 1202,
      "▁beaut": 1203,
      "ical": 1204,
      "▁'N": 1205,
      "▁enough": 1206,
      "▁serv": 1207,
      "ys": 1208,
      "-b": 1209,
      "▁sim": 1210,
      "▁sent": 1211,
      "▁air": 1212,
      "▁sto": 1213,
      "▁forg": 1214,
      "▁'H": 1215,
      "▁interest": 1216,
      "▁then,": 1217,
      "gether": 1218,
      "▁side": 1219,
      "▁wife": 1220,
      "▁ang": 1221,
      "▁smil": 1222,
      "▁passed": 1223,
      "▁children": 1224,
      "urch": 1225,
      "▁How": 1226,
      "bb": 1227,
      "▁ide": 1228,
      "▁sister": 1229,
      "▁direct": 1230,
      "▁dark": 1231,
      "▁nat": 1232,
      "▁ass": 1233,
      "▁gentle": 1234,
      "ener": 1235,
      "ream": 1236,
      "ene": 1237,
      "oche": 1238,
      "▁feeling": 1239,
      "▁Char": 1240,
      "▁really": 1241,
      "▁present": 1242,
      "icult": 1243,
      "▁Roche": 1244,
      "▁poor": 1245,
      "end": 1246,
      "▁sk": 1247,
      "et,": 1248,
      "▁sound": 1249,
      "▁less": 1250,
      "ield": 1251,
      "▁fall": 1252,
      "ash": 1253,
      "▁white": 1254,
      "onsieur": 1255,
      "▁home": 1256,
      "▁taken": 1257,
      "▁Emm": 1258,
      "reg": 1259,
      "▁hur": 1260,
      "▁that,": 1261,
      "ately": 1262,
      "▁small": 1263,
      "ense": 1264,
      "▁near": 1265,
      "▁book": 1266,
      "▁father": 1267,
      "edi": 1268,
      "▁foot": 1269,
      "▁lay": 1270,
      "▁As": 1271,
      "▁whose": 1272,
      "fort": 1273,
      "▁cond": 1274,
      "▁brought": 1275,
      "▁appro": 1276,
      "▁express": 1277,
      "▁suddenly": 1278,
      "ged": 1279,
      "one,": 1280,
      "▁front": 1281,
      "▁order": 1282,
      "'re": 1283,
      "▁ill": 1284,
      "ason": 1285,
      "▁along": 1286,
      "▁bes": 1287,
      "lect": 1288,
      "▁convers": 1289,
      "ular": 1290,
      "h!": 1291,
      "ible": 1292,
      "▁boy": 1293,
      "▁world": 1294,
      "▁ca": 1295,
      "▁why": 1296,
      "amp": 1297,
      "▁ste": 1298,
      "▁expl": 1299,
      "▁leave": 1300,
      "▁large": 1301,
      "tered": 1302,
      "▁cat": 1303,
      "▁inc": 1304,
      "▁priest": 1305,
      "ided": 1306,
      "▁cold": 1307,
      "▁hair": 1308,
      "▁All": 1309,
      "ushed": 1310,
      "▁answered": 1311,
      "▁question": 1312,
      "but": 1313,
      "ief": 1314,
      "over": 1315,
      "▁tri": 1316,
      "▁tried": 1317,
      "▁fact": 1318,
      "▁repe": 1319,
      "ingo": 1320,
      "▁'Yes,": 1321,
      "▁next": 1322,
      "▁soul": 1323,
      "▁_": 1324,
      "▁If": 1325,
      "▁whether": 1326,
      "▁together": 1327,
      "▁Mrs.": 1328,
      "▁mid": 1329,
      "vel": 1330,
      "ence,": 1331,
      "ing-": 1332,
      "▁doubt": 1333,
      "ek": 1334,
      "ink": 1335,
      "oun": 1336,
      "cei": 1337,
      "▁Mad": 1338,
      "ern": 1339,
      "▁above": 1340,
      "▁now,": 1341,
      "▁opp": 1342,
      "ird": 1343,
      "ingoire": 1344,
      "ures": 1345,
      "▁ed": 1346,
      "lex": 1347,
      "▁quick": 1348,
      "▁Gringoire": 1349,
      "ec": 1350,
      "▁Jan": 1351,
      "▁jud": 1352,
      "li": 1353,
      "▁X": 1354,
      "▁master": 1355,
      "▁jo": 1356,
      "▁can't": 1357,
      "▁believe": 1358,
      "▁sun": 1359,
      "body": 1360,
      "▁ear": 1361,
      "ance,": 1362,
      "▁Y": 1363,
      "let": 1364,
      "▁\"D": 1365,
      "▁char": 1366,
      "▁Prin": 1367,
      "▁offic": 1368,
      "▁tear": 1369,
      "hev": 1370,
      "▁tor": 1371,
      "▁start": 1372,
      "▁rather": 1373,
      "▁quiet": 1374,
      "ably": 1375,
      "▁eas": 1376,
      "▁Not": 1377,
      "aw": 1378,
      "aim": 1379,
      "▁move": 1380,
      "▁desp": 1381,
      "▁themsel": 1382,
      "...'": 1383,
      "▁dev": 1384,
      "▁Paris": 1385,
      "▁low": 1386,
      "▁sure": 1387,
      "▁live": 1388,
      "▁high": 1389,
      "▁fire": 1390,
      "ation.": 1391,
      "▁art": 1392,
      "▁close": 1393,
      "▁appeared": 1394,
      "▁real": 1395,
      "▁notic": 1396,
      "uring": 1397,
      "▁'You": 1398,
      "▁necess": 1399,
      "▁lawy": 1400,
      "▁Emma": 1401,
      "▁fore": 1402,
      "ows": 1403,
      "▁red": 1404,
      "▁least": 1405,
      "▁possible": 1406,
      "oz": 1407,
      "▁best": 1408,
      "aced": 1409,
      "eb": 1410,
      "▁met": 1411,
      "ors": 1412,
      "▁fear": 1413,
      "▁time,": 1414,
      "cially": 1415,
      "to": 1416,
      "uc": 1417,
      "▁fa": 1418,
      "ching": 1419,
      "▁Fr": 1420,
      "▁became": 1421,
      "▁import": 1422,
      "ever,": 1423,
      "▁person": 1424,
      "unt": 1425,
      "▁court": 1426,
      "▁difficult": 1427,
      "ies,": 1428,
      "ph": 1429,
      "▁listen": 1430,
      "▁ask": 1431,
      "▁'What": 1432,
      "haps": 1433,
      "▁-": 1434,
      "▁pur": 1435,
      "▁gre": 1436,
      "▁around": 1437,
      "fully": 1438,
      "▁short": 1439,
      "▁fur": 1440,
      "▁unc": 1441,
      "▁towards": 1442,
      "ught": 1443,
      "▁lost": 1444,
      "ents": 1445,
      "▁business": 1446,
      "▁ext": 1447,
      "▁inde": 1448,
      "al,": 1449,
      "▁We": 1450,
      "▁Qu": 1451,
      "▁mer": 1452,
      "overed": 1453,
      "▁letter": 1454,
      "▁bad": 1455,
      "erent": 1456,
      "▁church": 1457,
      "▁till": 1458,
      "▁sit": 1459,
      "▁among": 1460,
      "onsky,": 1461,
      "▁course": 1462,
      "▁often": 1463,
      "▁sing": 1464,
      "▁wished": 1465,
      "ited": 1466,
      "▁mist": 1467,
      "▁stay": 1468,
      "iver": 1469,
      "▁fine": 1470,
      "▁gener": 1471,
      "▁run": 1472,
      "▁adm": 1473,
      "▁position": 1474,
      "▁I'll": 1475,
      "▁bit": 1476,
      "ans": 1477,
      "iful": 1478,
      "▁entered": 1479,
      "men": 1480,
      "▁'But": 1481,
      "▁Greg": 1482,
      "▁trou": 1483,
      "▁four": 1484,
      "▁lat": 1485,
      "▁bell": 1486,
      "▁exc": 1487,
      "▁Dolly": 1488,
      "▁minut": 1489,
      "itting": 1490,
      "▁\"And": 1491,
      "▁else": 1492,
      "▁given": 1493,
      "▁name": 1494,
      "▁either": 1495,
      "▁taking": 1496,
      "▁Madame": 1497,
      "▁sign": 1498,
      "▁laugh": 1499,
      "▁breat": 1500,
      "▁ph": 1501,
      "▁bene": 1502,
      "▁gaz": 1503,
      "ific": 1504,
      "▁play": 1505,
      "▁remained": 1506,
      "sky": 1507,
      "tle": 1508,
      "▁use": 1509,
      "▁ru": 1510,
      "anged": 1511,
      "▁opened": 1512,
      "▁morning": 1513,
      "ka": 1514,
      "▁deep": 1515,
      "ary,": 1516,
      "▁I'm": 1517,
      "ized": 1518,
      "▁acqu": 1519,
      "▁school": 1520,
      "▁able": 1521,
      "ceed": 1522,
      "ousand": 1523,
      "▁One": 1524,
      "▁Rochester": 1525,
      "ake": 1526,
      "ract": 1527,
      "▁cir": 1528,
      "▁pat": 1529,
      "▁meet": 1530,
      "at,": 1531,
      "▁mone": 1532,
      "▁held": 1533,
      "▁impos": 1534,
      "▁det": 1535,
      "▁dro": 1536,
      "▁doct": 1537,
      "▁Le": 1538,
      "▁bur": 1539,
      "▁thousand": 1540,
      "▁dep": 1541,
      "▁leg": 1542,
      "▁corn": 1543,
      "▁dress": 1544,
      "▁excl": 1545,
      "▁yourself": 1546,
      "-c": 1547,
      "ais": 1548,
      "pecially": 1549,
      "▁\"It": 1550,
      "▁Charles": 1551,
      "▁Gregor": 1552,
      "▁bu": 1553,
      "▁ran": 1554,
      "illed": 1555,
      "▁kept": 1556,
      "rupt": 1557,
      "in,": 1558,
      "owd": 1559,
      "▁arri": 1560,
      "▁turning": 1561,
      "▁hope": 1562,
      "▁Princess": 1563,
      "ser": 1564,
      "▁sleep": 1565,
      "aring": 1566,
      "ets": 1567,
      "▁joy": 1568,
      "▁making": 1569,
      "▁'Well,": 1570,
      "▁stud": 1571,
      "▁alone": 1572,
      "▁Cl": 1573,
      "▁become": 1574,
      "bit": 1575,
      "ome,": 1576,
      "▁Monsieur": 1577,
      "▁abs": 1578,
      "aving": 1579,
      "ner": 1580,
      "▁ought": 1581,
      "▁dream": 1582,
      "ceived": 1583,
      "irit": 1584,
      "▁strange": 1585,
      "▁itself": 1586,
      "▁man,": 1587,
      "▁glad": 1588,
      "▁Be": 1589,
      "▁talking": 1590,
      "▁continued": 1591,
      "that": 1592,
      "▁fing": 1593,
      "enc": 1594,
      "▁Pet": 1595,
      "bled": 1596,
      "▁surpr": 1597,
      "▁calm": 1598,
      "▁land": 1599,
      "▁on,": 1600,
      "▁consider": 1601,
      "▁sn": 1602,
      "▁women": 1603,
      "▁Huck": 1604,
      "▁imag": 1605,
      "onder": 1606,
      "▁evening": 1607,
      "▁especially": 1608,
      "▁you.": 1609,
      "▁followed": 1610,
      "oor": 1611,
      "ous,": 1612,
      "ity.": 1613,
      "▁kiss": 1614,
      "ants": 1615,
      "▁No": 1616,
      "▁evid": 1617,
      "ates": 1618,
      "▁mis": 1619,
      "▁hand,": 1620,
      "▁again,": 1621,
      "▁Alice": 1622,
      "br": 1623,
      "du": 1624,
      "gr": 1625,
      "▁cand": 1626,
      "▁gone": 1627,
      "▁whis": 1628,
      "fter": 1629,
      "▁pict": 1630,
      "▁Alex": 1631,
      "ush": 1632,
      "▁appear": 1633,
      "ame,": 1634,
      "▁'It": 1635,
      "▁cross": 1636,
      "▁\"C": 1637,
      "rov": 1638,
      "▁king": 1639,
      "▁second": 1640,
      "▁impossible": 1641,
      "ois": 1642,
      "▁swe": 1643,
      "▁hall": 1644,
      "▁himself,": 1645,
      "▁prom": 1646,
      "▁peas": 1647,
      "ually": 1648,
      "▁spirit": 1649,
      "▁K.,": 1650,
      "ate,": 1651,
      "asim": 1652,
      "▁that's": 1653,
      "▁mem": 1654,
      "▁all,": 1655,
      "▁ve": 1656,
      "imes": 1657,
      "resh": 1658,
      "▁coming": 1659,
      "▁For": 1660,
      "▁thinking": 1661,
      "▁circ": 1662,
      "asimod": 1663,
      "lov": 1664,
      "use": 1665,
      "▁mad": 1666,
      "▁shout": 1667,
      "peri": 1668,
      "▁won't": 1669,
      "▁was,": 1670,
      "ent.": 1671,
      "▁stra": 1672,
      "▁Her": 1673,
      "▁Levin,": 1674,
      "▁power": 1675,
      "iew": 1676,
      "▁slow": 1677,
      "▁hardly": 1678,
      "nys": 1679,
      "▁wood": 1680,
      "▁to-": 1681,
      "▁daught": 1682,
      "ice.": 1683,
      "oof": 1684,
      "▁Koz": 1685,
      "▁Quasimod": 1686,
      "nyshev": 1687,
      "▁Koznyshev": 1688,
      "nded": 1689,
      "ar,": 1690,
      "▁said.": 1691,
      "ped": 1692,
      "▁\"Yes,": 1693,
      "▁dead": 1694,
      "▁pleasure": 1695,
      "▁idea": 1696,
      "bed": 1697,
      "ising": 1698,
      "▁reason": 1699,
      "though": 1700,
      "▁immedi": 1701,
      "▁beautiful": 1702,
      "▁sor": 1703,
      "▁sid": 1704,
      "isf": 1705,
      "▁dri": 1706,
      "▁reached": 1707,
      "▁'S": 1708,
      "▁chair": 1709,
      "▁up,": 1710,
      "▁returned": 1711,
      "▁six": 1712,
      "▁ce": 1713,
      "▁there,": 1714,
      "▁perf": 1715,
      "▁crowd": 1716,
      "▁visit": 1717,
      "▁stopped": 1718,
      "▁pu": 1719,
      "▁gy": 1720,
      "irt": 1721,
      "-f": 1722,
      "▁tou": 1723,
      "aces": 1724,
      "ili": 1725,
      "▁ground": 1726,
      "ery": 1727,
      "▁eye": 1728,
      "▁eyes,": 1729,
      "ogn": 1730,
      "▁years": 1731,
      "'ve": 1732,
      "-l": 1733,
      "▁ut": 1734,
      "▁dinn": 1735,
      "rible": 1736,
      "▁exclaim": 1737,
      "II": 1738,
      "on.": 1739,
      "▁Saint": 1740,
      "▁feet": 1741,
      "▁straight": 1742,
      "ik": 1743,
      "▁exam": 1744,
      "▁compan": 1745,
      "▁answer": 1746,
      "hn": 1747,
      "nding": 1748,
      "▁cor": 1749,
      "▁nur": 1750,
      "us,": 1751,
      "head": 1752,
      "▁say,": 1753,
      "tern": 1754,
      "▁sight": 1755,
      "▁themselves": 1756,
      "HE": 1757,
      "be": 1758,
      "where": 1759,
      "▁cried": 1760,
      "▁beneath": 1761,
      "▁hung": 1762,
      "▁Mar": 1763,
      "▁charm": 1764,
      "age,": 1765,
      "▁carri": 1766,
      "▁break": 1767,
      "▁spr": 1768,
      "▁used": 1769,
      "▁arms": 1770,
      "ef": 1771,
      "▁mo": 1772,
      "▁he,": 1773,
      "▁thus": 1774,
      "empt": 1775,
      "ence.": 1776,
      "▁glanc": 1777,
      "▁John": 1778,
      "raid": 1779,
      "▁disp": 1780,
      "▁saying": 1781,
      "less,": 1782,
      "▁noticed": 1783,
      "rist": 1784,
      "▁Je": 1785,
      "dle": 1786,
      "▁sy": 1787,
      "itud": 1788,
      "▁mout": 1789,
      "es;": 1790,
      "▁pol": 1791,
      "▁death": 1792,
      "▁again.": 1793,
      "▁others": 1794,
      "▁speaking": 1795,
      "▁understood": 1796,
      "▁different": 1797,
      "▁\"Oh,": 1798,
      "cher": 1799,
      "▁past": 1800,
      "you": 1801,
      "▁gall": 1802,
      "▁face,": 1803,
      "▁room,": 1804,
      "k,": 1805,
      "ining": 1806,
      "▁respect": 1807,
      "▁\"The": 1808,
      "▁water": 1809,
      "▁conversation": 1810,
      "ax": 1811,
      "ror": 1812,
      "▁hon": 1813,
      "▁To": 1814,
      "▁fort": 1815,
      "▁sol": 1816,
      "▁days": 1817,
      "ugg": 1818,
      "▁effort": 1819,
      "▁necessary": 1820,
      "hile": 1821,
      "ry,": 1822,
      "▁forget": 1823,
      "▁Bov": 1824,
      "▁afraid": 1825,
      "▁human": 1826,
      "'d": 1827,
      "▁fig": 1828,
      "▁Count": 1829,
      "deac": 1830,
      "hoeb": 1831,
      "),": 1832,
      "rit": 1833,
      "▁bot": 1834,
      "ural": 1835,
      "▁disapp": 1836,
      "▁strong": 1837,
      "▁getting": 1838,
      "▁clear": 1839,
      "▁squ": 1840,
      "▁fre": 1841,
      "ute": 1842,
      "cious": 1843,
      "-t": 1844,
      "ant,": 1845,
      "▁prof": 1846,
      "▁div": 1847,
      "ars": 1848,
      "▁\"L": 1849,
      "▁prep": 1850,
      "▁'And": 1851,
      "▁remember": 1852,
      "uth": 1853,
      "--I": 1854,
      "▁learn": 1855,
      "▁prov": 1856,
      "▁opin": 1857,
      "-h": 1858,
      "ient": 1859,
      "▁hat": 1860,
      "ub": 1861,
      "▁shad": 1862,
      "▁bring": 1863,
      "▁subject": 1864,
      "▁est": 1865,
      "▁pap": 1866,
      "▁perhaps": 1867,
      "▁moved": 1868,
      "▁tow": 1869,
      "iously": 1870,
      "▁archdeac": 1871,
      "bered": 1872,
      "▁lab": 1873,
      "▁After": 1874,
      "▁summ": 1875,
      "▁recogn": 1876,
      "ness,": 1877,
      "▁cent": 1878,
      "enty": 1879,
      "▁'D": 1880,
      "▁trying": 1881,
      "▁door,": 1882,
      "inning": 1883,
      "cul": 1884,
      "arr": 1885,
      "▁stair": 1886,
      "▁soft": 1887,
      "▁My": 1888,
      "▁cler": 1889,
      "▁Now": 1890,
      "▁day,": 1891,
      "▁waiting": 1892,
      "ia": 1893,
      "ib": 1894,
      "▁town": 1895,
      "eren": 1896,
      "▁fright": 1897,
      "▁dem": 1898,
      "▁conv": 1899,
      "▁Re": 1900,
      "▁considered": 1901,
      "▁raised": 1902,
      "undred": 1903,
      "▁this,": 1904,
      "▁contr": 1905,
      "▁occup": 1906,
      "▁spoke": 1907,
      "▁forgot": 1908,
      "▁gyps": 1909,
      "y;": 1910,
      "▁coll": 1911,
      "eng": 1912,
      "▁pie": 1913,
      "▁port": 1914,
      "▁\"B": 1915,
      "▁sad": 1916,
      "▁rid": 1917,
      "vi": 1918,
      "▁ap": 1919,
      "ishing": 1920,
      "▁cas": 1921,
      "▁lo": 1922,
      "stant": 1923,
      "alth": 1924,
      "▁conc": 1925,
      "▁neck": 1926,
      "▁out,": 1927,
      "▁prev": 1928,
      "▁trem": 1929,
      "ing-room": 1930,
      "▁movement": 1931,
      "▁ten": 1932,
      "▁sitting": 1933,
      "▁one,": 1934,
      "▁view": 1935,
      "▁arr": 1936,
      "▁usual": 1937,
      "▁lawyer": 1938,
      "-p": 1939,
      "▁hundred": 1940,
      "▁drew": 1941,
      "▁vag": 1942,
      "ressing": 1943,
      "ah": 1944,
      "▁gra": 1945,
      "ented": 1946,
      "ement": 1947,
      "▁Phoeb": 1948,
      "anger": 1949,
      "▁eyes.": 1950,
      "▁remain": 1951,
      "▁'The": 1952,
      "ning": 1953,
      "uff": 1954,
      "▁wif": 1955,
      "▁inqu": 1956,
      "ote": 1957,
      "▁\"Y": 1958,
      "▁dear": 1959,
      "--and": 1960,
      "▁gold": 1961,
      "▁thought,": 1962,
      "▁Jane": 1963,
      "▁him;": 1964,
      "▁show": 1965,
      "▁unt": 1966,
      "▁standing": 1967,
      "▁mere": 1968,
      "▁times": 1969,
      "▁struck": 1970,
      "▁\"That": 1971,
      "▁certainly": 1972,
      "▁doctor": 1973,
      "ine,": 1974,
      "ert": 1975,
      "▁par": 1976,
      "ngl": 1977,
      "▁Quasimodo": 1978,
      "hy,": 1979,
      "▁fix": 1980,
      "▁Ag": 1981,
      "▁doing": 1982,
      "▁exist": 1983,
      "itted": 1984,
      "▁prin": 1985,
      "▁pret": 1986,
      "▁I've": 1987,
      "▁expression": 1988,
      "▁liked": 1989,
      "▁therefore": 1990,
      "▁time.": 1991,
      "bles": 1992,
      "▁prop": 1993,
      "ciet": 1994,
      "▁immediately": 1995,
      "▁\"G": 1996,
      "▁living": 1997,
      "--w": 1998,
      "▁prince": 1999,
      "▁comple": 2000,
      "▁obser": 2001,
      "▁'Oh,": 2002,
      "▁quickly": 2003,
      "omp": 2004,
      "▁state": 2005,
      "▁Mary": 2006,
      "▁Engl": 2007,
      "▁col": 2008,
      "▁mus": 2009,
      "▁during": 2010,
      "▁it;": 2011,
      "▁neither": 2012,
      "ace,": 2013,
      "▁money": 2014,
      "ape": 2015,
      "▁hop": 2016,
      "one.": 2017,
      "▁said:": 2018,
      "▁vi": 2019,
      "▁bright": 2020,
      "▁prob": 2021,
      "▁\"Well,": 2022,
      "▁month": 2023,
      "aven": 2024,
      "▁cut": 2025,
      "▁rap": 2026,
      "▁sever": 2027,
      "amed": 2028,
      "▁change": 2029,
      "ection": 2030,
      "▁entire": 2031,
      "▁slight": 2032,
      "▁horse": 2033,
      "▁added": 2034,
      "cri": 2035,
      "vo": 2036,
      "▁burn": 2037,
      "▁within": 2038,
      "ter,": 2039,
      "▁Do": 2040,
      "▁affair": 2041,
      "▁trouble": 2042,
      "IN": 2043,
      "▁grew": 2044,
      "▁week": 2045,
      "▁partic": 2046,
      "night": 2047,
      "oom": 2048,
      "▁U": 2049,
      "▁gard": 2050,
      "▁is,": 2051,
      "▁although": 2052,
      "▁head,": 2053,
      "▁'No,": 2054,
      "han": 2055,
      "ke,": 2056,
      "▁\"But": 2057,
      "▁Mos": 2058,
      "arent": 2059,
      "▁however,": 2060,
      "▁ready": 2061,
      "▁emb": 2062,
      "af": 2063,
      "▁~": 2064,
      "eni": 2065,
      "▁THE": 2066,
      "pping": 2067,
      "▁family": 2068,
      "▁beside": 2069,
      "sess": 2070,
      "ue,": 2071,
      "▁wonder": 2072,
      "▁super": 2073,
      "ility": 2074,
      "--\"": 2075,
      "▁quar": 2076,
      "umed": 2077,
      "▁thoughts": 2078,
      "▁himself.": 2079,
      "▁walked": 2080,
      "▁remembered": 2081,
      "▁hast": 2082,
      "oured": 2083,
      "▁Hom": 2084,
      "▁except": 2085,
      "▁lead": 2086,
      "ance.": 2087,
      "▁beginning": 2088,
      "rying": 2089,
      "rench": 2090,
      "retched": 2091,
      "▁charac": 2092,
      "▁evidently": 2093,
      "▁son": 2094,
      "▁mat": 2095,
      "▁heav": 2096,
      "otion": 2097,
      "▁sometimes": 2098,
      "▁attention": 2099,
      "▁important": 2100,
      "phe": 2101,
      "val": 2102,
      "▁fast": 2103,
      "▁With": 2104,
      "▁French": 2105,
      "▁Prince": 2106,
      "▁pay": 2107,
      "▁pill": 2108,
      "ides,": 2109,
      "▁meant": 2110,
      "ilt": 2111,
      "▁une": 2112,
      "▁interrupt": 2113,
      "▁repeated": 2114,
      "▁so,": 2115,
      "▁succ": 2116,
      "▁smo": 2117,
      "▁pray": 2118,
      "▁steps": 2119,
      "ging": 2120,
      "van": 2121,
      "▁big": 2122,
      "▁experi": 2123,
      "pend": 2124,
      "▁spread": 2125,
      "▁Rus": 2126,
      "akes": 2127,
      "▁hors": 2128,
      "▁obl": 2129,
      "▁five": 2130,
      "ution": 2131,
      "▁\"P": 2132,
      "▁way,": 2133,
      "▁voice,": 2134,
      "▁tender": 2135,
      "▁fellow": 2136,
      "▁streng": 2137,
      "erv": 2138,
      "▁eart": 2139,
      "▁Every": 2140,
      "cial": 2141,
      "▁Mosc": 2142,
      "ead": 2143,
      "▁case": 2144,
      "▁loved": 2145,
      "▁room.": 2146,
      "▁happy": 2147,
      "▁marri": 2148,
      "▁lady": 2149,
      "▁mouth": 2150,
      "▁fresh": 2151,
      "▁loud": 2152,
      "str": 2153,
      "onsky.": 2154,
      "▁happen": 2155,
      "▁satisf": 2156,
      "▁finished": 2157,
      "-s": 2158,
      "bur": 2159,
      "ches": 2160,
      "▁wild": 2161,
      "▁mur": 2162,
      "▁Ivan": 2163,
      "▁vill": 2164,
      "▁wrong": 2165,
      "▁life,": 2166,
      "che": 2167,
      "ee": 2168,
      "ha": 2169,
      "▁tem": 2170,
      "▁bar": 2171,
      "oving": 2172,
      "▁happened": 2173,
      "▁\"No": 2174,
      "▁'How": 2175,
      "▁sweet": 2176,
      "▁Saint−": 2177,
      "uous": 2178,
      "▁ver": 2179,
      "▁filled": 2180,
      "ased": 2181,
      "▁ele": 2182,
      "▁yes": 2183,
      "▁dog": 2184,
      "▁watch": 2185,
      "▁Homais": 2186,
      "▁o'": 2187,
      "▁habit": 2188,
      "▁forward": 2189,
      "▁deal": 2190,
      "▁which,": 2191,
      "bling": 2192,
      "▁terrible": 2193,
      "▁Clau": 2194,
      "▁complete": 2195,
      "▁Russi": 2196,
      "les,": 2197,
      "▁body": 2198,
      "▁covered": 2199,
      "▁sold": 2200,
      "ored": 2201,
      "ure.": 2202,
      "▁try": 2203,
      "▁face.": 2204,
      "▁possess": 2205,
      "▁account": 2206,
      "▁effect": 2207,
      "uss": 2208,
      "ump": 2209,
      "▁condition": 2210,
      "▁Jehan": 2211,
      "▁several": 2212,
      "for": 2213,
      "▁wort": 2214,
      "▁hang": 2215,
      "ed;": 2216,
      "ally,": 2217,
      "▁chief": 2218,
      "▁lips": 2219,
      "▁Varen": 2220,
      "▁seeing": 2221,
      "ux": 2222,
      "▁cri": 2223,
      "lem": 2224,
      "▁shut": 2225,
      "▁closed": 2226,
      "▁desire": 2227,
      "▁moment,": 2228,
      "▁former": 2229,
      "▁follow": 2230,
      "▁captain": 2231,
      "▁broken": 2232,
      "-m": 2233,
      "ks": 2234,
      "▁mag": 2235,
      "▁dread": 2236,
      "▁roof": 2237,
      "▁weak": 2238,
      "ocked": 2239,
      "▁writ": 2240,
      "gg": 2241,
      "su": 2242,
      "▁top": 2243,
      "▁inn": 2244,
      "▁requ": 2245,
      "▁too,": 2246,
      "▁reflect": 2247,
      "ces": 2248,
      "inct": 2249,
      "▁har": 2250,
      "▁bent": 2251,
      "▁ton": 2252,
      "▁eat": 2253,
      "▁received": 2254,
      "blic": 2255,
      "▁country": 2256,
      "▁dinner": 2257,
      "ey": 2258,
      "yond": 2259,
      "▁sense": 2260,
      "▁tone": 2261,
      "ages": 2262,
      "▁hand.": 2263,
      "▁placed": 2264,
      "man,": 2265,
      "▁delight": 2266,
      "▁fif": 2267,
      "▁Sh": 2268,
      "▁there.": 2269,
      "▁out.": 2270,
      "▁lean": 2271,
      "▁comfort": 2272,
      "▁firm": 2273,
      "▁pleased": 2274,
      "▁infl": 2275,
      "▁judg": 2276,
      "▁win": 2277,
      "aged": 2278,
      "▁Levin.": 2279,
      "▁Just": 2280,
      "ment,": 2281,
      "▁door.": 2282,
      "▁accord": 2283,
      "▁esc": 2284,
      "▁holding": 2285,
      "▁Alexand": 2286,
      "▁daughter": 2287,
      "ivers": 2288,
      "▁free": 2289,
      "▁led": 2290,
      "▁outs": 2291,
      "▁gloom": 2292,
      "▁gentlemen": 2293,
      "▁corner": 2294,
      "▁probably": 2295,
      "ities": 2296,
      "▁who,": 2297,
      "▁lip": 2298,
      "▁je": 2299,
      "able,": 2300,
      "ments": 2301,
      "▁boys": 2302,
      "like": 2303,
      "▁Bovary": 2304,
      "uct": 2305,
      "ise,": 2306,
      "▁cause": 2307,
      "ides": 2308,
      "aching": 2309,
      "▁see,": 2310,
      "▁lived": 2311,
      "▁blood": 2312,
      "▁carried": 2313,
      "▁house,": 2314,
      "erence": 2315,
      "bour": 2316,
      "▁caught": 2317,
      "▁bear": 2318,
      "▁me;": 2319,
      "▁sus": 2320,
      "▁Lou": 2321,
      "clock": 2322,
      "▁Oblonsky,": 2323,
      "▁listened": 2324,
      "▁middle": 2325,
      "▁strength": 2326,
      "-d": 2327,
      "what": 2328,
      "ated,": 2329,
      "▁mil": 2330,
      "▁\"F": 2331,
      "ustom": 2332,
      "▁unh": 2333,
      "▁glass": 2334,
      "▁glance": 2335,
      "▁resol": 2336,
      "▁across": 2337,
      "▁general": 2338,
      "▁exclaimed": 2339,
      "mp": 2340,
      "−D": 2341,
      "▁bank": 2342,
      "le.": 2343,
      "▁anim": 2344,
      "▁clos": 2345,
      "▁remark": 2346,
      "▁means": 2347,
      "▁secret": 2348,
      "▁St.": 2349,
      "ope": 2350,
      "▁creat": 2351,
      "▁fair": 2352,
      "▁pull": 2353,
      "▁sep": 2354,
      "▁self": 2355,
      "▁unp": 2356,
      "▁away,": 2357,
      "▁smile.": 2358,
      "▁decided": 2359,
      "▁fixed": 2360,
      "▁o'clock": 2361,
      "ins": 2362,
      "▁wit": 2363,
      "▁pal": 2364,
      "▁beyond": 2365,
      "▁anx": 2366,
      "▁Here": 2367,
      "▁showed": 2368,
      "▁Master": 2369,
      "▁true": 2370,
      "▁It's": 2371,
      "ize": 2372,
      "▁street": 2373,
      "▁iron": 2374,
      "▁success": 2375,
      "ait": 2376,
      "▁you're": 2377,
      "ified": 2378,
      "▁allowed": 2379,
      "▁know,": 2380,
      "▁proceed": 2381,
      "▁grand": 2382,
      "▁impress": 2383,
      "▁recall": 2384,
      "▁expected": 2385,
      "▁official": 2386,
      "▁burst": 2387,
      "▁warm": 2388,
      "▁ball": 2389,
      "▁bird": 2390,
      "▁threw": 2391,
      "ceive": 2392,
      "ions,": 2393,
      "▁send": 2394,
      "▁cham": 2395,
      "▁known": 2396,
      "▁Pl": 2397,
      "▁compl": 2398,
      "▁twenty": 2399,
      "▁seems": 2400,
      "ness.": 2401,
      "▁scar": 2402,
      "▁Vronsky,": 2403,
      "▁Anna,": 2404,
      "▁belong": 2405,
      "▁silence": 2406,
      "▁tears": 2407,
      "▁piece": 2408,
      "gy": 2409,
      "no": 2410,
      "▁sle": 2411,
      "▁fav": 2412,
      "▁field": 2413,
      "▁lim": 2414,
      "▁asleep": 2415,
      "--the": 2416,
      "udd": 2417,
      "▁away.": 2418,
      "▁object": 2419,
      "▁approached": 2420,
      "▁slowly": 2421,
      "▁until": 2422,
      "▁he's": 2423,
      "oned": 2424,
      "▁thick": 2425,
      "▁character": 2426,
      "▁bare": 2427,
      "▁cast": 2428,
      "▁stop": 2429,
      "▁road": 2430,
      "▁conscious": 2431,
      "▁distur": 2432,
      "▁box": 2433,
      "▁peasant": 2434,
      "▁Countess": 2435,
      "▁hid": 2436,
      "▁mut": 2437,
      "▁third": 2438,
      "ay,": 2439,
      "itect": 2440,
      "▁added,": 2441,
      "▁despair": 2442,
      "ied,": 2443,
      "▁avo": 2444,
      "re,": 2445,
      "▁bound": 2446,
      "▁dut": 2447,
      "▁pity": 2448,
      "une": 2449,
      "▁before,": 2450,
      "▁spect": 2451,
      "▁result": 2452,
      "▁Christ": 2453,
      "▁hurried": 2454,
      "▁explain": 2455,
      "▁further": 2456,
      "▁oblig": 2457,
      "fax": 2458,
      "ily,": 2459,
      "mit": 2460,
      "▁mor": 2461,
      "▁late": 2462,
      "▁in,": 2463,
      "▁nearly": 2464,
      "age.": 2465,
      "ively": 2466,
      "airfax": 2467,
      "▁regard": 2468,
      "▁archdeacon": 2469,
      "ald": 2470,
      "▁post": 2471,
      "▁her;": 2472,
      "als": 2473,
      "▁'C": 2474,
      "▁neigh": 2475,
      "▁Why": 2476,
      "ected": 2477,
      "▁'That": 2478,
      "▁servant": 2479,
      "itude": 2480,
      "burg": 2481,
      "ric": 2482,
      "ination": 2483,
      "ers.": 2484,
      "▁fail": 2485,
      "sem": 2486,
      "▁Ar": 2487,
      "keep": 2488,
      "▁shook": 2489,
      "▁Bes": 2490,
      "▁up.": 2491,
      "▁clot": 2492,
      "▁Fairfax": 2493,
      "▁down,": 2494,
      "▁pleasant": 2495,
      "▁talked": 2496,
      "▁herself,": 2497,
      "▁simple": 2498,
      "▁whisp": 2499,
      "▁pretty": 2500,
      "a.": 2501,
      "s.\"": 2502,
      "▁lit": 2503,
      "oman": 2504,
      "▁I,": 2505,
      "▁on.": 2506,
      "ache": 2507,
      "▁didn't": 2508,
      "▁empt": 2509,
      "▁architect": 2510,
      "▁Notre": 2511,
      "▁breath": 2512,
      "▁Phoebus": 2513,
      "-w": 2514,
      "▁tast": 2515,
      "▁hot": 2516,
      "▁fet": 2517,
      "en.": 2518,
      "▁dest": 2519,
      "▁leng": 2520,
      "▁pressed": 2521,
      "▁num": 2522,
      "aled": 2523,
      "rief": 2524,
      "--a": 2525,
      "▁blue": 2526,
      "▁attent": 2527,
      "▁public": 2528,
      "▁English": 2529,
      "yaz": 2530,
      "▁farm": 2531,
      "▁stri": 2532,
      "▁stone": 2533,
      "▁Svi": 2534,
      "▁gover": 2535,
      "▁remar": 2536,
      "ances": 2537,
      "▁\"No,": 2538,
      "▁bott": 2539,
      "yazh": 2540,
      "▁Sviyazh": 2541,
      "▁Is": 2542,
      "lend": 2543,
      "▁force": 2544,
      "ain,": 2545,
      "▁chang": 2546,
      "▁Con": 2547,
      "▁manner": 2548,
      "▁other,": 2549,
      "▁happiness": 2550,
      "▁ladies": 2551,
      "▁giving": 2552,
      "▁earth": 2553,
      "▁unhapp": 2554,
      "ault": 2555,
      "ram": 2556,
      "held": 2557,
      "rect": 2558,
      "▁cry": 2559,
      "▁miss": 2560,
      "▁mention": 2561,
      "▁heaven": 2562,
      "▁exact": 2563,
      "▁hands,": 2564,
      "▁knowing": 2565,
      "▁here,": 2566,
      "▁please": 2567,
      "▁teet": 2568,
      "▁\"Do": 2569,
      "▁Peters": 2570,
      "▁princi": 2571,
      "▁Moscow": 2572,
      "▁separ": 2573,
      "land": 2574,
      "ate.": 2575,
      "idly": 2576,
      "ame.": 2577,
      "▁mel": 2578,
      "▁'Why": 2579,
      "▁laid": 2580,
      "▁clearly": 2581,
      "▁irrit": 2582,
      "▁it.\"": 2583,
      "il,": 2584,
      "iled": 2585,
      "▁anyone": 2586,
      "▁XX": 2587,
      "▁gypsy": 2588,
      "▁length": 2589,
      "▁Petersburg": 2590,
      "fast": 2591,
      "inary": 2592,
      "▁bal": 2593,
      "ingly": 2594,
      "▁eight": 2595,
      "▁you.\"": 2596,
      "▁Ade": 2597,
      "▁Bess": 2598,
      "▁trans": 2599,
      "▁Rod": 2600,
      "wards": 2601,
      "ful,": 2602,
      "▁easy": 2603,
      "▁forgotten": 2604,
      "ciety": 2605,
      "▁Louis": 2606,
      "ON": 2607,
      "tic": 2608,
      "arily": 2609,
      "▁suc": 2610,
      "▁val": 2611,
      "olphe": 2612,
      "▁spite": 2613,
      "▁sett": 2614,
      "▁pale": 2615,
      "▁simp": 2616,
      "▁judge": 2617,
      "▁phil": 2618,
      "▁shouted": 2619,
      "inal": 2620,
      "▁sens": 2621,
      "▁hill": 2622,
      "▁mount": 2623,
      "iment": 2624,
      "▁forth": 2625,
      "ch,": 2626,
      "▁cho": 2627,
      "▁Let": 2628,
      "▁cloud": 2629,
      "▁pecul": 2630,
      "▁enc": 2631,
      "▁caused": 2632,
      "▁started": 2633,
      "▁From": 2634,
      "▁remarked": 2635,
      "▁peculi": 2636,
      "s:": 2637,
      "t,": 2638,
      "ism": 2639,
      "▁du": 2640,
      "▁die": 2641,
      "ask": 2642,
      "▁pun": 2643,
      "▁ann": 2644,
      "▁King": 2645,
      "▁Well,": 2646,
      "▁peace": 2647,
      "▁K.'s": 2648,
      "▁faith": 2649,
      "duced": 2650,
      "▁perfect": 2651,
      "▁concern": 2652,
      "▁Rodolphe": 2653,
      "mer": 2654,
      "mist": 2655,
      "erable": 2656,
      "▁mod": 2657,
      "enced": 2658,
      "▁stir": 2659,
      "▁'M": 2660,
      "acked": 2661,
      "ress,": 2662,
      "ment.": 2663,
      "▁pock": 2664,
      "▁strang": 2665,
      "▁\"He": 2666,
      "▁discuss": 2667,
      "ended": 2668,
      "▁educ": 2669,
      "▁minutes": 2670,
      "▁grave": 2671,
      "▁Claude": 2672,
      "▁ast": 2673,
      "▁sick": 2674,
      "▁bread": 2675,
      "▁med": 2676,
      "id,": 2677,
      "icked": 2678,
      "▁notice": 2679,
      "que": 2680,
      "▁var": 2681,
      "▁leaving": 2682,
      "▁more,": 2683,
      "▁married": 2684,
      "▁girl,": 2685,
      "▁table,": 2686,
      "▁Joe": 2687,
      "▁natural": 2688,
      "▁picture": 2689,
      "▁viol": 2690,
      "▁tired": 2691,
      "in't": 2692,
      "erm": 2693,
      "▁beheld": 2694,
      "aded": 2695,
      "tering": 2696,
      "▁seized": 2697,
      "ive,": 2698,
      "▁proper": 2699,
      "sib": 2700,
      "ghed": 2701,
      "oint": 2702,
      "▁aud": 2703,
      "▁card": 2704,
      "▁not,": 2705,
      "▁'t": 2706,
      "▁but,": 2707,
      "▁alone,": 2708,
      "rawn": 2709,
      "▁grou": 2710,
      "▁coat": 2711,
      "▁head.": 2712,
      "▁watched": 2713,
      "▁drag": 2714,
      "▁instant": 2715,
      "▁suppose": 2716,
      "over,": 2717,
      "▁oppos": 2718,
      "▁later": 2719,
      "▁clerk": 2720,
      "ines": 2721,
      "er's": 2722,
      "▁cou": 2723,
      "▁makes": 2724,
      "arp": 2725,
      "▁equ": 2726,
      "▁ris": 2727,
      "olas": 2728,
      "▁worse": 2729,
      "▁floor": 2730,
      "▁eng": 2731,
      "▁enter": 2732,
      "▁window,": 2733,
      "▁night,": 2734,
      "ship": 2735,
      "▁guard": 2736,
      "▁broke": 2737,
      "▁trial": 2738,
      "▁fault": 2739,
      "▁opinion": 2740,
      "oat": 2741,
      "ry.": 2742,
      "under": 2743,
      "▁[": 2744,
      "▁main": 2745,
      "orrow": 2746,
      "▁pet": 2747,
      "▁intell": 2748,
      "▁Ves": 2749,
      "▁begin": 2750,
      "▁strugg": 2751,
      "▁presence": 2752,
      "▁drink": 2753,
      "▁cheek": 2754,
      "▁priv": 2755,
      "▁suffer": 2756,
      "▁nature": 2757,
      "▁listening": 2758,
      "▁excit": 2759,
      "▁acquaint": 2760,
      "▁detail": 2761,
      "▁bat": 2762,
      "▁cre": 2763,
      "▁fut": 2764,
      "▁sal": 2765,
      "▁Having": 2766,
      "▁me!": 2767,
      "▁myster": 2768,
      "ushing": 2769,
      "ered,": 2770,
      "▁more.": 2771,
      "▁splend": 2772,
      "▁knows": 2773,
      "▁occas": 2774,
      "▁fact,": 2775,
      "▁wife,": 2776,
      "light": 2777,
      "ring": 2778,
      "▁host": 2779,
      "▁bod": 2780,
      "stair": 2781,
      "▁\"J": 2782,
      "▁seat": 2783,
      "▁decl": 2784,
      "▁Ly": 2785,
      "aped": 2786,
      "▁comes": 2787,
      "▁Never": 2788,
      "▁\"How": 2789,
      "▁smiled": 2790,
      "▁carriage": 2791,
      "▁figure": 2792,
      "▁Varenka": 2793,
      "las": 2794,
      "pit": 2795,
      "itc": 2796,
      "▁phy": 2797,
      "ime": 2798,
      "vere": 2799,
      "▁all.": 2800,
      "▁changed": 2801,
      "▁liber": 2802,
      "oss": 2803,
      "▁enj": 2804,
      "▁relig": 2805,
      "▁indiff": 2806,
      "▁extre": 2807,
      "-in": 2808,
      "▁hous": 2809,
      "▁fond": 2810,
      "ony": 2811,
      "▁por": 2812,
      "omm": 2813,
      "ident": 2814,
      "sequ": 2815,
      "▁sho": 2816,
      "▁noise": 2817,
      "▁entr": 2818,
      "ives": 2819,
      "▁attract": 2820,
      "▁walking": 2821,
      "▁morning,": 2822,
      "▁situ": 2823,
      "▁running": 2824,
      "▁demand": 2825,
      "▁entirely": 2826,
      "▁horses": 2827,
      "▁Notre−D": 2828,
      "-g": 2829,
      "ge,": 2830,
      "▁wid": 2831,
      "▁fun": 2832,
      "▁furn": 2833,
      "▁sac": 2834,
      "▁Tur": 2835,
      "▁stup": 2836,
      "▁rain": 2837,
      "illi": 2838,
      "▁conn": 2839,
      "▁van": 2840,
      "▁there's": 2841,
      "ounded": 2842,
      "▁passion": 2843,
      "▁well,": 2844,
      "▁people,": 2845,
      "▁invol": 2846,
      "▁single": 2847,
      "▁surprised": 2848,
      "▁candle": 2849,
      "▁glanced": 2850,
      "▁influ": 2851,
      "▁Veslov": 2852,
      "ied.": 2853,
      "▁ain't": 2854,
      "▁fac": 2855,
      "an,": 2856,
      "▁it?": 2857,
      "▁asking": 2858,
      "▁stat": 2859,
      "erez": 2860,
      "osop": 2861,
      "▁day.": 2862,
      "▁suffic": 2863,
      "▁hours": 2864,
      "▁circum": 2865,
      "▁garden": 2866,
      "▁succeed": 2867,
      "oly": 2868,
      "▁wore": 2869,
      "rel": 2870,
      "▁health": 2871,
      "▁\"the": 2872,
      "▁one's": 2873,
      "ourn": 2874,
      "ortun": 2875,
      "▁now.": 2876,
      "▁other.": 2877,
      "▁wrote": 2878,
      "▁walk": 2879,
      "▁'He": 2880,
      "▁devil": 2881,
      "abl": 2882,
      "ious,": 2883,
      "▁men,": 2884,
      "▁fat": 2885,
      "ory,": 2886,
      "ic,": 2887,
      "▁rev": 2888,
      "▁und": 2889,
      "ady": 2890,
      "icholas": 2891,
      "▁do,": 2892,
      "arer": 2893,
      "▁ago": 2894,
      "ovna": 2895,
      "▁flow": 2896,
      "▁coach": 2897,
      "▁says": 2898,
      "▁painter": 2899,
      "▁smile,": 2900,
      "▁life.": 2901,
      "its": 2902,
      "▁pop": 2903,
      "any": 2904,
      "▁you?\"": 2905,
      "roll": 2906,
      "▁Me": 2907,
      "▁Rou": 2908,
      "▁thought.": 2909,
      "▁Levin's": 2910,
      "able.": 2911,
      "▁way.": 2912,
      "ocking": 2913,
      "aves": 2914,
      "▁delic": 2915,
      "▁legs": 2916,
      "▁centur": 2917,
      "▁murm": 2918,
      "▁philosop": 2919,
      "▁enjoy": 2920,
      "hay": 2921,
      "ral": 2922,
      "hered": 2923,
      "▁cart": 2924,
      "▁da": 2925,
      "▁danger": 2926,
      "▁reck": 2927,
      "▁These": 2928,
      "▁Mik": 2929,
      "uls": 2930,
      "▁Vas": 2931,
      "▁Nicholas": 2932,
      "▁prete": 2933,
      "▁passing": 2934,
      "▁resumed": 2935,
      "▁chemist": 2936,
      "▁occur": 2937,
      "▁square": 2938,
      "▁heavy": 2939,
      "▁unpleas": 2940,
      "▁Mikhay": 2941,
      "'m": 2942,
      "'s,": 2943,
      "field": 2944,
      "my": 2945,
      "rid": 2946,
      "ved,": 2947,
      "ated.": 2948,
      "▁pen": 2949,
      "▁sear": 2950,
      "▁me.\"": 2951,
      "▁Ser": 2952,
      "▁concl": 2953,
      "▁By": 2954,
      "el,": 2955,
      "els": 2956,
      "agg": 2957,
      "▁Rue": 2958,
      "▁becom": 2959,
      "▁instead": 2960,
      "▁gentleman": 2961,
      "▁particular": 2962,
      "▁interrupted": 2963,
      "▁worth": 2964,
      "▁favour": 2965,
      "nat": 2966,
      "▁bon": 2967,
      "▁fle": 2968,
      "▁fash": 2969,
      "ening": 2970,
      "eness": 2971,
      "▁dim": 2972,
      "▁dressed": 2973,
      "cient": 2974,
      "▁desce": 2975,
      "▁cru": 2976,
      "izing": 2977,
      "▁right,": 2978,
      "▁silent": 2979,
      "▁broad": 2980,
      "▁explan": 2981,
      "▁build": 2982,
      "▁nurse": 2983,
      "▁vague": 2984,
      "▁Bessie": 2985,
      "dd": 2986,
      "ies.": 2987,
      "▁tall": 2988,
      "▁cell": 2989,
      "▁motion": 2990,
      "▁roll": 2991,
      "▁kitc": 2992,
      "▁chance": 2993,
      "▁spent": 2994,
      "▁prot": 2995,
      "teen": 2996,
      "▁purp": 2997,
      "▁Constant": 2998,
      "▁Mikhaylov": 2999,
      "▁kitchen": 3000,
      "mb": 3001,
      "med": 3002,
      "▁hide": 3003,
      "▁drawn": 3004,
      "ass,": 3005,
      "ains": 3006,
      "▁Serez": 3007,
      "isted": 3008,
      "▁grown": 3009,
      "▁asked,": 3010,
      "▁Kitty,": 3011,
      "▁surr": 3012,
      "▁place,": 3013,
      "▁handsome": 3014,
      "velop": 3015,
      "▁tort": 3016,
      "▁green": 3017,
      "▁indeed": 3018,
      "▁moon": 3019,
      "▁unpleasant": 3020,
      "ned": 3021,
      "in.": 3022,
      "▁harm": 3023,
      "▁mass": 3024,
      "▁danc": 3025,
      "or.": 3026,
      "▁you,'": 3027,
      "terday": 3028,
      "▁frown": 3029,
      "ard,": 3030,
      "▁man.": 3031,
      "▁unable": 3032,
      "ighed": 3033,
      "▁Oh,": 3034,
      "▁clo": 3035,
      "▁long,": 3036,
      "▁everybody": 3037,
      "▁friends": 3038,
      "▁confess": 3039,
      "▁inform": 3040,
      "▁advant": 3041,
      "▁breast": 3042,
      "▁schol": 3043,
      "▁gazed": 3044,
      "▁breakfast": 3045,
      "▁jeal": 3046,
      "ipp": 3047,
      "pic": 3048,
      "wo": 3049,
      "▁bed,": 3050,
      "▁coun": 3051,
      "▁dull": 3052,
      "ane": 3053,
      "▁rich": 3054,
      "▁'and": 3055,
      "▁sharp": 3056,
      "▁Some": 3057,
      "s.'": 3058,
      "▁truth": 3059,
      "▁grow": 3060,
      "▁maj": 3061,
      "▁back,": 3062,
      "▁serious": 3063,
      "▁'There": 3064,
      "▁Then,": 3065,
      "▁accept": 3066,
      "▁waited": 3067,
      "▁pointed": 3068,
      "▁support": 3069,
      "▁regret": 3070,
      "▁Paris,": 3071,
      "▁apart": 3072,
      "▁outside": 3073,
      "▁bottom": 3074,
      "▁peculiar": 3075,
      "bo": 3076,
      "his": 3077,
      "ie,": 3078,
      "kn": 3079,
      "miss": 3080,
      "uish": 3081,
      "iness,": 3082,
      "rest": 3083,
      "▁pave": 3084,
      "▁yell": 3085,
      "▁yes,": 3086,
      "▁\"you": 3087,
      "irty": 3088,
      "▁ring": 3089,
      "▁deaf": 3090,
      "▁wouldn't": 3091,
      "▁coff": 3092,
      "ancy": 3093,
      "▁asked.": 3094,
      "▁following": 3095,
      "▁commun": 3096,
      "▁sir,": 3097,
      "▁drawing-room": 3098,
      "▁XI": 3099,
      "▁fingers": 3100,
      "iliar": 3101,
      "▁disappeared": 3102,
      "▁cup": 3103,
      "▁line": 3104,
      "▁beat": 3105,
      "▁rising": 3106,
      "ift": 3107,
      "▁shop": 3108,
      "▁neg": 3109,
      "ularly": 3110,
      "▁Bets": 3111,
      "▁office": 3112,
      "ornfield": 3113,
      "▁course,": 3114,
      "▁putting": 3115,
      "▁chest": 3116,
      "sky,": 3117,
      "▁double": 3118,
      "ecause": 3119,
      "▁Beck": 3120,
      "▁sorry": 3121,
      "▁prepared": 3122,
      "▁obliged": 3123,
      "▁Adele": 3124,
      "ipped": 3125,
      "ves,": 3126,
      "while": 3127,
      "▁boot": 3128,
      "▁cost": 3129,
      "▁tong": 3130,
      "▁that.": 3131,
      "▁\"and": 3132,
      "ille": 3133,
      "road": 3134,
      "▁intro": 3135,
      "▁plain": 3136,
      "▁grace": 3137,
      "▁begun": 3138,
      "▁child,": 3139,
      "iana": 3140,
      "theless,": 3141,
      "▁mother,": 3142,
      "▁matters": 3143,
      "▁common": 3144,
      "▁forgive": 3145,
      "fortun": 3146,
      "▁side,": 3147,
      "▁occupied": 3148,
      "▁merely": 3149,
      "▁avoid": 3150,
      "▁teeth": 3151,
      "▁simply": 3152,
      "▁circumst": 3153,
      "form": 3154,
      "ires": 3155,
      "attered": 3156,
      "▁laught": 3157,
      "▁conce": 3158,
      "▁amid": 3159,
      "▁enorm": 3160,
      "▁once,": 3161,
      "▁accomp": 3162,
      "▁girls": 3163,
      "▁mind,": 3164,
      "▁curtain": 3165,
      "▁Only": 3166,
      "▁However,": 3167,
      "▁arrived": 3168,
      "ex": 3169,
      "hood": 3170,
      "anqu": 3171,
      "arrow": 3172,
      "▁forced": 3173,
      "▁'P": 3174,
      "s,'": 3175,
      "▁Sp": 3176,
      "est,": 3177,
      "▁Co": 3178,
      "▁overc": 3179,
      "▁Ey": 3180,
      "▁off,": 3181,
      "aken": 3182,
      "▁writt": 3183,
      "▁laughed": 3184,
      "▁interested": 3185,
      "▁kissed": 3186,
      "▁uttered": 3187,
      "she": 3188,
      "▁wis": 3189,
      "ite,": 3190,
      "▁fool": 3191,
      "▁lot": 3192,
      "▁lower": 3193,
      "ow.": 3194,
      "▁stretched": 3195,
      "acqu": 3196,
      "▁exec": 3197,
      "▁whatever": 3198,
      "angu": 3199,
      "▁flo": 3200,
      "▁repro": 3201,
      "▁carp": 3202,
      "▁clean": 3203,
      "ruct": 3204,
      "▁spoken": 3205,
      "▁smiling": 3206,
      "▁opportun": 3207,
      "▁merc": 3208,
      "▁Gregor's": 3209,
      "▁Reed": 3210,
      "▁leaning": 3211,
      "ls": 3212,
      "▁sigh": 3213,
      "▁bab": 3214,
      "▁inj": 3215,
      "▁reas": 3216,
      "▁\"that": 3217,
      "▁ash": 3218,
      "aming": 3219,
      "▁so.": 3220,
      "▁agree": 3221,
      "▁blind": 3222,
      "▁Thornfield": 3223,
      "▁feelings": 3224,
      "▁formed": 3225,
      "▁woman,": 3226,
      "▁meaning": 3227,
      "▁carefully": 3228,
      "▁aware": 3229,
      "▁defend": 3230,
      "ounced": 3231,
      "▁memory": 3232,
      "▁to-day": 3233,
      "-law": 3234,
      "▁divor": 3235,
      "▁frightened": 3236,
      "-in-law": 3237,
      "bat": 3238,
      "kes": 3239,
      "rat": 3240,
      "s!": 3241,
      "▁treat": 3242,
      "inking": 3243,
      "inite": 3244,
      "▁war": 3245,
      "▁hig": 3246,
      "▁moving": 3247,
      "▁pit": 3248,
      "▁incl": 3249,
      "▁elect": 3250,
      "set": 3251,
      "▁attempt": 3252,
      "▁Vronsky.": 3253,
      "▁silver": 3254,
      "▁Leon": 3255,
      "▁peasants": 3256,
      "▁honour": 3257,
      "▁chamber": 3258,
      "▁whispered": 3259,
      "▁group": 3260,
      "ior": 3261,
      "ob": 3262,
      "right": 3263,
      "ues": 3264,
      "ashed": 3265,
      "orous": 3266,
      "▁early": 3267,
      "ices": 3268,
      "▁shame": 3269,
      "▁allow": 3270,
      "usion": 3271,
      "▁agre": 3272,
      "▁offered": 3273,
      "▁impat": 3274,
      "▁Rochest": 3275,
      "▁according": 3276,
      "▁purpose": 3277,
      "AR": 3278,
      "well": 3279,
      "zz": 3280,
      "▁wand": 3281,
      "▁wide": 3282,
      "ous.": 3283,
      "▁fal": 3284,
      "▁you've": 3285,
      "cely": 3286,
      "▁sake": 3287,
      "▁river": 3288,
      "▁unf": 3289,
      "▁plan": 3290,
      "▁grass": 3291,
      "▁Anna's": 3292,
      "▁reply": 3293,
      "▁tea": 3294,
      "▁heart,": 3295,
      "▁believed": 3296,
      "▁Dolly,": 3297,
      "▁\"My": 3298,
      "▁gazing": 3299,
      "▁touched": 3300,
      "▁yesterday": 3301,
      "▁phys": 3302,
      "pal": 3303,
      "s'": 3304,
      "uf": 3305,
      "iny": 3306,
      "▁ble": 3307,
      "▁latter": 3308,
      "anch": 3309,
      "ary.": 3310,
      "▁none": 3311,
      "omb": 3312,
      "▁Ing": 3313,
      "▁gest": 3314,
      "e,\"": 3315,
      "▁Leni": 3316,
      "umb": 3317,
      "uments": 3318,
      "▁feared": 3319,
      "▁tranqu": 3320,
      "▁brid": 3321,
      "▁conduct": 3322,
      "▁Alexis": 3323,
      "▁impression": 3324,
      "▁Sviyazhsky": 3325,
      "▁Lyd": 3326,
      "gar": 3327,
      "morrow": 3328,
      "ue.": 3329,
      "es.\"": 3330,
      "▁path": 3331,
      "▁ones": 3332,
      "▁you'll": 3333,
      "cell": 3334,
      "▁'L": 3335,
      "▁seated": 3336,
      "chair": 3337,
      "▁me:": 3338,
      "▁trave": 3339,
      "▁spot": 3340,
      "▁poet": 3341,
      "tained": 3342,
      "▁crown": 3343,
      "▁distinct": 3344,
      "▁presented": 3345,
      "▁depart": 3346,
      "▁stairc": 3347,
      "▁Alexandrov": 3348,
      "▁Place": 3349,
      "▁Ingram": 3350,
      "inc": 3351,
      "asp": 3352,
      "▁narrow": 3353,
      "▁in.": 3354,
      "▁yield": 3355,
      "▁it?\"": 3356,
      "▁it,'": 3357,
      "s,\"": 3358,
      "quet": 3359,
      "elle": 3360,
      "▁working": 3361,
      "▁'If": 3362,
      "▁impro": 3363,
      "▁love,": 3364,
      "▁Vronsky's": 3365,
      "▁confused": 3366,
      "▁torment": 3367,
      "▁quietly": 3368,
      "▁winter": 3369,
      "▁fetch": 3370,
      "▁involunt": 3371,
      "▁jealous": 3372,
      "▁Lydia": 3373,
      "−de": 3374,
      "asov": 3375,
      "leur": 3376,
      "▁gle": 3377,
      "▁it!": 3378,
      "▁youth": 3379,
      "ations,": 3380,
      "▁Gu": 3381,
      "▁proud": 3382,
      "▁before.": 3383,
      "▁reading": 3384,
      "▁work,": 3385,
      "▁lifted": 3386,
      "▁paid": 3387,
      "▁grey": 3388,
      "▁company": 3389,
      "▁frequ": 3390,
      "▁quarter": 3391,
      "▁Russian": 3392,
      "▁settled": 3393,
      "▁aston": 3394,
      "▁auth": 3395,
      "▁hate": 3396,
      "▁ment": 3397,
      "▁fold": 3398,
      "▁height": 3399,
      "▁d'": 3400,
      "▁lamp": 3401,
      "▁langu": 3402,
      "▁hal": 3403,
      "▁she,": 3404,
      "chief": 3405,
      "▁consequ": 3406,
      "▁chim": 3407,
      "astic": 3408,
      "olog": 3409,
      "▁hands.": 3410,
      "▁\"Is": 3411,
      "▁news": 3412,
      "▁recoll": 3413,
      "▁distance": 3414,
      "▁Que": 3415,
      "▁drawing": 3416,
      "▁angry": 3417,
      "▁Gringoire,": 3418,
      "▁forehead": 3419,
      "▁admir": 3420,
      "▁meeting": 3421,
      "ternal": 3422,
      "▁shadow": 3423,
      "▁'tis": 3424,
      "−de−": 3425,
      "ED": 3426,
      "EN": 3427,
      "dom": 3428,
      "net": 3429,
      "sed": 3430,
      "▁Yes,": 3431,
      "ison": 3432,
      "ator": 3433,
      "▁parent": 3434,
      "▁hist": 3435,
      "ce,": 3436,
      "▁star": 3437,
      "adi": 3438,
      "▁Sund": 3439,
      "ards": 3440,
      "▁intim": 3441,
      "unk": 3442,
      "ume": 3443,
      "▁class": 3444,
      "▁Es": 3445,
      "▁Now,": 3446,
      "▁maid": 3447,
      "▁'We": 3448,
      "▁words,": 3449,
      "▁possib": 3450,
      "▁horror": 3451,
      "▁cheer": 3452,
      "▁relations": 3453,
      "▁Karenin,": 3454,
      "▁elb": 3455,
      "▁midst": 3456,
      "▁music": 3457,
      "▁Un": 3458,
      "▁Ivanovna": 3459,
      "▁Besides,": 3460,
      "▁number": 3461,
      "▁Serezha": 3462,
      "der": 3463,
      "—\"": 3464,
      "▁1": 3465,
      "▁wishing": 3466,
      "ature": 3467,
      "▁cro": 3468,
      "▁den": 3469,
      "▁pushed": 3470,
      "icated": 3471,
      "▁you?": 3472,
      "▁had,": 3473,
      "▁rushed": 3474,
      "acle": 3475,
      "ooking": 3476,
      "▁meas": 3477,
      "▁depend": 3478,
      "▁While": 3479,
      "▁Don't": 3480,
      "▁afterwards": 3481,
      "▁heads": 3482,
      "▁\"Well": 3483,
      "tend": 3484,
      "pected": 3485,
      "▁last,": 3486,
      "▁\"Ah!": 3487,
      "▁voice.": 3488,
      "▁drive": 3489,
      "▁charming": 3490,
      "▁symp": 3491,
      "▁paper": 3492,
      "▁scarcely": 3493,
      "▁stupid": 3494,
      "▁reckon": 3495,
      "▁Constantine": 3496,
      "▁enormous": 3497,
      "ier,": 3498,
      "l,": 3499,
      "hes,": 3500,
      "▁aunt": 3501,
      "▁sam": 3502,
      "▁Tem": 3503,
      "acher": 3504,
      "▁shudd": 3505,
      "rig": 3506,
      "▁deg": 3507,
      "▁const": 3508,
      "▁Bl": 3509,
      "ests": 3510,
      "olen": 3511,
      "▁train": 3512,
      "▁resp": 3513,
      "▁disting": 3514,
      "▁Tom's": 3515,
      "▁stopp": 3516,
      "▁pursu": 3517,
      "▁extra": 3518,
      "▁spring": 3519,
      "▁village": 3520,
      "▁unhappy": 3521,
      "▁exactly": 3522,
      "▁splendid": 3523,
      "ny": 3524,
      "now": 3525,
      "r.": 3526,
      "yed": 3527,
      "▁bas": 3528,
      "▁died": 3529,
      "▁thing,": 3530,
      "as,": 3531,
      "▁\"but": 3532,
      "oop": 3533,
      "▁kill": 3534,
      "ourne": 3535,
      "▁goat": 3536,
      "▁amb": 3537,
      "▁somewhat": 3538,
      "▁others,": 3539,
      "▁suffering": 3540,
      "▁\"She": 3541,
      "▁Society": 3542,
      "▁familiar": 3543,
      "▁'Oh": 3544,
      "▁incre": 3545,
      "▁vex": 3546,
      "▁pulled": 3547,
      "▁author": 3548,
      "aked": 3549,
      "con": 3550,
      "jo": 3551,
      "ative": 3552,
      "▁dare": 3553,
      "▁earn": 3554,
      "enth": 3555,
      "▁note": 3556,
      "--that": 3557,
      "▁agit": 3558,
      "▁Jacqu": 3559,
      "▁first,": 3560,
      "▁heart.": 3561,
      "▁hearing": 3562,
      "▁sir.\"": 3563,
      "▁air,": 3564,
      "▁cathed": 3565,
      "▁uncle": 3566,
      "▁inquired": 3567,
      "▁intellig": 3568,
      "▁occasion": 3569,
      "▁written": 3570,
      ".,": 3571,
      "by": 3572,
      "fe": 3573,
      "▁sought": 3574,
      "er;": 3575,
      "erc": 3576,
      "▁mir": 3577,
      "▁fly": 3578,
      "▁dared": 3579,
      "▁\"'": 3580,
      "▁one.": 3581,
      "▁Who": 3582,
      "▁clock": 3583,
      "cience": 3584,
      "sip": 3585,
      "▁resist": 3586,
      "▁key": 3587,
      "ledge": 3588,
      "▁herself.": 3589,
      "▁pointing": 3590,
      "▁questions": 3591,
      "▁Kitty's": 3592,
      "▁decis": 3593,
      "arrass": 3594,
      "▁opposite": 3595,
      "▁Becky": 3596,
      "ton": 3597,
      "ze": 3598,
      "▁er": 3599,
      "erhaps": 3600,
      "▁ming": 3601,
      "▁save": 3602,
      "▁us,": 3603,
      "▁rou": 3604,
      "▁rust": 3605,
      "▁solem": 3606,
      "▁Somet": 3607,
      "▁More": 3608,
      "iling": 3609,
      "▁liv": 3610,
      "▁abroad": 3611,
      "▁come,": 3612,
      "▁\"If": 3613,
      "▁evening,": 3614,
      "▁thank": 3615,
      "▁contempt": 3616,
      "▁special": 3617,
      "▁things,": 3618,
      "▁prec": 3619,
      "▁word,": 3620,
      "▁arms,": 3621,
      "▁night.": 3622,
      "▁expressed": 3623,
      "▁hurt": 3624,
      "▁forest": 3625,
      "▁difficulty": 3626,
      "▁promised": 3627,
      "▁innoc": 3628,
      "▁principal": 3629,
      "fl": 3630,
      "how": 3631,
      "pir": 3632,
      "rehen": 3633,
      "▁bold": 3634,
      "atav": 3635,
      "▁mine": 3636,
      "▁fan": 3637,
      "asm": 3638,
      "▁lying": 3639,
      "▁pause": 3640,
      "▁gro": 3641,
      "ide,": 3642,
      "▁\"it": 3643,
      "ifice": 3644,
      "ieu": 3645,
      "▁age": 3646,
      "olute": 3647,
      "▁grat": 3648,
      "▁No,": 3649,
      "▁pract": 3650,
      "ishop": 3651,
      "na,": 3652,
      "▁saying,": 3653,
      "▁write": 3654,
      "▁guess": 3655,
      "▁children,": 3656,
      "▁whisper": 3657,
      "cherbat": 3658,
      "cript": 3659,
      "▁Shcherbat": 3660,
      "▁sympath": 3661,
      "▁solemn": 3662,
      "atavasov": 3663,
      "-room": 3664,
      "sit": 3665,
      "▁bow": 3666,
      "▁band": 3667,
      "is,": 3668,
      "▁dust": 3669,
      "icul": 3670,
      "irst": 3671,
      "al.": 3672,
      "alian": 3673,
      "▁me?": 3674,
      "▁lie": 3675,
      "osing": 3676,
      "▁Katavasov": 3677,
      "▁when,": 3678,
      "ument": 3679,
      "▁about,": 3680,
      "▁Or": 3681,
      "▁apparent": 3682,
      "lease": 3683,
      "▁watching": 3684,
      "▁Tom,": 3685,
      "▁house.": 3686,
      "▁\"Not": 3687,
      "▁windows": 3688,
      "▁finally": 3689,
      "▁doubt,": 3690,
      "▁bitter": 3691,
      "▁\"It's": 3692,
      "▁touch": 3693,
      "▁loft": 3694,
      "▁embarrass": 3695,
      "▁temp": 3696,
      "▁pocket": 3697,
      "▁future": 3698,
      "rst": 3699,
      "ürst": 3700,
      "▁id": 3701,
      "▁ign": 3702,
      "ine.": 3703,
      "itary": 3704,
      "▁nice": 3705,
      "▁gat": 3706,
      "▁gar": 3707,
      "ically": 3708,
      "ly;": 3709,
      "▁ur": 3710,
      "acing": 3711,
      "▁seven": 3712,
      "ribut": 3713,
      "elled": 3714,
      "▁virt": 3715,
      "ations.": 3716,
      "▁journe": 3717,
      "▁diss": 3718,
      "▁growing": 3719,
      "▁Ne": 3720,
      "▁thrust": 3721,
      "▁\"Why,": 3722,
      "▁crim": 3723,
      "▁moments": 3724,
      "▁I'd": 3725,
      "▁Anna.": 3726,
      "▁waist": 3727,
      "▁repres": 3728,
      "▁Alice,": 3729,
      "▁opening": 3730,
      "▁doesn't": 3731,
      "▁needed": 3732,
      "▁sky": 3733,
      "▁fallen": 3734,
      "▁study": 3735,
      "▁labour": 3736,
      "▁yellow": 3737,
      "ale": 3738,
      "aid": 3739,
      "hich": 3740,
      "ipe": 3741,
      "▁sighed": 3742,
      "▁city": 3743,
      "▁hesit": 3744,
      "omin": 3745,
      "▁you,\"": 3746,
      "▁ray": 3747,
      "iform": 3748,
      "▁Se": 3749,
      "▁suit": 3750,
      "anted": 3751,
      "▁vent": 3752,
      "umped": 3753,
      "▁clim": 3754,
      "▁too.": 3755,
      "▁Italian": 3756,
      "▁flower": 3757,
      "▁ener": 3758,
      "▁\"There": 3759,
      "▁marry": 3760,
      "▁carrying": 3761,
      "▁wife.": 3762,
      "▁slightly": 3763,
      "▁completely": 3764,
      "merald": 3765,
      "▁occurred": 3766,
      "gi": 3767,
      "sc": 3768,
      "uge": 3769,
      "▁tum": 3770,
      "▁hos": 3771,
      "▁bowed": 3772,
      "ise.": 3773,
      "▁eld": 3774,
      "▁resem": 3775,
      "▁\"w": 3776,
      "▁stern": 3777,
      "▁'B": 3778,
      "▁'G": 3779,
      "▁shone": 3780,
      "▁Bürst": 3781,
      "▁vol": 3782,
      "▁trust": 3783,
      "▁Of": 3784,
      "ploy": 3785,
      "▁well.": 3786,
      "▁looks": 3787,
      "▁carry": 3788,
      "▁interval": 3789,
      "▁brother,": 3790,
      "▁That's": 3791,
      "▁approaching": 3792,
      "▁perform": 3793,
      "▁provost": 3794,
      "ING": 3795,
      "▁unex": 3796,
      "▁experienced": 3797,
      "▁tone,": 3798,
      "▁disturb": 3799,
      "▁duty": 3800,
      "▁Christian": 3801,
      ",−−": 3802,
      "rap": 3803,
      "▁song": 3804,
      "▁wet": 3805,
      "▁holl": 3806,
      "▁faces": 3807,
      "▁et": 3808,
      "▁receive": 3809,
      "▁ancient": 3810,
      "▁severe": 3811,
      "▁Hel": 3812,
      "ama": 3813,
      "ams": 3814,
      "▁sugg": 3815,
      "▁doc": 3816,
      "ils": 3817,
      "using": 3818,
      "▁aband": 3819,
      "▁mann": 3820,
      "▁uniform": 3821,
      "umn": 3822,
      "▁feet,": 3823,
      "▁Roman": 3824,
      "▁seek": 3825,
      "▁ordered": 3826,
      "▁husband,": 3827,
      "▁terror": 3828,
      "▁walls": 3829,
      "▁condem": 3830,
      "▁besides": 3831,
      "▁stepped": 3832,
      "▁glancing": 3833,
      "▁contrary,": 3834,
      "▁marriage": 3835,
      "keeper": 3836,
      "▁extreme": 3837,
      "ts": 3838,
      "ater": 3839,
      "▁custom": 3840,
      "▁to,": 3841,
      "▁dam": 3842,
      "▁reve": 3843,
      "▁Two": 3844,
      "ality": 3845,
      "ayed": 3846,
      "ament": 3847,
      "▁shr": 3848,
      "▁vict": 3849,
      "▁noble": 3850,
      "▁Prov": 3851,
      "▁know.": 3852,
      "▁Even": 3853,
      "▁shoulders": 3854,
      "▁fles": 3855,
      "▁cover": 3856,
      "▁Oblonsky.": 3857,
      "▁trees": 3858,
      "▁affection": 3859,
      "▁direction": 3860,
      "▁assist": 3861,
      "▁priest,": 3862,
      "▁summer": 3863,
      "▁arrang": 3864,
      "▁Agath": 3865,
      "▁hanging": 3866,
      "▁education": 3867,
      "▁Esmerald": 3868,
      "▁lose": 3869,
      "▁gay": 3870,
      "▁was.": 3871,
      "▁withd": 3872,
      "pper": 3873,
      "▁nearer": 3874,
      "ager": 3875,
      "▁Comm": 3876,
      "▁them;": 3877,
      "▁flat": 3878,
      "ocks": 3879,
      "▁employ": 3880,
      "▁another,": 3881,
      "▁Kitty.": 3882,
      "▁discovered": 3883,
      "▁immense": 3884,
      "▁'Not": 3885,
      "▁Jane,": 3886,
      "▁importance": 3887,
      "▁drop": 3888,
      "▁imagine": 3889,
      "▁utter": 3890,
      "▁trembling": 3891,
      "▁arranged": 3892,
      "▁Nevertheless,": 3893,
      "▁divorce": 3894,
      "i,": 3895,
      "ily.": 3896,
      "▁warn": 3897,
      "rer": 3898,
      "▁home,": 3899,
      "▁born": 3900,
      "ises": 3901,
      "ath,": 3902,
      "▁mill": 3903,
      "onv": 3904,
      "ones": 3905,
      "▁lov": 3906,
      "ork": 3907,
      "▁pair": 3908,
      "ide.": 3909,
      "▁rare": 3910,
      "▁'but": 3911,
      "▁shirt": 3912,
      "ulf": 3913,
      "--'": 3914,
      "--but": 3915,
      "▁org": 3916,
      "▁disg": 3917,
      "▁offer": 3918,
      "ishment": 3919,
      "▁stranger": 3920,
      "▁words.": 3921,
      "▁nothing.": 3922,
      "▁below": 3923,
      "ips": 3924,
      "▁persu": 3925,
      "▁brother's": 3926,
      "▁visible": 3927,
      "ashv": 3928,
      "▁Yet": 3929,
      "▁easily": 3930,
      "▁minute": 3931,
      "▁memor": 3932,
      "▁\"That's": 3933,
      "▁observed": 3934,
      "▁empty": 3935,
      "▁majest": 3936,
      "▁suggest": 3937,
      "ber,": 3938,
      "ges": 3939,
      "h!\"": 3940,
      "ience": 3941,
      "oe": 3942,
      "oke": 3943,
      "▁bill": 3944,
      "atre": 3945,
      "ings,": 3946,
      "▁you;": 3947,
      "▁reach": 3948,
      "▁stro": 3949,
      "ury": 3950,
      "▁him:": 3951,
      "ch.": 3952,
      "▁mead": 3953,
      "▁showing": 3954,
      "▁dept": 3955,
      "▁vain": 3956,
      "▁abrupt": 3957,
      "▁Lhe": 3958,
      "▁Pier": 3959,
      "▁arg": 3960,
      "▁will,": 3961,
      "▁Dom": 3962,
      "▁produced": 3963,
      "▁over,": 3964,
      "▁little,": 3965,
      "▁blow": 3966,
      "▁pron": 3967,
      "▁down.": 3968,
      "▁remind": 3969,
      "▁good,": 3970,
      "▁afterno": 3971,
      "▁perhap": 3972,
      "▁marble": 3973,
      "▁obst": 3974,
      "▁humili": 3975,
      "▁awful": 3976,
      "▁term": 3977,
      "▁beauty": 3978,
      "-by": 3979,
      "▁drove": 3980,
      "▁sorrow": 3981,
      "▁magn": 3982,
      "▁neighbour": 3983,
      "▁influence": 3984,
      "▁Mean": 3985,
      "known": 3986,
      "▁opportunity": 3987,
      "ien": 3988,
      "jun": 3989,
      "rad": 3990,
      "▁hy": 3991,
      "erchief": 3992,
      "atisf": 3993,
      "▁mood": 3994,
      "▁fit": 3995,
      "▁food": 3996,
      "▁Ind": 3997,
      "▁\"E": 3998,
      "irg": 3999,
      "▁shoot": 4000,
      "▁do.": 4001,
      "▁were,": 4002,
      "▁jumped": 4003,
      "urer": 4004,
      "▁Where": 4005,
      "▁arrest": 4006,
      "▁plat": 4007,
      "▁Did": 4008,
      "▁prog": 4009,
      "▁Egy": 4010,
      "▁grad": 4011,
      "▁wants": 4012,
      "▁reader": 4013,
      "▁telling": 4014,
      "▁addressed": 4015,
      "▁addressing": 4016,
      "▁painful": 4017,
      "▁advanc": 4018,
      "▁world,": 4019,
      "▁catch": 4020,
      "▁indeed,": 4021,
      "▁dropped": 4022,
      "▁snow": 4023,
      "▁'It's": 4024,
      "▁fortun": 4025,
      "▁fortune": 4026,
      "▁rapid": 4027,
      "▁satisfact": 4028,
      "▁private": 4029,
      "▁fashion": 4030,
      "▁Rochester,": 4031,
      "▁false": 4032,
      "▁depth": 4033,
      "▁Meanwhile": 4034,
      "▁Egypt": 4035,
      "ES": 4036,
      "aly": 4037,
      "ler": 4038,
      "o.": 4039,
      "▁wed": 4040,
      "onc": 4041,
      "ann": 4042,
      "ompl": 4043,
      "▁shaking": 4044,
      "▁Mill": 4045,
      "▁upstair": 4046,
      "--it": 4047,
      "▁Ger": 4048,
      "▁spark": 4049,
      "▁pros": 4050,
      "▁blushed": 4051,
      "▁good-": 4052,
      "abond": 4053,
      "ivid": 4054,
      "▁painted": 4055,
      "▁capit": 4056,
      "▁Charles,": 4057,
      "▁home.": 4058,
      "▁Yashv": 4059,
      "▁absolute": 4060,
      "▁learned": 4061,
      "▁recognized": 4062,
      "▁destro": 4063,
      "▁houses": 4064,
      "▁scholar": 4065,
      "chev": 4066,
      "iven": 4067,
      "ka,": 4068,
      "les.": 4069,
      "ty,": 4070,
      "▁vel": 4071,
      "rent": 4072,
      "▁bed.": 4073,
      "▁mess": 4074,
      "▁to−": 4075,
      "▁pup": 4076,
      "▁pressing": 4077,
      "▁nine": 4078,
      "▁be,": 4079,
      "▁gently": 4080,
      "▁it:": 4081,
      "▁story": 4082,
      "▁rail": 4083,
      "▁Sid": 4084,
      "▁Bar": 4085,
      "▁Will": 4086,
      "▁Pres": 4087,
      "▁brilli": 4088,
      "▁rob": 4089,
      "▁perceived": 4090,
      "▁friendly": 4091,
      "iety": 4092,
      "▁\"Oh!": 4093,
      "▁director": 4094,
      "▁ears": 4095,
      "▁Yonv": 4096,
      "▁generally": 4097,
      "▁playing": 4098,
      "▁vagabond": 4099,
      "▁particularly": 4100,
      "▁dreadful": 4101,
      "▁recalled": 4102,
      "▁entrance": 4103,
      "▁advantage": 4104,
      "▁accompan": 4105,
      "▁ashamed": 4106,
      "▁Sunday": 4107,
      "▁extraord": 4108,
      "▁cathedral": 4109,
      "▁Agatha": 4110,
      "aff": 4111,
      "ève": 4112,
      "▁brief": 4113,
      "▁mal": 4114,
      "▁fart": 4115,
      "▁done,": 4116,
      "org": 4117,
      "▁gri": 4118,
      "▁grief": 4119,
      "ime,": 4120,
      "stand": 4121,
      "▁'E": 4122,
      "▁Have": 4123,
      "▁develop": 4124,
      "antic": 4125,
      "▁vig": 4126,
      "oused": 4127,
      "ously": 4128,
      "▁man's": 4129,
      "▁unfortun": 4130,
      "igne": 4131,
      "ivered": 4132,
      "olly": 4133,
      "▁\"Who": 4134,
      "▁usually": 4135,
      "▁oper": 4136,
      "▁something,": 4137,
      "▁women,": 4138,
      "▁confid": 4139,
      "▁fully": 4140,
      "▁event": 4141,
      "▁regular": 4142,
      "▁counten": 4143,
      "▁Dolly.": 4144,
      "▁\"So": 4145,
      "▁expecting": 4146,
      "▁bedroom": 4147,
      "▁falling": 4148,
      "▁father,": 4149,
      "▁explained": 4150,
      "▁fire,": 4151,
      "▁rubb": 4152,
      "▁Clop": 4153,
      "▁finger": 4154,
      "▁surprise": 4155,
      "▁freed": 4156,
      "▁profound": 4157,
      "▁\"Good": 4158,
      "▁creature": 4159,
      "▁melanch": 4160,
      "▁travell": 4161,
      "▁involuntarily": 4162,
      "▁gathered": 4163,
      "bod": 4164,
      "of": 4165,
      "rou": 4166,
      "▁he.": 4167,
      "▁pow": 4168,
      "imp": 4169,
      "▁\"R": 4170,
      "acy": 4171,
      "amm": 4172,
      "▁sob": 4173,
      "ilar": 4174,
      "▁Low": 4175,
      "▁Lord": 4176,
      "▁nose": 4177,
      "ureux": 4178,
      "▁brow": 4179,
      "▁Diana": 4180,
      "▁\"In": 4181,
      "▁dism": 4182,
      "▁appl": 4183,
      "▁back.": 4184,
      "▁pref": 4185,
      "▁moment.": 4186,
      "▁\"To": 4187,
      "▁\"Then": 4188,
      "▁accustom": 4189,
      "iction": 4190,
      "▁everything,": 4191,
      "▁mind.": 4192,
      "▁half-": 4193,
      "▁finish": 4194,
      "▁soul,": 4195,
      "▁Nothing": 4196,
      "▁despite": 4197,
      "▁artist": 4198,
      "▁laughing": 4199,
      "▁'She": 4200,
      "III": 4201,
      "▁Marsh": 4202,
      "▁polit": 4203,
      "▁honest": 4204,
      "▁disturbed": 4205,
      "▁indifferent": 4206,
      "▁cloak": 4207,
      "▁Lheureux": 4208,
      "iently": 4209,
      "uished": 4210,
      "▁aid": 4211,
      "▁wound": 4212,
      "▁wond": 4213,
      "▁cig": 4214,
      "▁dry": 4215,
      "asped": 4216,
      "arse": 4217,
      "om,": 4218,
      "▁it?'": 4219,
      "irm": 4220,
      "▁ros": 4221,
      "▁rough": 4222,
      "▁rang": 4223,
      "▁me?\"": 4224,
      "▁king,": 4225,
      "▁Mont": 4226,
      "▁Mah": 4227,
      "▁conqu": 4228,
      "▁constant": 4229,
      "antly": 4230,
      "ardon": 4231,
      "▁no,": 4232,
      "▁Cour": 4233,
      "unch": 4234,
      "▁timid": 4235,
      "▁anyway": 4236,
      "▁Fleur": 4237,
      "▁grim": 4238,
      "this": 4239,
      "▁spee": 4240,
      "▁scream": 4241,
      "▁Injun": 4242,
      "▁report": 4243,
      "▁drugg": 4244,
      "▁horrible": 4245,
      "▁country,": 4246,
      "▁mistress": 4247,
      "▁excited": 4248,
      "▁played": 4249,
      "▁absor": 4250,
      "▁crossed": 4251,
      "▁hall,": 4252,
      "▁to-morrow": 4253,
      "▁establ": 4254,
      "▁cried,": 4255,
      "▁neighb": 4256,
      "▁clothes": 4257,
      "▁Veslovsky": 4258,
      "▁popul": 4259,
      "▁surrounded": 4260,
      "▁unexpected": 4261,
      "▁velve": 4262,
      "▁druggist": 4263,
      "hur": 4264,
      "iers": 4265,
      "just": 4266,
      "kerchief": 4267,
      "ron": 4268,
      "te,": 4269,
      "wed": 4270,
      "▁sank": 4271,
      "▁bir": 4272,
      "erial": 4273,
      "▁fill": 4274,
      "▁faint": 4275,
      "▁di": 4276,
      "▁thirty": 4277,
      "uted": 4278,
      "▁say.": 4279,
      "▁asce": 4280,
      "▁Hall": 4281,
      "y,'": 4282,
      "▁exch": 4283,
      "▁excell": 4284,
      "▁alarm": 4285,
      "--to": 4286,
      "▁Col": 4287,
      "▁whence": 4288,
      "▁go,": 4289,
      "ire,": 4290,
      "▁did,": 4291,
      "▁space": 4292,
      "ing,'": 4293,
      "▁somewhere": 4294,
      "..'": 4295,
      "ishchev": 4296,
      "▁here.": 4297,
      "▁'Tis": 4298,
      "▁embr": 4299,
      "▁curious": 4300,
      "▁service": 4301,
      "▁short,": 4302,
      "▁singular": 4303,
      "▁determ": 4304,
      "▁appearance": 4305,
      "▁powerful": 4306,
      "▁\"Yes,\"": 4307,
      "▁examining": 4308,
      "▁polic": 4309,
      "▁'Do": 4310,
      "▁portra": 4311,
      "▁furnit": 4312,
      "▁Vasen": 4313,
      "AS": 4314,
      "iber": 4315,
      "led,": 4316,
      "ole": 4317,
      "s?": 4318,
      "vis": 4319,
      "hem": 4320,
      "ndered": 4321,
      "oul": 4322,
      "erred": 4323,
      "▁cous": 4324,
      "▁thro": 4325,
      "▁lin": 4326,
      "▁nam": 4327,
      "▁erect": 4328,
      "▁'F": 4329,
      "▁isn't": 4330,
      "illau": 4331,
      "▁sea": 4332,
      "▁they're": 4333,
      "emois": 4334,
      "▁outl": 4335,
      "▁leant": 4336,
      "arted": 4337,
      "▁intention": 4338,
      "▁intended": 4339,
      "▁Ge": 4340,
      "▁brown": 4341,
      "▁wear": 4342,
      "▁weather": 4343,
      "ately,": 4344,
      "▁someone": 4345,
      "▁thrown": 4346,
      "▁still,": 4347,
      "▁greater": 4348,
      "▁distr": 4349,
      "▁distant": 4350,
      "▁silence,": 4351,
      "▁another.": 4352,
      "azz": 4353,
      "▁actually": 4354,
      "▁keeping": 4355,
      "▁raising": 4356,
      "▁ideas": 4357,
      "▁besides,": 4358,
      "▁stayed": 4359,
      "▁king's": 4360,
      "▁corrid": 4361,
      "▁inquir": 4362,
      "▁golden": 4363,
      "▁uneas": 4364,
      "▁soldier": 4365,
      "▁flowers": 4366,
      "\",": 4367,
      "-chair": 4368,
      "Very": 4369,
      "do": 4370,
      "ium": 4371,
      "▁tur": 4372,
      "▁tight": 4373,
      "inated": 4374,
      "▁wine": 4375,
      "ery,": 4376,
      "▁cow": 4377,
      "▁fancy": 4378,
      "▁pier": 4379,
      "▁name,": 4380,
      "ots": 4381,
      "icking": 4382,
      "▁it.'": 4383,
      "▁\"t": 4384,
      "▁station": 4385,
      "▁stick": 4386,
      "▁for,": 4387,
      "ify": 4388,
      "rock": 4389,
      "▁Ste": 4390,
      "elve": 4391,
      "▁otherw": 4392,
      "uded": 4393,
      "▁shoulder": 4394,
      "▁enem": 4395,
      "▁betr": 4396,
      "▁deser": 4397,
      "▁accompl": 4398,
      "▁tele": 4399,
      "▁difference": 4400,
      "▁finding": 4401,
      "▁treas": 4402,
      "day,": 4403,
      "▁myself,": 4404,
      "▁God,": 4405,
      "▁books": 4406,
      "▁together,": 4407,
      "▁circle": 4408,
      "▁ceased": 4409,
      "ches,": 4410,
      "▁gloomy": 4411,
      "▁revol": 4412,
      "▁coachman": 4413,
      "▁philosopher": 4414,
      "▁becoming": 4415,
      "▁Eyre": 4416,
      "▁floor,": 4417,
      "▁baby": 4418,
      "▁reasons": 4419,
      "▁higher": 4420,
      "−de−L": 4421,
      "olenishchev": 4422,
      "▁disgust": 4423,
      "uce": 4424,
      "ourer": 4425,
      "atic": 4426,
      "▁thread": 4427,
      "▁pure": 4428,
      "▁nail": 4429,
      "▁inex": 4430,
      "vell": 4431,
      "urs": 4432,
      "▁rag": 4433,
      "▁Am": 4434,
      "▁this.": 4435,
      "▁Can": 4436,
      "aud": 4437,
      "▁Why,": 4438,
      "▁agr": 4439,
      "▁Golenishchev": 4440,
      "▁true,": 4441,
      "ples": 4442,
      "▁env": 4443,
      "▁entreat": 4444,
      "▁mark": 4445,
      "▁presently": 4446,
      "▁place.": 4447,
      "▁\"Now": 4448,
      "▁restr": 4449,
      "▁continued,": 4450,
      "▁terr": 4451,
      "▁wall,": 4452,
      "▁edge": 4453,
      "▁patient": 4454,
      "▁profess": 4455,
      "▁Phoebus,": 4456,
      "▁hoped": 4457,
      "▁Everything": 4458,
      "▁required": 4459,
      "▁escape": 4460,
      "▁suspic": 4461,
      "▁muttered": 4462,
      "▁governess": 4463,
      "▁various": 4464,
      "▁details": 4465,
      "▁situation": 4466,
      "▁flew": 4467,
      "▁Betsy": 4468,
      "▁flesh": 4469,
      "▁platform": 4470,
      "▁Fleur−de−L": 4471,
      "▁policem": 4472,
      "hold": 4473,
      "▁ack": 4474,
      "▁sen": 4475,
      "▁cit": 4476,
      "inging": 4477,
      "▁monsieur": 4478,
      "▁din": 4479,
      "ors,": 4480,
      "▁you'd": 4481,
      "▁recl": 4482,
      "▁rejo": 4483,
      "▁row": 4484,
      "am,": 4485,
      "roid": 4486,
      "ich,": 4487,
      "▁vast": 4488,
      "▁vault": 4489,
      "▁worked": 4490,
      "▁wearing": 4491,
      "▁amaz": 4492,
      "▁likely": 4493,
      "evna": 4494,
      "▁however": 4495,
      "▁doorway": 4496,
      "▁scene": 4497,
      "▁think,": 4498,
      "▁teacher": 4499,
      "▁'Then": 4500,
      "▁silence.": 4501,
      "▁understanding": 4502,
      "▁suffered": 4503,
      "▁helped": 4504,
      "▁advent": 4505,
      "▁beds": 4506,
      "▁hair,": 4507,
      "▁mistake": 4508,
      "▁admit": 4509,
      "▁arrival": 4510,
      "▁to-night": 4511,
      "▁irritated": 4512,
      "▁mental": 4513,
      "▁Moreover,": 4514,
      "▁perhaps,": 4515,
      "rockle": 4516,
      "▁acknow": 4517,
      "OR": 4518,
      "bers": 4519,
      "mon": 4520,
      "ox": 4521,
      "uk": 4522,
      "yr": 4523,
      "▁cher": 4524,
      "arl": 4525,
      "▁nerv": 4526,
      "▁yonder": 4527,
      "▁it,\"": 4528,
      "▁you!": 4529,
      "▁you.'": 4530,
      "▁exerc": 4531,
      "▁Brockle": 4532,
      "elic": 4533,
      "▁leather": 4534,
      "▁goes": 4535,
      "▁anybody": 4536,
      "ode": 4537,
      "bles,": 4538,
      "▁knowledge": 4539,
      "▁Fl": 4540,
      "▁twelve": 4541,
      "▁love.": 4542,
      "▁Church": 4543,
      "▁distract": 4544,
      "▁horiz": 4545,
      "−−\"": 4546,
      "▁clever": 4547,
      "▁evil": 4548,
      "▁continually": 4549,
      "▁command": 4550,
      "▁rose,": 4551,
      "▁insult": 4552,
      "▁air.": 4553,
      "▁noticing": 4554,
      "▁businessman": 4555,
      "▁buy": 4556,
      "▁miserable": 4557,
      "▁pictures": 4558,
      "▁Koznyshev,": 4559,
      "▁correct": 4560,
      "▁nurser": 4561,
      "▁prevent": 4562,
      "▁'They": 4563,
      "▁smoke": 4564,
      "▁satisfied": 4565,
      "▁lips,": 4566,
      "▁consciousness": 4567,
      "▁succeeded": 4568,
      "▁agreed": 4569,
      "ufact": 4570,
      "▁chimne": 4571,
      "▁German": 4572,
      "▁portrait": 4573,
      "▁agricult": 4574,
      "wing": 4575,
      "▁orig": 4576,
      "▁ben": 4577,
      "▁cra": 4578,
      "▁lan": 4579,
      "▁hay": 4580,
      "▁eager": 4581,
      "sec": 4582,
      "▁Trist": 4583,
      "▁rul": 4584,
      "▁rise": 4585,
      "▁radi": 4586,
      "acking": 4587,
      "ters": 4588,
      "rol": 4589,
      "▁superi": 4590,
      "▁knocked": 4591,
      "our,": 4592,
      "ists": 4593,
      "ace.": 4594,
      "▁unw": 4595,
      "▁about.": 4596,
      "▁wealth": 4597,
      "▁handkerchief": 4598,
      "▁undert": 4599,
      "▁everywhere": 4600,
      "▁flung": 4601,
      "▁content": 4602,
      "geois": 4603,
      "ouse,": 4604,
      "▁knees": 4605,
      "▁look,": 4606,
      "▁calling": 4607,
      "▁left,": 4608,
      "theless": 4609,
      "▁sorts": 4610,
      "▁themselves,": 4611,
      "▁ruin": 4612,
      "▁side.": 4613,
      "▁March": 4614,
      "▁displeas": 4615,
      "▁labourer": 4616,
      "▁experience": 4617,
      "▁possessed": 4618,
      "▁perfectly": 4619,
      "▁Jacques": 4620,
      "▁lofty": 4621,
      "▁ignor": 4622,
      "hurst": 4623,
      "-st": 4624,
      "ios": 4625,
      "ras": 4626,
      "inet": 4627,
      "▁wise": 4628,
      "att": 4629,
      "▁cool": 4630,
      "▁mot": 4631,
      "▁mach": 4632,
      "▁fulf": 4633,
      "▁dign": 4634,
      "▁dying": 4635,
      "orough": 4636,
      "▁pan": 4637,
      "omfort": 4638,
      "▁you?'": 4639,
      "▁\"~": 4640,
      "▁Tit": 4641,
      "▁storm": 4642,
      "▁ri": 4643,
      "oose": 4644,
      "▁ant": 4645,
      "▁Aunt": 4646,
      "aining": 4647,
      "▁Mock": 4648,
      "▁chin": 4649,
      "▁upset": 4650,
      "▁no!": 4651,
      "▁nobody": 4652,
      "ossip": 4653,
      "▁Come": 4654,
      "▁leaves": 4655,
      "▁manufact": 4656,
      "▁unus": 4657,
      "▁Gry": 4658,
      "ive.": 4659,
      "▁\"I'll": 4660,
      "▁dish": 4661,
      "▁Froll": 4662,
      "ude": 4663,
      "▁Ex": 4664,
      "▁encl": 4665,
      "▁doors": 4666,
      "▁spend": 4667,
      "▁\"Why": 4668,
      "▁nothing,": 4669,
      "▁Charm": 4670,
      "▁accused": 4671,
      "▁water,": 4672,
      "▁silent.": 4673,
      "▁behold": 4674,
      "▁Karenin's": 4675,
      "▁returning": 4676,
      "▁refused": 4677,
      "▁window.": 4678,
      "▁table.": 4679,
      "▁boat": 4680,
      "▁servants": 4681,
      "▁interesting": 4682,
      "▁steward": 4683,
      "▁joined": 4684,
      "▁personal": 4685,
      "▁benef": 4686,
      "ency": 4687,
      "▁rapidly": 4688,
      "▁burning": 4689,
      "▁embroid": 4690,
      "▁fifteen": 4691,
      "▁limb": 4692,
      "▁vanished": 4693,
      "▁tongue": 4694,
      "▁innocent": 4695,
      "▁Esmeralda": 4696,
      "igneur": 4697,
      "▁Brocklehurst": 4698,
      "ule": 4699,
      "âte": 4700,
      "hest": 4701,
      "lly": 4702,
      "▁whit": 4703,
      "ly:": 4704,
      "vern": 4705,
      "ions.": 4706,
      "▁straw": 4707,
      "▁forty": 4708,
      "▁'em": 4709,
      "aces,": 4710,
      "ilty": 4711,
      "▁Was": 4712,
      "▁que": 4713,
      "▁fever": 4714,
      "▁comb": 4715,
      "▁Oh!": 4716,
      "▁process": 4717,
      "▁evening.": 4718,
      "▁And,": 4719,
      "ake,": 4720,
      "▁throw": 4721,
      "▁throng": 4722,
      "▁\"We": 4723,
      "▁desired": 4724,
      "▁passage": 4725,
      "▁me,\"": 4726,
      "▁replied,": 4727,
      "▁anything.": 4728,
      "▁mother's": 4729,
      "▁Karenin.": 4730,
      "▁question,": 4731,
      "▁definite": 4732,
      "▁Emma,": 4733,
      "▁book,": 4734,
      "▁master,": 4735,
      "▁job": 4736,
      "▁church.": 4737,
      "▁amongst": 4738,
      "▁bottle": 4739,
      "▁eleg": 4740,
      "▁'That's": 4741,
      "▁taste": 4742,
      "▁Guillau": 4743,
      "▁\"'T": 4744,
      "▁wedd": 4745,
      "!...": 4746,
      "IT": 4747,
      "bar": 4748,
      "▁aim": 4749,
      "▁tot": 4750,
      "▁dazz": 4751,
      "▁thorough": 4752,
      "asc": 4753,
      "ics": 4754,
      "▁whist": 4755,
      "▁Hatter": 4756,
      "▁alone.": 4757,
      "el.": 4758,
      "eless": 4759,
      "▁nodd": 4760,
      "--for": 4761,
      "aux": 4762,
      "▁are,": 4763,
      "▁Gree": 4764,
      "▁willing": 4765,
      "aps": 4766,
      "▁times,": 4767,
      "▁we'll": 4768,
      "▁Duc": 4769,
      "▁bless": 4770,
      "▁blame": 4771,
      "▁prison": 4772,
      "▁party": 4773,
      "▁reconc": 4774,
      "▁end,": 4775,
      "▁obey": 4776,
      "▁relation": 4777,
      "▁busy": 4778,
      "▁husband's": 4779,
      "▁guilty": 4780,
      "ounc": 4781,
      "▁Your": 4782,
      "▁church,": 4783,
      "▁deput": 4784,
      "▁cases": 4785,
      "▁existence": 4786,
      "▁months": 4787,
      "▁firmly": 4788,
      "▁anxious": 4789,
      "▁slept": 4790,
      "▁sacr": 4791,
      "▁delicate": 4792,
      "▁wishes": 4793,
      "▁Temple": 4794,
      "▁wondered": 4795,
      "▁Gryph": 4796,
      "-like": 4797,
      "come": 4798,
      "ike": 4799,
      "mitted": 4800,
      "rim": 4801,
      "uit": 4802,
      "uke": 4803,
      "~,": 4804,
      "▁task": 4805,
      "inced": 4806,
      "▁wretched": 4807,
      "▁hind": 4808,
      "▁mud": 4809,
      "▁thunder": 4810,
      "▁lord": 4811,
      "▁pra": 4812,
      "oted": 4813,
      "▁gh": 4814,
      "▁Tour": 4815,
      "▁stiff": 4816,
      "ille,": 4817,
      "ally.": 4818,
      "▁sum": 4819,
      "ard.": 4820,
      "ress.": 4821,
      "ourgeois": 4822,
      "▁intent": 4823,
      "▁worn": 4824,
      "▁feat": 4825,
      "apter": 4826,
      "▁bride": 4827,
      "▁weight": 4828,
      "▁weary": 4829,
      "plic": 4830,
      "▁Virg": 4831,
      "▁'Is": 4832,
      "ish,": 4833,
      "▁contact": 4834,
      "ful.": 4835,
      "abbit": 4836,
      "▁desper": 4837,
      "▁me,'": 4838,
      "ian,": 4839,
      "ians": 4840,
      "▁answer.": 4841,
      "▁silk": 4842,
      "▁orders": 4843,
      "▁Grub": 4844,
      "▁continue": 4845,
      "▁swear": 4846,
      "▁darkness": 4847,
      "▁approach": 4848,
      "▁XV": 4849,
      "▁greet": 4850,
      "▁merry": 4851,
      "▁badly": 4852,
      "▁doctor,": 4853,
      "▁landown": 4854,
      "duce": 4855,
      "▁wooden": 4856,
      "▁ceas": 4857,
      "▁England": 4858,
      "▁writing": 4859,
      "▁lips.": 4860,
      "▁Queen": 4861,
      "▁organ": 4862,
      "▁gradually": 4863,
      "▁Lowood": 4864,
      "bly": 4865,
      "ger": 4866,
      "hus": 4867,
      "rade": 4868,
      "ôt": 4869,
      "hel": 4870,
      "▁wra": 4871,
      "▁bore": 4872,
      "▁bail": 4873,
      "▁civ": 4874,
      "▁craw": 4875,
      "▁mix": 4876,
      "▁pin": 4877,
      "▁pant": 4878,
      "▁pick": 4879,
      "▁paint": 4880,
      "▁reb": 4881,
      "'s.": 4882,
      "used,": 4883,
      "▁like,": 4884,
      "osition": 4885,
      "▁go.": 4886,
      "▁ago,": 4887,
      "▁prove": 4888,
      "▁rock": 4889,
      "▁usher": 4890,
      "▁desk": 4891,
      "▁consult": 4892,
      "▁entering": 4893,
      "▁slipped": 4894,
      "▁attack": 4895,
      "▁arm,": 4896,
      "▁\"Are": 4897,
      "▁(w": 4898,
      "▁replied.": 4899,
      "▁husband.": 4900,
      "▁Oblonsky's": 4901,
      "▁sincere": 4902,
      "▁sister,": 4903,
      "▁assumed": 4904,
      "▁footman": 4905,
      "▁sunsh": 4906,
      "▁independ": 4907,
      "▁gaze": 4908,
      "▁tower": 4909,
      "▁previous": 4910,
      "▁trembled": 4911,
      "▁encour": 4912,
      "▁dragged": 4913,
      "▁introduced": 4914,
      "▁mingled": 4915,
      "▁melancholy": 4916,
      "▁Charmol": 4917,
      "-sh": 4918,
      "aved": 4919,
      "▁tiny": 4920,
      "▁somb": 4921,
      "isc": 4922,
      "▁caut": 4923,
      "▁mov": 4924,
      "▁hed": 4925,
      "▁pot": 4926,
      "▁picked": 4927,
      "▁incess": 4928,
      "▁rent": 4929,
      "▁sav": 4930,
      "▁stret": 4931,
      "ading": 4932,
      "urd": 4933,
      "▁shel": 4934,
      "▁Hôt": 4935,
      "▁me!\"": 4936,
      "▁shape": 4937,
      "▁Bo": 4938,
      "ed,'": 4939,
      "▁jack": 4940,
      "ast,": 4941,
      "▁Wh": 4942,
      "▁Ph": 4943,
      "orted": 4944,
      "▁unless": 4945,
      "umph": 4946,
      "▁claim": 4947,
      "▁then?\"": 4948,
      "▁During": 4949,
      "▁Ven": 4950,
      "▁smell": 4951,
      "▁pride": 4952,
      "▁doorkeeper": 4953,
      "▁\"Where": 4954,
      "▁'Well": 4955,
      "teenth": 4956,
      "▁well-": 4957,
      "▁scattered": 4958,
      "▁greatly": 4959,
      "▁\"Th": 4960,
      "▁served": 4961,
      "▁voices": 4962,
      "ock,": 4963,
      "▁retreat": 4964,
      "▁everything.": 4965,
      "▁friend,": 4966,
      "▁persons": 4967,
      "▁Alice.": 4968,
      "▁secure": 4969,
      "fully,": 4970,
      "▁paused": 4971,
      "▁natur": 4972,
      "ceiving": 4973,
      "▁promise": 4974,
      "▁driven": 4975,
      "▁exclaimed,": 4976,
      "▁examined": 4977,
      "▁efforts": 4978,
      "▁case,": 4979,
      "▁Again": 4980,
      "▁affairs": 4981,
      "▁escaped": 4982,
      "▁violent": 4983,
      "▁murmured": 4984,
      "▁explanation": 4985,
      "▁building": 4986,
      "▁torture": 4987,
      "▁staircase": 4988,
      "▁accompanied": 4989,
      "▁accustomed": 4990,
      "▁absorbed": 4991,
      "▁Vasenka": 4992,
      "▁Steve": 4993,
      "fr": 4994,
      "rehe": 4995,
      "▁bought": 4996,
      "itable": 4997,
      "▁cord": 4998,
      "▁fight": 4999,
      "▁to.": 5000,
      "▁loving": 5001,
      "▁bending": 5002,
      "▁ep": 5003,
      "▁wasn't": 5004,
      "▁her:": 5005,
      "▁safe": 5006,
      "▁aside": 5007,
      "▁'Y": 5008,
      "▁she.": 5009,
      "▁AN": 5010,
      "ill,": 5011,
      "▁me!'": 5012,
      "▁May": 5013,
      "▁nois": 5014,
      "--he": 5015,
      "▁Pot": 5016,
      "▁Pope": 5017,
      "▁what's": 5018,
      "▁couldn't": 5019,
      "onsense": 5020,
      "▁OF": 5021,
      "▁weep": 5022,
      "▁disag": 5023,
      "▁everyone": 5024,
      "▁days,": 5025,
      "▁nevertheless": 5026,
      "▁open,": 5027,
      "▁once.": 5028,
      "▁wax": 5029,
      "▁Therefore": 5030,
      "▁Grève": 5031,
      "▁anything,": 5032,
      "▁'All": 5033,
      "▁sword": 5034,
      "▁curios": 5035,
      "▁calcul": 5036,
      "▁similar": 5037,
      "▁forgiven": 5038,
      "▁possible,": 5039,
      "▁letters": 5040,
      "▁breathing": 5041,
      "▁money,": 5042,
      "ences": 5043,
      "▁Quasimodo,": 5044,
      "▁chair,": 5045,
      "▁convinced": 5046,
      "▁belonged": 5047,
      "▁hidden": 5048,
      "▁indifference": 5049,
      "▁Turtle": 5050,
      "▁search": 5051,
      "▁recollect": 5052,
      "▁degree": 5053,
      "▁represent": 5054,
      "gius": 5055,
      "▁Helen": 5056,
      "▁Meanwhile,": 5057,
      "▁good-nat": 5058,
      "▁extraordinary": 5059,
      "▁farther": 5060,
      "▁excellent": 5061,
      "▁Duches": 5062,
      "AN": 5063,
      "cess,": 5064,
      "eve": 5065,
      "rate": 5066,
      "ves.": 5067,
      "▁hated": 5068,
      "▁hint": 5069,
      "▁hither": 5070,
      "▁ban": 5071,
      "▁bishop": 5072,
      "▁came,": 5073,
      "▁lover": 5074,
      "or's": 5075,
      "ory.": 5076,
      "ot,": 5077,
      "et.": 5078,
      "▁not.": 5079,
      "▁aspect": 5080,
      "▁stu": 5081,
      "▁sty": 5082,
      "alf": 5083,
      "▁forb": 5084,
      "▁sees": 5085,
      "▁share": 5086,
      "▁shown": 5087,
      "▁shining": 5088,
      "▁sof": 5089,
      "▁killed": 5090,
      "ility,": 5091,
      "ants,": 5092,
      "▁upright": 5093,
      "aging": 5094,
      "--t": 5095,
      "▁unknown": 5096,
      "▁worst": 5097,
      "▁\"I'm": 5098,
      "▁First": 5099,
      "th,": 5100,
      "▁contem": 5101,
      "▁descri": 5102,
      "▁people.": 5103,
      "▁repuls": 5104,
      "▁though,": 5105,
      "▁swall": 5106,
      "▁myself.": 5107,
      "▁speak,": 5108,
      "▁raise": 5109,
      "▁inval": 5110,
      "▁sounded": 5111,
      "▁priest.": 5112,
      "overn": 5113,
      "▁deeply": 5114,
      "▁touching": 5115,
      "▁mouth,": 5116,
      "▁gallop": 5117,
      "▁hatred": 5118,
      "▁centre": 5119,
      "▁ridicul": 5120,
      "▁quarrel": 5121,
      "▁tenderness": 5122,
      "▁formerly": 5123,
      "▁hurriedly": 5124,
      "▁moral": 5125,
      "▁Ark": 5126,
      "▁stirred": 5127,
      "▁medit": 5128,
      "agger": 5129,
      "▁motionless": 5130,
      "▁pavement": 5131,
      "▁gesture": 5132,
      "▁Sometimes": 5133,
      "▁fanci": 5134,
      "▁tumult": 5135,
      "▁elder": 5136,
      "emoiselle": 5137,
      "▁ribb": 5138,
      "AD": 5139,
      "io": 5140,
      "kward": 5141,
      "ming": 5142,
      "▁tree": 5143,
      "▁tick": 5144,
      "▁sin": 5145,
      "▁bourgeois": 5146,
      "ities,": 5147,
      "▁fol": 5148,
      "ass.": 5149,
      "▁narr": 5150,
      "▁us.": 5151,
      "▁upper": 5152,
      "▁assem": 5153,
      "▁rank": 5154,
      "aya": 5155,
      "▁attend": 5156,
      "ach,": 5157,
      "illy": 5158,
      "▁franc": 5159,
      "▁frank": 5160,
      "▁sole": 5161,
      "▁aloud": 5162,
      "ement,": 5163,
      "--you": 5164,
      "▁univers": 5165,
      "▁Oud": 5166,
      "▁amuse": 5167,
      "▁Flem": 5168,
      "▁But,": 5169,
      "▁adop": 5170,
      "▁removed": 5171,
      "wards,": 5172,
      "▁much,": 5173,
      "▁much.": 5174,
      "▁Thus": 5175,
      "▁child.": 5176,
      "▁marsh": 5177,
      "▁ordinary": 5178,
      "sky.": 5179,
      "▁lady,": 5180,
      "▁question.": 5181,
      "▁business,": 5182,
      "▁instinct": 5183,
      "▁affect": 5184,
      "▁family,": 5185,
      "fully.": 5186,
      "▁'No": 5187,
      "▁conversation,": 5188,
      "▁conversation.": 5189,
      "▁incomp": 5190,
      "▁triumph": 5191,
      "▁repeat": 5192,
      "▁itself,": 5193,
      "▁sides": 5194,
      "▁visitors": 5195,
      "-looking": 5196,
      "▁gallery": 5197,
      "▁disappoint": 5198,
      "▁bringing": 5199,
      "▁archdeacon,": 5200,
      "▁demon": 5201,
      "▁therefore,": 5202,
      "▁colour": 5203,
      "▁fifty": 5204,
      "▁resolved": 5205,
      "▁witness": 5206,
      "▁annoy": 5207,
      "▁battle": 5208,
      "▁Notre−Dame,": 5209,
      "▁Sergius": 5210,
      "▁Mikhaylovna": 5211,
      "▁neglect": 5212,
      "▁roubles": 5213,
      "▁hospit": 5214,
      "▁pronounced": 5215,
      "▁freedom": 5216,
      "▁Mahiet": 5217,
      "▁dining-room": 5218,
      "▁Oudard": 5219,
      "hod": 5220,
      "iod": 5221,
      "men,": 5222,
      "▁wip": 5223,
      "reci": 5224,
      "▁bag": 5225,
      "▁cave": 5226,
      "▁mort": 5227,
      "▁fate": 5228,
      "▁press": 5229,
      "ane,": 5230,
      "lev": 5231,
      "▁beard": 5232,
      "▁gather": 5233,
      "▁that?\"": 5234,
      "▁ug": 5235,
      "ion;": 5236,
      "▁stone,": 5237,
      "▁race": 5238,
      "acity": 5239,
      "▁sell": 5240,
      "▁said;": 5241,
      "▁Sc": 5242,
      "uses": 5243,
      "▁viv": 5244,
      "e.'": 5245,
      "▁qual": 5246,
      "own,": 5247,
      "▁Go": 5248,
      "▁trut": 5249,
      "▁Ry": 5250,
      "▁ways": 5251,
      "▁Though": 5252,
      "ances,": 5253,
      "▁knees,": 5254,
      "▁Châte": 5255,
      "▁arm.": 5256,
      "▁reput": 5257,
      "▁work.": 5258,
      "▁country.": 5259,
      "▁individ": 5260,
      "▁Stah": 5261,
      "▁God!": 5262,
      "▁wife's": 5263,
      "▁angri": 5264,
      "▁cold,": 5265,
      "ounce": 5266,
      "▁Gringoire.": 5267,
      "▁join": 5268,
      "▁closely": 5269,
      "▁excuse": 5270,
      "▁useless": 5271,
      "▁considerable": 5272,
      "▁imagined": 5273,
      "▁puzz": 5274,
      "▁\"Let": 5275,
      "▁\"Yes.\"": 5276,
      "▁material": 5277,
      "▁soldiers": 5278,
      "▁worthy": 5279,
      "▁request": 5280,
      "▁miles": 5281,
      "▁closer": 5282,
      "▁regarded": 5283,
      "▁shoes": 5284,
      "▁murmur": 5285,
      "▁laughter": 5286,
      "▁conceal": 5287,
      "▁reproach": 5288,
      "▁dissatisf": 5289,
      "▁Bürstner": 5290,
      "▁hollow": 5291,
      "▁velvet": 5292,
      "▁Colon": 5293,
      "▁superior": 5294,
      "▁deputy": 5295,
      "▁Hôtel": 5296,
      "▁Arkady": 5297,
      "AT": 5298,
      "row,": 5299,
      "so,": 5300,
      "uz": 5301,
      "▁bord": 5302,
      "▁cav": 5303,
      "▁thou": 5304,
      "▁threat": 5305,
      "▁low,": 5306,
      "▁locked": 5307,
      "ar.": 5308,
      "▁rum": 5309,
      "▁Abb": 5310,
      "▁frag": 5311,
      "▁frock": 5312,
      "il.": 5313,
      "pended": 5314,
      "▁vac": 5315,
      "▁La": 5316,
      "▁orn": 5317,
      "▁Would": 5318,
      "▁Well": 5319,
      "▁Par": 5320,
      "▁managed": 5321,
      "▁moreover,": 5322,
      "▁trous": 5323,
      "ers;": 5324,
      "▁seeking": 5325,
      "▁Eur": 5326,
      "▁blushing": 5327,
      "▁off.": 5328,
      "▁coat,": 5329,
      "▁consol": 5330,
      "▁crack": 5331,
      "▁enthus": 5332,
      "bert": 5333,
      "▁lovely": 5334,
      "▁happy,": 5335,
      "▁reply.": 5336,
      "▁Tom.": 5337,
      "▁round,": 5338,
      "▁lighted": 5339,
      "▁relief": 5340,
      "▁brother.": 5341,
      "▁activ": 5342,
      "▁trees,": 5343,
      "▁awkward": 5344,
      "▁'Of": 5345,
      "▁enough,": 5346,
      "▁together.": 5347,
      "▁officer": 5348,
      "▁lawyer,": 5349,
      "▁foreign": 5350,
      "▁France": 5351,
      "▁difficulties": 5352,
      "▁Rochester's": 5353,
      "▁buried": 5354,
      "▁evident": 5355,
      "▁ground,": 5356,
      "▁'Don't": 5357,
      "▁smooth": 5358,
      "▁spectacle": 5359,
      "▁failed": 5360,
      "▁acquaintance": 5361,
      "▁demanded": 5362,
      "▁Notre−Dame": 5363,
      "▁sufficient": 5364,
      "▁descended": 5365,
      "▁execution": 5366,
      "▁prospect": 5367,
      "▁Presently": 5368,
      "▁brilliant": 5369,
      "▁furniture": 5370,
      "▁\"'Tis": 5371,
      "▁enthusi": 5372,
      "-he": 5373,
      "bout": 5374,
      "cked": 5375,
      "min": 5376,
      "uv": 5377,
      "ythe": 5378,
      "▁tied": 5379,
      "▁hol": 5380,
      "▁bored": 5381,
      "iter": 5382,
      "▁cook": 5383,
      "▁mult": 5384,
      "orse": 5385,
      "▁pir": 5386,
      "anz": 5387,
      "arnt": 5388,
      "ott": 5389,
      "seigneur": 5390,
      "▁it!'": 5391,
      "▁rever": 5392,
      "▁TO": 5393,
      "ali": 5394,
      "▁him!": 5395,
      "▁is.": 5396,
      "amb": 5397,
      "riet": 5398,
      "▁alive": 5399,
      "▁learnt": 5400,
      "▁manage": 5401,
      "▁uns": 5402,
      "▁fee": 5403,
      "▁trif": 5404,
      "▁anywhere": 5405,
      "ept": 5406,
      "udden": 5407,
      "▁blank": 5408,
      "▁proof": 5409,
      "▁percept": 5410,
      "▁Those": 5411,
      "▁scr": 5412,
      "▁scythe": 5413,
      "▁because,": 5414,
      "igned": 5415,
      "▁'Ah,": 5416,
      "▁years,": 5417,
      "▁supper": 5418,
      "▁Thatcher": 5419,
      "▁discour": 5420,
      "▁discover": 5421,
      "▁walls,": 5422,
      "▁directed": 5423,
      "▁father's": 5424,
      "▁edifice": 5425,
      "▁least,": 5426,
      "▁method": 5427,
      "ificant": 5428,
      "▁acquired": 5429,
      "▁kingdom": 5430,
      "▁spirits": 5431,
      "▁slowly,": 5432,
      "▁dead,": 5433,
      "▁remembering": 5434,
      "▁contrary": 5435,
      "▁colle": 5436,
      "▁collect": 5437,
      "▁column": 5438,
      "▁weeks": 5439,
      "▁fastened": 5440,
      "▁architecture": 5441,
      "▁mentioned": 5442,
      "▁balust": 5443,
      "▁couple": 5444,
      "▁hideous": 5445,
      "▁Span": 5446,
      "▁Block": 5447,
      "▁telegr": 5448,
      "▁citiz": 5449,
      "▁bailiff": 5450,
      "▁civil": 5451,
      "▁contempl": 5452,
      "IS": 5453,
      "OU": 5454,
      "▁Z": 5455,
      "▁ice": 5456,
      "▁tit": 5457,
      "▁sed": 5458,
      "▁sang": 5459,
      "rem": 5460,
      "eds": 5461,
      "▁crying": 5462,
      "ing;": 5463,
      "▁dar": 5464,
      "ashing": 5465,
      "▁lack": 5466,
      "▁lod": 5467,
      "orter": 5468,
      "anct": 5469,
      "▁nonsense": 5470,
      "▁haven": 5471,
      "lebr": 5472,
      "▁be.": 5473,
      "▁gun": 5474,
      "▁game": 5475,
      "▁gives": 5476,
      "ider": 5477,
      "▁ease": 5478,
      "▁eternal": 5479,
      "▁whil": 5480,
      "▁onto": 5481,
      "▁you:": 5482,
      "▁re-": 5483,
      "▁saved": 5484,
      "▁Tell": 5485,
      "ades": 5486,
      "▁him?": 5487,
      "▁she's": 5488,
      "▁antic": 5489,
      "e,'": 5490,
      "▁island": 5491,
      "▁shri": 5492,
      "▁Sudden": 5493,
      "ppen": 5494,
      "▁lives": 5495,
      "usted": 5496,
      "ages,": 5497,
      "▁novel": 5498,
      "▁level": 5499,
      "▁Pap": 5500,
      "▁quiver": 5501,
      "▁Gl": 5502,
      "▁Goth": 5503,
      "▁Govern": 5504,
      "▁sport": 5505,
      "▁cloth": 5506,
      "▁club": 5507,
      "▁others.": 5508,
      "▁over.": 5509,
      "▁grate": 5510,
      "▁eye,": 5511,
      "▁downstair": 5512,
      "▁throwing": 5513,
      "▁period": 5514,
      "▁come.": 5515,
      "▁scen": 5516,
      "▁something.": 5517,
      "▁\"This": 5518,
      "▁partly": 5519,
      "▁marked": 5520,
      "▁right.": 5521,
      "▁silent,": 5522,
      "▁yet,": 5523,
      "▁'An": 5524,
      "▁careless": 5525,
      "▁large,": 5526,
      "▁guilt": 5527,
      "▁indic": 5528,
      "▁breaking": 5529,
      "-book": 5530,
      "▁foot,": 5531,
      "▁stead": 5532,
      "▁soul.": 5533,
      "▁\"Don't": 5534,
      "▁else.": 5535,
      "▁ruined": 5536,
      "▁landl": 5537,
      "▁kissing": 5538,
      "▁candles": 5539,
      "▁daughter,": 5540,
      "▁celebr": 5541,
      "▁\"They": 5542,
      "▁recognize": 5543,
      "▁\"Be": 5544,
      "▁Ivanich": 5545,
      "ONS": 5546,
      "▁engaged": 5547,
      "▁mystery": 5548,
      "▁penet": 5549,
      "▁Coppen": 5550,
      "▁Alexandrovich": 5551,
      "▁astonished": 5552,
      "▁parents": 5553,
      "▁intimate": 5554,
      "▁afternoon": 5555,
      "▁absolutely": 5556,
      "▁Marshal": 5557,
      "▁speech": 5558,
      "▁Guillaume": 5559,
      "▁features": 5560,
      "▁Grubach": 5561,
      "▁sombre": 5562,
      "▁good-natured": 5563,
      "▁truth,": 5564,
      "▁individual": 5565,
      "▁anticip": 5566,
      "-one": 5567,
      "ces,": 5568,
      "iqu": 5569,
      "long": 5570,
      "ling,": 5571,
      "led.": 5572,
      "liv": 5573,
      "▁wel": 5574,
      "▁hit": 5575,
      "erve": 5576,
      "▁cop": 5577,
      "▁fem": 5578,
      "▁thresh": 5579,
      "asing": 5580,
      "▁na": 5581,
      "▁inward": 5582,
      "▁ga": 5583,
      "▁ec": 5584,
      "▁ecc": 5585,
      "▁store": 5586,
      "▁'that": 5587,
      "ooped": 5588,
      "illing": 5589,
      "▁frame": 5590,
      "▁shade": 5591,
      "rop": 5592,
      "▁soot": 5593,
      "rived": 5594,
      "▁death,": 5595,
      "▁chos": 5596,
      "▁Ber": 5597,
      "▁also,": 5598,
      "▁LE": 5599,
      "ieved": 5600,
      "▁knife": 5601,
      "ource": 5602,
      "--not": 5603,
      "▁jaw": 5604,
      "au,": 5605,
      "▁unb": 5606,
      "▁Gates": 5607,
      "▁tra": 5608,
      "▁trick": 5609,
      "▁now.\"": 5610,
      "▁brain": 5611,
      "▁branc": 5612,
      "resses": 5613,
      "▁plough": 5614,
      "▁Rabbit": 5615,
      "▁Duke": 5616,
      "▁proc": 5617,
      "▁appoint": 5618,
      "▁things.": 5619,
      "▁word.": 5620,
      "▁here.\"": 5621,
      "▁letting": 5622,
      "▁comprehe": 5623,
      "▁arms.": 5624,
      "attering": 5625,
      "▁ended": 5626,
      "▁household": 5627,
      "▁obv": 5628,
      "▁mother.": 5629,
      "▁advice": 5630,
      "▁steps,": 5631,
      "▁soup": 5632,
      "▁\"Mr.": 5633,
      "▁sisters": 5634,
      "▁hurry": 5635,
      "▁repeating": 5636,
      "▁repeated,": 5637,
      "let,": 5638,
      "▁\"Did": 5639,
      "▁artic": 5640,
      "together": 5641,
      "▁position,": 5642,
      "▁troubled": 5643,
      "▁acquitt": 5644,
      "▁Before": 5645,
      "▁driving": 5646,
      "▁sprang": 5647,
      "▁Bovary,": 5648,
      "▁gypsy,": 5649,
      "▁observ": 5650,
      "▁burnt": 5651,
      "▁supervis": 5652,
      "▁Homais,": 5653,
      "▁birds": 5654,
      "▁maintain": 5655,
      "▁mysterious": 5656,
      "▁widow": 5657,
      "▁becomes": 5658,
      "▁coffee": 5659,
      "▁distinguish": 5660,
      "▁stopped,": 5661,
      "▁precise": 5662,
      "rehensible": 5663,
      "▁depths": 5664,
      "▁constantly": 5665,
      "▁manufacturer": 5666,
      "▁haven't": 5667,
      "▁Gateshead": 5668,
      "AL": 5669,
      "cast": 5670,
      "~!": 5671,
      "▁wret": 5672,
      "▁theatre": 5673,
      "▁huge": 5674,
      "▁bree": 5675,
      "itive": 5676,
      "▁mant": 5677,
      "▁toss": 5678,
      "▁dre": 5679,
      "▁dil": 5680,
      "▁damp": 5681,
      "▁lone": 5682,
      "ories": 5683,
      "anna": 5684,
      "▁inh": 5685,
      "▁beast": 5686,
      "▁beating": 5687,
      "▁that?": 5688,
      "▁you!\"": 5689,
      "▁stuff": 5690,
      "▁ate": 5691,
      "chant": 5692,
      "▁sobb": 5693,
      "▁society": 5694,
      "ulated": 5695,
      "ation;": 5696,
      "▁Pont": 5697,
      "▁unl": 5698,
      "▁loose": 5699,
      "▁Our": 5700,
      "▁handed": 5701,
      "ile,": 5702,
      "ovsk": 5703,
      "▁offended": 5704,
      "▁imper": 5705,
      "cles": 5706,
      "▁gets": 5707,
      "▁serve": 5708,
      "▁'To": 5709,
      "▁drank": 5710,
      "▁horr": 5711,
      "▁horse,": 5712,
      "▁friends,": 5713,
      "▁interf": 5714,
      "▁maybe": 5715,
      "▁considering": 5716,
      "▁street,": 5717,
      "▁streets": 5718,
      "▁action": 5719,
      "▁rested": 5720,
      "▁Once": 5721,
      "▁inside": 5722,
      "▁skin": 5723,
      "▁sounds": 5724,
      "▁along,": 5725,
      "▁answered,": 5726,
      "▁edific": 5727,
      "▁Princess,": 5728,
      "▁Paris.": 5729,
      "▁uncomfort": 5730,
      "▁pati": 5731,
      "▁imagin": 5732,
      "▁\"Come": 5733,
      "▁spiritual": 5734,
      "▁towers": 5735,
      "▁prince,": 5736,
      "▁proceeded": 5737,
      "▁separated": 5738,
      "▁choice": 5739,
      "▁bonnet": 5740,
      "▁circumstances": 5741,
      "▁pursued": 5742,
      "▁earnest": 5743,
      "▁documents": 5744,
      "▁condemned": 5745,
      "▁Pierre": 5746,
      "▁magnific": 5747,
      "▁Georg": 5748,
      "▁lantern": 5749,
      "▁unusual": 5750,
      "▁Potter": 5751,
      "▁whilst": 5752,
      ").": 5753,
      "back": 5754,
      "bted": 5755,
      "pired": 5756,
      "puk": 5757,
      "rated": 5758,
      "uced": 5759,
      "▁tempt": 5760,
      "ins,": 5761,
      "in's": 5762,
      "▁son,": 5763,
      "▁od": 5764,
      "▁horn": 5765,
      "▁pound": 5766,
      "▁poured": 5767,
      "▁I.": 5768,
      "▁IN": 5769,
      "ids": 5770,
      "▁yard": 5771,
      "ets,": 5772,
      "▁sand": 5773,
      "▁stamp": 5774,
      "▁stocking": 5775,
      "ade,": 5776,
      "▁rate": 5777,
      "▁him,'": 5778,
      "erer": 5779,
      "chan": 5780,
      "chool": 5781,
      "▁me.'": 5782,
      "▁Mess": 5783,
      "▁debt": 5784,
      "▁dear,": 5785,
      "y,\"": 5786,
      "▁wheel": 5787,
      "▁exh": 5788,
      "▁Both": 5789,
      "elp": 5790,
      "▁Lat": 5791,
      "▁Port": 5792,
      "ortion": 5793,
      "▁could,": 5794,
      "▁Good": 5795,
      "▁Oliv": 5796,
      "▁somebody": 5797,
      "ov,": 5798,
      "▁twice": 5799,
      "▁Nik": 5800,
      "▁eyeb": 5801,
      "▁shoulders,": 5802,
      "▁flight": 5803,
      "▁appreci": 5804,
      "arya": 5805,
      "▁strain": 5806,
      "▁two,": 5807,
      "▁serge": 5808,
      "▁mighty": 5809,
      "▁lightly": 5810,
      "▁retired": 5811,
      "▁interp": 5812,
      "▁careful": 5813,
      "▁defect": 5814,
      "▁minutes,": 5815,
      "▁figures": 5816,
      "▁prepar": 5817,
      "▁estate": 5818,
      "▁stairs": 5819,
      "▁contrast": 5820,
      "▁neck,": 5821,
      "▁\"No,\"": 5822,
      "▁animal": 5823,
      "▁'My": 5824,
      "▁cardinal": 5825,
      "▁excitement": 5826,
      "▁connection": 5827,
      "▁connected": 5828,
      "board": 5829,
      "▁XI.": 5830,
      "▁graceful": 5831,
      "▁impatient": 5832,
      "▁physic": 5833,
      "▁elbow": 5834,
      "▁Univers": 5835,
      "▁shuddered": 5836,
      "ributed": 5837,
      "▁meadow": 5838,
      "▁Court": 5839,
      "▁Tristan": 5840,
      "▁disagree": 5841,
      "▁Suddenly": 5842,
      "pukh": 5843,
      "-up": 5844,
      "The": 5845,
      "_,": 5846,
      "aur": 5847,
      "een": 5848,
      "ge.": 5849,
      "tt": 5850,
      "▁test": 5851,
      "▁apr": 5852,
      "▁science": 5853,
      "nde": 5854,
      "▁bos": 5855,
      "ised,": 5856,
      "▁fer": 5857,
      "▁fier": 5858,
      "ons,": 5859,
      "▁lap": 5860,
      "▁luck": 5861,
      "▁lines": 5862,
      "otted": 5863,
      "▁bearing": 5864,
      "▁gate": 5865,
      "▁gone,": 5866,
      "▁rendered": 5867,
      "▁stones": 5868,
      "▁roused": 5869,
      "▁'K": 5870,
      "acious": 5871,
      "▁seen,": 5872,
      "▁Had": 5873,
      "▁Hanna": 5874,
      "▁me?'": 5875,
      "▁external": 5876,
      "▁wholly": 5877,
      "--s": 5878,
      "▁comrad": 5879,
      "▁impl": 5880,
      "▁project": 5881,
      "▁thoughts,": 5882,
      "▁Felic": 5883,
      "udge": 5884,
      "▁offend": 5885,
      "▁'I'm": 5886,
      "▁'Where": 5887,
      "▁Ann": 5888,
      "▁old,": 5889,
      "▁began,": 5890,
      "▁look.": 5891,
      "▁arm-chair": 5892,
      "▁repent": 5893,
      "▁endure": 5894,
      "▁emer": 5895,
      "▁oursel": 5896,
      "▁(the": 5897,
      "▁surve": 5898,
      "▁windows,": 5899,
      "▁deliber": 5900,
      "▁morning.": 5901,
      "▁indign": 5902,
      "▁boy,": 5903,
      "▁children.": 5904,
      "▁illum": 5905,
      "▁midnight": 5906,
      "▁realized": 5907,
      "▁built": 5908,
      "duct": 5909,
      "▁\"Come,": 5910,
      "▁crowded": 5911,
      "▁dinner,": 5912,
      "itude,": 5913,
      "▁arrange": 5914,
      "▁hastened": 5915,
      "▁temper": 5916,
      "▁eleven": 5917,
      "▁Claud": 5918,
      "▁captain,": 5919,
      "▁\"For": 5920,
      "▁govern": 5921,
      "▁value": 5922,
      "▁mounted": 5923,
      "▁surround": 5924,
      "▁information": 5925,
      "▁communic": 5926,
      "▁concealed": 5927,
      "▁wandered": 5928,
      "▁language": 5929,
      "▁sympathy": 5930,
      "▁withdrew": 5931,
      "▁recluse": 5932,
      "▁Gothic": 5933,
      "▁threshold": 5934,
      "pukhovsk": 5935,
      "-and": 5936,
      "kin": 5937,
      "~.": 5938,
      "▁ach": 5939,
      "▁sway": 5940,
      "▁sne": 5941,
      "oust": 5942,
      "itor": 5943,
      "▁hell": 5944,
      "▁dang": 5945,
      "▁done.": 5946,
      "▁dress,": 5947,
      "as!": 5948,
      "ase,": 5949,
      "▁non": 5950,
      "▁gig": 5951,
      "idable": 5952,
      "vert": 5953,
      "urb": 5954,
      "▁rush": 5955,
      "▁him.\"": 5956,
      "ays": 5957,
      "▁Such": 5958,
      "▁Mason": 5959,
      "ries": 5960,
      "ant.": 5961,
      "ulse": 5962,
      "▁choose": 5963,
      "▁Perhaps": 5964,
      "▁mans": 5965,
      "oph": 5966,
      "▁takes": 5967,
      "y.'": 5968,
      "▁plung": 5969,
      "▁plans": 5970,
      "▁places": 5971,
      "▁De": 5972,
      "▁Dmit": 5973,
      "▁Each": 5974,
      "▁print": 5975,
      "▁coarse": 5976,
      "▁ma'": 5977,
      "▁turns": 5978,
      "te−": 5979,
      "▁passed,": 5980,
      "▁let's": 5981,
      "▁slip": 5982,
      "▁complex": 5983,
      "▁armed": 5984,
      "▁courage": 5985,
      "▁teach": 5986,
      "▁silently": 5987,
      "▁There's": 5988,
      "▁friendship": 5989,
      "▁year,": 5990,
      "▁\"Now,": 5991,
      "▁\"Here": 5992,
      "▁instr": 5993,
      "▁kindly": 5994,
      "▁sir;": 5995,
      "▁tears.": 5996,
      "▁Emma.": 5997,
      "▁indef": 5998,
      "▁merri": 5999,
      "▁snat": 6000,
      "▁Huck,": 6001,
      "▁prompt": 6002,
      "▁companion": 6003,
      "▁forgetting": 6004,
      "▁disappear": 6005,
      "▁shadows": 6006,
      "▁papers": 6007,
      "▁\"Yes": 6008,
      "▁rapt": 6009,
      "▁Moscow,": 6010,
      "▁declared": 6011,
      "▁religion": 6012,
      "▁Rouen": 6013,
      "▁Serpukhovsk": 6014,
      "▁descend": 6015,
      "▁rolled": 6016,
      "▁Coict": 6017,
      "▁blew": 6018,
      "▁improve": 6019,
      "▁frequently": 6020,
      "▁apparently": 6021,
      "▁journey": 6022,
      "▁abandoned": 6023,
      "▁extremely": 6024,
      "body,": 6025,
      "▁Europe": 6026,
      "▁ecst": 6027,
      "00": 6028,
      "RE": 6029,
      "eav": 6030,
      "ia,": 6031,
      "sing": 6032,
      "vent": 6033,
      "woman": 6034,
      "▁tap": 6035,
      "▁cere": 6036,
      "▁cure": 6037,
      "▁city,": 6038,
      "▁medi": 6039,
      "▁tore": 6040,
      "▁dom": 6041,
      "▁lux": 6042,
      "▁pink": 6043,
      "▁bew": 6044,
      "▁gen": 6045,
      "idd": 6046,
      "▁sack": 6047,
      "▁hadn't": 6048,
      "▁stool": 6049,
      "▁Are": 6050,
      "ainted": 6051,
      "▁shaw": 6052,
      "▁shake": 6053,
      "rog": 6054,
      "▁social": 6055,
      "▁Sams": 6056,
      "▁degr": 6057,
      "ustri": 6058,
      "▁ven": 6059,
      "▁vic": 6060,
      "ement.": 6061,
      "--my": 6062,
      "▁spare": 6063,
      "▁clam": 6064,
      "▁tale": 6065,
      "▁proved": 6066,
      "▁El": 6067,
      "▁bliss": 6068,
      "akened": 6069,
      "▁glit": 6070,
      "▁justice": 6071,
      "▁thing.": 6072,
      "▁Any": 6073,
      "▁entertain": 6074,
      "▁thinks": 6075,
      "▁feels": 6076,
      "▁please,": 6077,
      "▁own,": 6078,
      "▁while,": 6079,
      "▁carved": 6080,
      "▁endeav": 6081,
      "▁drinking": 6082,
      "ograp": 6083,
      "▁chees": 6084,
      "▁sooner": 6085,
      "▁understand.": 6086,
      "▁points": 6087,
      "▁perspir": 6088,
      "▁matter,": 6089,
      "▁gibb": 6090,
      "▁\"St": 6091,
      "▁decide": 6092,
      "▁insist": 6093,
      "▁invit": 6094,
      "▁sentiment": 6095,
      "▁angel": 6096,
      "▁smiled.": 6097,
      "▁dark,": 6098,
      "▁tears,": 6099,
      "▁fire.": 6100,
      "▁uncle,": 6101,
      "▁bellring": 6102,
      "▁school,": 6103,
      "▁veil": 6104,
      "▁'So": 6105,
      "▁death.": 6106,
      "▁preparing": 6107,
      "▁prevented": 6108,
      "▁remains": 6109,
      "▁horses,": 6110,
      "▁conditions": 6111,
      "▁comfortable": 6112,
      "▁Alexander": 6113,
      "▁milk": 6114,
      "▁military": 6115,
      "▁anxiety": 6116,
      "▁asleep.": 6117,
      "▁separate": 6118,
      "▁XXX": 6119,
      "▁modest": 6120,
      "▁extrem": 6121,
      "▁Rouault": 6122,
      "▁dawn": 6123,
      "▁pretended": 6124,
      "▁cruel": 6125,
      "▁protect": 6126,
      "mission": 6127,
      "▁frequent": 6128,
      "▁possibility": 6129,
      "▁cheerful": 6130,
      "▁14": 6131,
      "▁revealed": 6132,
      "▁majesty": 6133,
      "▁progress": 6134,
      "▁advanced": 6135,
      "▁capital": 6136,
      "▁unfortunate": 6137,
      "▁Clopin": 6138,
      "▁Bohem": 6139,
      "▁reputation": 6140,
      "-pl": 6141,
      "Qu": 6142,
      "com": 6143,
      "iest": 6144,
      "off": 6145,
      "rom": 6146,
      "rich": 6147,
      "ued": 6148,
      "with": 6149,
      "work": 6150,
      "▁ward": 6151,
      "▁cell,": 6152,
      "▁moust": 6153,
      "▁fant": 6154,
      "▁due": 6155,
      "▁dumb": 6156,
      "▁ple": 6157,
      "▁pardon": 6158,
      "iding": 6159,
      "stri": 6160,
      "▁rene": 6161,
      "ceiv": 6162,
      "▁Ah!": 6163,
      "ainte−": 6164,
      "▁Their": 6165,
      "▁fruit": 6166,
      "▁shru": 6167,
      "▁Sat": 6168,
      "ore,": 6169,
      "▁doz": 6170,
      "▁libr": 6171,
      "▁would,": 6172,
      "iece": 6173,
      "istic": 6174,
      "▁jump": 6175,
      "▁there;": 6176,
      "▁leav": 6177,
      "umbled": 6178,
      "onscious": 6179,
      "▁Oh": 6180,
      "▁wept": 6181,
      "▁Rivers": 6182,
      "▁longed": 6183,
      "▁glov": 6184,
      "▁flut": 6185,
      "▁days.": 6186,
      "tended": 6187,
      "▁conscience": 6188,
      "▁room;": 6189,
      "ival": 6190,
      "▁attached": 6191,
      "▁seriously": 6192,
      "▁recom": 6193,
      "▁drunk": 6194,
      "▁light,": 6195,
      "▁(for": 6196,
      "▁better,": 6197,
      "▁form,": 6198,
      "▁else,": 6199,
      "▁suddenly,": 6200,
      "▁instance,": 6201,
      "▁acted": 6202,
      "▁actions": 6203,
      "▁supposed": 6204,
      "▁pale,": 6205,
      "▁anguish": 6206,
      "▁illness": 6207,
      "▁torn": 6208,
      "awy": 6209,
      "▁lawyers": 6210,
      "▁faç": 6211,
      "▁later,": 6212,
      "▁schoolroom": 6213,
      "▁burden": 6214,
      "▁joyous": 6215,
      "▁Peter": 6216,
      "▁wood,": 6217,
      "▁ground.": 6218,
      "▁divided": 6219,
      "▁portion": 6220,
      "▁\"Your": 6221,
      "▁slightest": 6222,
      "▁exception": 6223,
      "▁proceedings": 6224,
      "▁avoided": 6225,
      "▁striking": 6226,
      "▁changing": 6227,
      "▁struggle": 6228,
      "▁liberty": 6229,
      "▁cruelt": 6230,
      "▁inclined": 6231,
      "▁physical": 6232,
      "▁folded": 6233,
      "▁distinguished": 6234,
      "▁Shcherbatsk": 6235,
      "▁vigorous": 6236,
      "▁countenance": 6237,
      "▁determined": 6238,
      "▁names": 6239,
      "▁otherwise": 6240,
      "▁thoroughly": 6241,
      "▁naturally": 6242,
      "▁incomprehensible": 6243,
      "▁feeble": 6244,
      "▁moustache": 6245,
      ":--": 6246,
      "KY": 6247,
      "LL": 6248,
      "ges,": 6249,
      "ious.": 6250,
      "lier": 6251,
      "mper": 6252,
      "rough": 6253,
      "w,": 6254,
      "yl": 6255,
      "▁2": 6256,
      "hetic": 6257,
      "▁son.": 6258,
      "rell": 6259,
      "▁oak": 6260,
      "ery.": 6261,
      "▁fest": 6262,
      "▁diver": 6263,
      "▁lately": 6264,
      "▁pall": 6265,
      "anim": 6266,
      "▁egg": 6267,
      "stead": 6268,
      "▁render": 6269,
      "acles": 6270,
      "▁shot": 6271,
      "rob": 6272,
      "▁Sainte−": 6273,
      "ulpt": 6274,
      "▁wheels": 6275,
      "▁exha": 6276,
      "▁altogether": 6277,
      "our.": 6278,
      "istr": 6279,
      "osure": 6280,
      "--y": 6281,
      "▁leaf": 6282,
      "▁Pil": 6283,
      "▁Polly": 6284,
      "▁intol": 6285,
      "▁whenever": 6286,
      "▁tru": 6287,
      "▁now;": 6288,
      "▁clung": 6289,
      "assad": 6290,
      "▁Dorm": 6291,
      "▁dismiss": 6292,
      "cipl": 6293,
      "▁daylight": 6294,
      "▁goodness": 6295,
      "▁specially": 6296,
      "▁crushed": 6297,
      "ancois": 6298,
      "▁sculpt": 6299,
      "▁greatest": 6300,
      "ives,": 6301,
      "▁Chapter": 6302,
      "▁part,": 6303,
      "▁drown": 6304,
      "▁light.": 6305,
      "−−the": 6306,
      "▁address": 6307,
      "▁woman's": 6308,
      "▁current": 6309,
      "▁painting": 6310,
      "▁capt": 6311,
      "▁invest": 6312,
      "▁invited": 6313,
      "▁defence": 6314,
      "▁beauty,": 6315,
      "▁anger": 6316,
      "▁smiling.": 6317,
      "▁officers": 6318,
      "▁admired": 6319,
      "▁example": 6320,
      "▁carriage,": 6321,
      "▁towers,": 6322,
      "▁pieces": 6323,
      "▁movements": 6324,
      "▁usual,": 6325,
      "▁Jane?\"": 6326,
      "▁hopes": 6327,
      "▁hastily": 6328,
      "▁leading": 6329,
      "▁murd": 6330,
      "▁Jehan,": 6331,
      "▁harness": 6332,
      "▁intellect": 6333,
      "▁religious": 6334,
      "▁dangerous": 6335,
      "▁'Let": 6336,
      "▁ambition": 6337,
      "▁flying": 6338,
      "▁err": 6339,
      "▁tempor": 6340,
      "▁acknowled": 6341,
      "▁chimney": 6342,
      "▁independent": 6343,
      "▁eyebrow": 6344,
      "IC": 6345,
      "eem": 6346,
      "ls,": 6347,
      "liness": 6348,
      "mos": 6349,
      "nes": 6350,
      "▁taught": 6351,
      "▁av": 6352,
      "incial": 6353,
      "▁sire": 6354,
      "eding": 6355,
      "▁bull": 6356,
      "▁bald": 6357,
      "▁cab": 6358,
      "▁muff": 6359,
      "esp": 6360,
      "▁ling": 6361,
      "▁lock": 6362,
      "an't": 6363,
      "▁whip": 6364,
      "ldom": 6365,
      "▁\"he": 6366,
      "▁\"what": 6367,
      "ir,": 6368,
      "▁stif": 6369,
      "▁races": 6370,
      "rose": 6371,
      "▁exagger": 6372,
      "▁va": 6373,
      "arest": 6374,
      "▁nostri": 6375,
      "ittee": 6376,
      "--no": 6377,
      "▁Pests": 6378,
      "olt": 6379,
      "▁tax": 6380,
      "▁tail": 6381,
      "▁disgr": 6382,
      "▁longer,": 6383,
      "▁Ed": 6384,
      "▁himself;": 6385,
      "▁Jup": 6386,
      "▁shoulder,": 6387,
      "▁contract": 6388,
      "▁control": 6389,
      "▁Three": 6390,
      "▁here?\"": 6391,
      "▁rooms": 6392,
      "▁knee": 6393,
      "▁slipp": 6394,
      "▁attach": 6395,
      "▁own.": 6396,
      "▁wake": 6397,
      "▁end.": 6398,
      "ians,": 6399,
      "▁obtain": 6400,
      "▁obsc": 6401,
      "▁understand,": 6402,
      "▁better.": 6403,
      "▁formidable": 6404,
      "▁Grand": 6405,
      "▁Grace": 6406,
      "▁Grish": 6407,
      "▁relat": 6408,
      "▁settle": 6409,
      "▁painter,": 6410,
      "▁refuse": 6411,
      "▁\"Of": 6412,
      "▁\"On": 6413,
      "▁\"Oh!\"": 6414,
      "ugust": 6415,
      "▁hour,": 6416,
      "▁\"Monsieur": 6417,
      "▁stopping": 6418,
      "▁interests": 6419,
      "▁assured": 6420,
      "liver": 6421,
      "▁lowered": 6422,
      "▁breathed": 6423,
      "▁sleeping": 6424,
      "▁absurd": 6425,
      "▁calm,": 6426,
      "▁dead.": 6427,
      "▁speaking,": 6428,
      "▁convuls": 6429,
      "▁collar": 6430,
      "▁\"By": 6431,
      "▁observe": 6432,
      "▁hoping": 6433,
      "▁character,": 6434,
      "▁married,": 6435,
      "▁reflected": 6436,
      "▁tone.": 6437,
      "▁despair,": 6438,
      "▁clouds": 6439,
      "▁medic": 6440,
      "▁instantly": 6441,
      "▁sufficiently": 6442,
      "natural": 6443,
      "▁moonlight": 6444,
      "▁supported": 6445,
      "▁overcome": 6446,
      "▁tormented": 6447,
      "▁jealousy": 6448,
      "▁history": 6449,
      "▁same,": 6450,
      "conom": 6451,
      "▁loves": 6452,
      "▁reminded": 6453,
      "▁destroy": 6454,
      "▁pupil": 6455,
      "▁corridor": 6456,
      "▁nervous": 6457,
      "▁invalid": 6458,
      "▁caval": 6459,
      "▁chosen": 6460,
      "AY": 6461,
      "awn": 6462,
      "cing": 6463,
      "pire": 6464,
      "▁z": 6465,
      "hes.": 6466,
      "▁aven": 6467,
      "▁sanct": 6468,
      "▁bask": 6469,
      "it.": 6470,
      "itution": 6471,
      "▁cough": 6472,
      "▁mare": 6473,
      "▁mush": 6474,
      "▁mourn": 6475,
      "▁hen": 6476,
      "▁heat": 6477,
      "▁dig": 6478,
      "▁dwell": 6479,
      "▁thie": 6480,
      "▁thus,": 6481,
      "▁naked": 6482,
      "▁beam": 6483,
      "▁gain": 6484,
      "▁gown": 6485,
      "imes,": 6486,
      "▁eating": 6487,
      "▁econom": 6488,
      "▁her?": 6489,
      "▁\"Very": 6490,
      "irmed": 6491,
      "▁Ad": 6492,
      "illef": 6493,
      "▁seldom": 6494,
      "▁Har": 6495,
      "▁Hare": 6496,
      "▁Sawy": 6497,
      "▁butt": 6498,
      "▁Mid": 6499,
      "blem": 6500,
      "▁altered": 6501,
      "eling": 6502,
      "▁no-one": 6503,
      "--d": 6504,
      "▁jer": 6505,
      "'tis": 6506,
      "▁ard": 6507,
      "▁trap": 6508,
      "▁Oliver": 6509,
      "▁imit": 6510,
      "▁Ro": 6511,
      "▁prod": 6512,
      "▁long.": 6513,
      "▁grasp": 6514,
      "▁'In": 6515,
      "▁flag": 6516,
      "▁flood": 6517,
      "▁flushed": 6518,
      "▁appe": 6519,
      "▁strict": 6520,
      "▁Another": 6521,
      "ocr": 6522,
      "▁childhood": 6523,
      "▁parted": 6524,
      "▁read,": 6525,
      "▁reply,": 6526,
      "▁water.": 6527,
      "▁answer,": 6528,
      "▁point,": 6529,
      "▁years.": 6530,
      "▁ladder": 6531,
      "▁'Now": 6532,
      "▁servant,": 6533,
      "▁sentence": 6534,
      "▁directly": 6535,
      "▁ill,": 6536,
      "▁stepping": 6537,
      "▁charge": 6538,
      "▁Emma's": 6539,
      "▁purse": 6540,
      "▁Lefr": 6541,
      "▁yourself,": 6542,
      "▁Petrit": 6543,
      "ground": 6544,
      "▁Koznyshev.": 6545,
      "▁disput": 6546,
      "▁frightful": 6547,
      "▁apolog": 6548,
      "▁trembl": 6549,
      "▁vibr": 6550,
      "▁wonderful": 6551,
      "▁Prince,": 6552,
      "▁paying": 6553,
      "▁remarkable": 6554,
      "▁'Come": 6555,
      "▁announced": 6556,
      "▁concerned": 6557,
      "▁passionate": 6558,
      "▁Eyre,": 6559,
      "▁mercy": 6560,
      "▁treated": 6561,
      "▁tranquil": 6562,
      "▁respond": 6563,
      "▁ambassad": 6564,
      "▁increased": 6565,
      "rehens": 6566,
      "▁virtue": 6567,
      "▁climb": 6568,
      "▁abandon": 6569,
      "▁to−day": 6570,
      "▁railway": 6571,
      "▁rosy": 6572,
      "▁district": 6573,
      "▁dishon": 6574,
      "▁Stahl": 6575,
      "▁mushroom": 6576,
      "!−−": 6577,
      ".]": 6578,
      "IR": 6579,
      "hic": 6580,
      "hand": 6581,
      "iot": 6582,
      "mn": 6583,
      "son": 6584,
      "s?\"": 6585,
      "s!\"": 6586,
      "ved.": 6587,
      "▁ti": 6588,
      "▁tip": 6589,
      "hether": 6590,
      "▁wings": 6591,
      "▁hunch": 6592,
      "erved": 6593,
      "▁fasc": 6594,
      "▁today": 6595,
      "▁tomb": 6596,
      "ened,": 6597,
      "ones,": 6598,
      "▁dirty": 6599,
      "▁pred": 6600,
      "▁bead": 6601,
      "▁wash": 6602,
      "▁washing": 6603,
      "▁it!\"": 6604,
      "stem": 6605,
      "▁hero": 6606,
      "ioned": 6607,
      "▁rode": 6608,
      "▁him.'": 6609,
      "▁atmos": 6610,
      "▁see.": 6611,
      "▁mechan": 6612,
      "rib": 6613,
      "▁deceive": 6614,
      "ilight": 6615,
      "▁chat": 6616,
      "▁chape": 6617,
      "▁Because": 6618,
      "▁lies": 6619,
      "▁alt": 6620,
      "ieve": 6621,
      "▁Cap": 6622,
      "▁out;": 6623,
      "▁Pe": 6624,
      "▁been,": 6625,
      "▁union": 6626,
      "▁did.": 6627,
      "▁brass": 6628,
      "▁we're": 6629,
      "▁ami": 6630,
      "▁clad": 6631,
      "osty": 6632,
      "eved": 6633,
      "▁disord": 6634,
      "uding": 6635,
      "▁twilight": 6636,
      "▁thanks": 6637,
      "▁eye.": 6638,
      "cip": 6639,
      "▁begged": 6640,
      "ments,": 6641,
      "▁design": 6642,
      "▁consent": 6643,
      "▁consist": 6644,
      "▁where,": 6645,
      "necess": 6646,
      "▁happy.": 6647,
      "lesi": 6648,
      "▁\"All": 6649,
      "▁younger": 6650,
      "soci": 6651,
      "▁submit": 6652,
      "▁delay": 6653,
      "▁delivered": 6654,
      "▁infant": 6655,
      "▁final": 6656,
      "▁needs": 6657,
      "▁lifting": 6658,
      "ensive": 6659,
      "▁Societ": 6660,
      "plex": 6661,
      "ception": 6662,
      "▁mine,": 6663,
      "▁monstr": 6664,
      "▁God's": 6665,
      "▁wall.": 6666,
      "▁sister's": 6667,
      "▁sister-in-law": 6668,
      "▁small,": 6669,
      "fortune": 6670,
      "▁steep": 6671,
      "inkled": 6672,
      "▁joy.": 6673,
      "▁earlier": 6674,
      "▁easier": 6675,
      "▁fear,": 6676,
      "▁furious": 6677,
      "▁entered,": 6678,
      "▁absence": 6679,
      "▁fingers,": 6680,
      "▁imagination": 6681,
      "▁misfortune": 6682,
      "▁hall-p": 6683,
      "▁immediate": 6684,
      "▁ceil": 6685,
      "▁crowd,": 6686,
      "▁symb": 6687,
      "▁figure,": 6688,
      "▁recognised": 6689,
      "▁Without": 6690,
      "▁earth,": 6691,
      "▁Russia": 6692,
      "▁possession": 6693,
      "▁judges": 6694,
      "▁blood,": 6695,
      "▁resolute": 6696,
      "▁animated": 6697,
      "▁chamber,": 6698,
      "▁asleep,": 6699,
      "▁'Come,": 6700,
      "▁architecture,": 6701,
      "▁farming": 6702,
      "▁XXV": 6703,
      "▁length,": 6704,
      "▁modern": 6705,
      "▁equally": 6706,
      "▁body.": 6707,
      "▁faces,": 6708,
      "▁fatig": 6709,
      "▁counter": 6710,
      "▁teeth.": 6711,
      "▁reason,": 6712,
      "▁highest": 6713,
      "▁halted": 6714,
      "▁waistc": 6715,
      "▁abruptly": 6716,
      "▁Yonville": 6717,
      "▁neighbor": 6718,
      "▁Frollo": 6719,
      "▁Greek": 6720,
      "▁desperate": 6721,
      "▁Papa": 6722,
      "▁grateful": 6723,
      "▁travers": 6724,
      "▁Georgiana": 6725,
      "▁Porte": 6726,
      "▁Nikol": 6727,
      "▁disagreeable": 6728,
      "▁Hannah": 6729,
      "▁Lefrancois": 6730,
      "▁atmosp": 6731,
      "▁symbol": 6732,
      "?...": 6733,
      "UR": 6734,
      "ares": 6735,
      "c.": 6736,
      "cle": 6737,
      "gu": 6738,
      "ique": 6739,
      "kaya": 6740,
      "pill": 6741,
      "ple,": 6742,
      "ys,": 6743,
      "èche": 6744,
      "▁vers": 6745,
      "▁odd": 6746,
      "▁bust": 6747,
      "▁camp": 6748,
      "▁fish": 6749,
      "▁fanc": 6750,
      "▁der": 6751,
      "▁dance": 6752,
      "▁domin": 6753,
      "▁loss": 6754,
      "▁pig": 6755,
      "▁paris": 6756,
      "ars,": 6757,
      "▁inner": 6758,
      "▁ge": 6759,
      "iday": 6760,
      "ices,": 6761,
      "▁you!'": 6762,
      "▁releas": 6763,
      "▁\"'tis": 6764,
      "▁not?": 6765,
      "iring": 6766,
      "▁stout": 6767,
      "▁stuck": 6768,
      "▁'the": 6769,
      "▁shed": 6770,
      "▁sheet": 6771,
      "amond": 6772,
      "▁alle": 6773,
      "▁do?": 6774,
      "▁conve": 6775,
      "▁exting": 6776,
      "▁Bour": 6777,
      "▁vest": 6778,
      "ements": 6779,
      "ed,\"": 6780,
      "▁outcast": 6781,
      "▁PR": 6782,
      "▁Pal": 6783,
      "▁Poo": 6784,
      "▁brand": 6785,
      "▁plate": 6786,
      "▁again;": 6787,
      "▁Rom": 6788,
      "▁overfl": 6789,
      "▁gray": 6790,
      "▁shouldn't": 6791,
      "▁glor": 6792,
      "▁flash": 6793,
      "▁desert": 6794,
      "▁permit": 6795,
      "▁perplex": 6796,
      "▁compass": 6797,
      "▁\"At": 6798,
      "▁heard,": 6799,
      "▁ends": 6800,
      "▁house;": 6801,
      "▁obedi": 6802,
      "▁(as": 6803,
      "▁person,": 6804,
      "▁holy": 6805,
      "▁calèche": 6806,
      "▁'Have": 6807,
      "▁skirt": 6808,
      "▁hair.": 6809,
      "▁quiet,": 6810,
      "▁letters,": 6811,
      "▁Dolly's": 6812,
      "▁breathe": 6813,
      "▁phras": 6814,
      "▁arrived,": 6815,
      "▁calmly": 6816,
      "▁visitor": 6817,
      "▁nurse,": 6818,
      "▁John,": 6819,
      "▁system": 6820,
      "▁opinions": 6821,
      "▁tower,": 6822,
      "▁concent": 6823,
      "▁neck.": 6824,
      "▁princes": 6825,
      "▁hope,": 6826,
      "▁require": 6827,
      "▁resolution": 6828,
      "▁closing": 6829,
      "▁pulling": 6830,
      "▁officials": 6831,
      "▁slender": 6832,
      "▁risk": 6833,
      "▁privile": 6834,
      "▁\"Just": 6835,
      "▁facult": 6836,
      "▁century,": 6837,
      "▁conclus": 6838,
      "▁boots": 6839,
      "▁tranquill": 6840,
      "▁Alexandrovna": 6841,
      "▁measure": 6842,
      "▁respons": 6843,
      "▁intelligent": 6844,
      "▁contemptuous": 6845,
      "▁confidence": 6846,
      "▁established": 6847,
      "▁original": 6848,
      "▁ghost": 6849,
      "▁wrapped": 6850,
      "▁fancied": 6851,
      "▁bosom": 6852,
      "▁ma'am": 6853,
      "▁Eliz": 6854,
      "cuse": 6855,
      "fall": 6856,
      "then": 6857,
      "was": 6858,
      "zed": 6859,
      "▁ty": 6860,
      "▁tin": 6861,
      "▁tips": 6862,
      "▁aut": 6863,
      "inate": 6864,
      "▁sitt": 6865,
      "▁won": 6866,
      "▁bond": 6867,
      "▁toler": 6868,
      "▁don": 6869,
      "▁thither": 6870,
      "esque": 6871,
      "▁l'": 6872,
      "▁powd": 6873,
      "▁pushing": 6874,
      "arc": 6875,
      "arch": 6876,
      "▁IV": 6877,
      "▁gates": 6878,
      "im,": 6879,
      "iments": 6880,
      "▁white,": 6881,
      "▁that.\"": 6882,
      "sect": 6883,
      "ents,": 6884,
      "▁\"a": 6885,
      "cel": 6886,
      "▁sake,": 6887,
      "▁staring": 6888,
      "▁state,": 6889,
      "▁rig": 6890,
      "▁HAD": 6891,
      "cho": 6892,
      "▁deb": 6893,
      "▁BE": 6894,
      "▁knelt": 6895,
      "▁knock": 6896,
      "▁WAS": 6897,
      "▁quitted": 6898,
      "▁age,": 6899,
      "▁manif": 6900,
      "▁unre": 6901,
      "▁unnecess": 6902,
      "▁Gre": 6903,
      "▁Gerv": 6904,
      "▁feature": 6905,
      "apt": 6906,
      "▁tram": 6907,
      "▁brave": 6908,
      "▁Old": 6909,
      "▁tavern": 6910,
      "▁eyel": 6911,
      "▁remed": 6912,
      "▁flame": 6913,
      "▁good-by": 6914,
      "▁'When": 6915,
      "▁'Why,": 6916,
      "▁crit": 6917,
      "avi": 6918,
      "berry": 6919,
      "▁laz": 6920,
      "▁keen": 6921,
      "▁recovered": 6922,
      "▁tend": 6923,
      "▁teaching": 6924,
      "▁'This": 6925,
      "▁emot": 6926,
      "▁emotion": 6927,
      "▁round.": 6928,
      "▁woman.": 6929,
      "▁surf": 6930,
      "▁handsome,": 6931,
      "▁ever.": 6932,
      "▁setting": 6933,
      "▁\"Have": 6934,
      "▁stream": 6935,
      "▁\"Oh": 6936,
      "▁advance": 6937,
      "▁men.": 6938,
      "▁famous": 6939,
      "▁'On": 6940,
      "▁\"What's": 6941,
      "▁idea,": 6942,
      "▁oppress": 6943,
      "▁sun,": 6944,
      "▁ear,": 6945,
      "▁themselves.": 6946,
      "▁highly": 6947,
      "▁unconscious": 6948,
      "▁extent": 6949,
      "▁mistak": 6950,
      "▁late,": 6951,
      "▁signs": 6952,
      "▁laughing.": 6953,
      "▁Nob": 6954,
      "▁whisk": 6955,
      "▁appears": 6956,
      "▁shouting": 6957,
      "▁clergy": 6958,
      "▁town,": 6959,
      "▁views": 6960,
      "--with": 6961,
      "▁wondering": 6962,
      "▁loudly": 6963,
      "▁Varenka,": 6964,
      "▁delighted": 6965,
      "▁delightful": 6966,
      "▁leaned": 6967,
      "▁self-c": 6968,
      "▁complaint": 6969,
      "▁Besides": 6970,
      "▁attention.": 6971,
      "▁punished": 6972,
      "▁concerning": 6973,
      "▁enterpr": 6974,
      "▁body,": 6975,
      "▁\"Jane,": 6976,
      "▁Veslovsky,": 6977,
      "▁daily": 6978,
      "▁ringing": 6979,
      "▁accompany": 6980,
      "▁stopped.": 6981,
      "▁groan": 6982,
      "▁intervals": 6983,
      "▁upstairs": 6984,
      "▁Yashvin": 6985,
      "▁Phil": 6986,
      "▁Arkadyevna": 6987,
      "▁enthusiasm": 6988,
      "ONSKY": 6989,
      "▁magnificent": 6990,
      "▁Dormouse": 6991,
      "▁Nikolav": 6992,
      "▁atmosphere": 6993,
      "\";": 6994,
      "-de": 6995,
      "-str": 6996,
      "LE": 6997,
      "OM": 6998,
      "OW": 6999,
      "bre": 7000,
      "elf": 7001,
      "ier.": 7002,
      "jali": 7003,
      "nut": 7004,
      "oked": 7005,
      "occ": 7006,
      "ole,": 7007,
      "pri": 7008,
      "▁ic": 7009,
      "▁size": 7010,
      "▁wicked": 7011,
      "▁woke": 7012,
      "res,": 7013,
      "▁hom": 7014,
      "▁hun": 7015,
      "▁hired": 7016,
      "▁by,": 7017,
      "▁bother": 7018,
      "▁fo": 7019,
      "▁fres": 7020,
      "▁fare": 7021,
      "▁he'll": 7022,
      "▁thy": 7023,
      "aska": 7024,
      "▁lest": 7025,
      "▁pian": 7026,
      "▁inev": 7027,
      "▁II": 7028,
      "▁gild": 7029,
      "▁gift": 7030,
      "idence": 7031,
      "ics,": 7032,
      "▁\"_": 7033,
      "▁Trou": 7034,
      "▁rom": 7035,
      "▁'R": 7036,
      "acc": 7037,
      "ifted": 7038,
      "▁Hipp": 7039,
      "▁shocked": 7040,
      "▁Sever": 7041,
      "▁king.": 7042,
      "▁doll": 7043,
      "▁Mil": 7044,
      "▁conven": 7045,
      "▁chain": 7046,
      "▁vit": 7047,
      "▁vap": 7048,
      "ember": 7049,
      "▁Cat": 7050,
      "▁Car": 7051,
      "▁Counc": 7052,
      "▁intend": 7053,
      "▁going,": 7054,
      "umber": 7055,
      "▁now,\"": 7056,
      "▁spl": 7057,
      "▁plac": 7058,
      "▁plenty": 7059,
      "▁thought;": 7060,
      "▁overw": 7061,
      "▁Esh": 7062,
      "▁smart": 7063,
      "▁fled": 7064,
      "▁envelop": 7065,
      "▁Through": 7066,
      "▁cry.": 7067,
      "anced": 7068,
      "▁older": 7069,
      "▁pleasure,": 7070,
      "▁compared": 7071,
      "ition,": 7072,
      "▁marvell": 7073,
      "▁young,": 7074,
      "▁girl.": 7075,
      "▁(he": 7076,
      "ailed": 7077,
      "▁finds": 7078,
      "▁mean,": 7079,
      "▁swept": 7080,
      "▁laws": 7081,
      "▁instruct": 7082,
      "▁rest.": 7083,
      "▁steps.": 7084,
      "▁Still": 7085,
      "ical,": 7086,
      "▁assure": 7087,
      "▁gentleman,": 7088,
      "▁sky,": 7089,
      "ible.": 7090,
      "▁world.": 7091,
      "▁cares": 7092,
      "▁cattle": 7093,
      "▁possible.": 7094,
      "▁France,": 7095,
      "▁court,": 7096,
      "▁letter,": 7097,
      "▁singing": 7098,
      "▁admire": 7099,
      "▁position.": 7100,
      "▁entered.": 7101,
      "▁breath,": 7102,
      "▁useful": 7103,
      "▁rule": 7104,
      "▁hopeless": 7105,
      "▁absent": 7106,
      "▁member": 7107,
      "▁members": 7108,
      "▁carriage.": 7109,
      "▁labor": 7110,
      "▁softly": 7111,
      "▁doctor's": 7112,
      "▁parl": 7113,
      "▁prayer": 7114,
      "▁yes!": 7115,
      "▁cried.": 7116,
      "▁harv": 7117,
      "▁harsh": 7118,
      "▁fifteenth": 7119,
      "▁escap": 7120,
      "▁witch": 7121,
      "▁streets,": 7122,
      "▁liter": 7123,
      "▁attentive": 7124,
      "▁teeth,": 7125,
      "▁floor.": 7126,
      "▁attracted": 7127,
      "▁fatal": 7128,
      "▁cloister": 7129,
      "▁counc": 7130,
      "▁overcoat": 7131,
      "▁carpet": 7132,
      "▁departure": 7133,
      "▁possibly": 7134,
      "▁construct": 7135,
      "ooping": 7136,
      "▁vexed": 7137,
      "▁flowers,": 7138,
      "▁resembled": 7139,
      "▁Province": 7140,
      "▁shooting": 7141,
      "▁fortune,": 7142,
      "▁powers": 7143,
      "▁exchanged": 7144,
      "▁cousin": 7145,
      "▁throat": 7146,
      "▁accomplished": 7147,
      "▁policemen": 7148,
      "▁wedding": 7149,
      "▁totally": 7150,
      "▁Virgin": 7151,
      "▁hitherto": 7152,
      "▁wiped": 7153,
      "▁scrut": 7154,
      "▁darling": 7155,
      "▁plunged": 7156,
      "can": 7157,
      "eur": 7158,
      "go": 7159,
      "ially": 7160,
      "mith": 7161,
      "sue": 7162,
      "~!\"": 7163,
      "▁ing": 7164,
      "▁arose": 7165,
      "▁sout": 7166,
      "▁seni": 7167,
      "▁wo": 7168,
      "▁hath": 7169,
      "▁hat,": 7170,
      "▁buck": 7171,
      "it,": 7172,
      "itut": 7173,
      "ings.": 7174,
      "▁pack": 7175,
      "▁penc": 7176,
      "▁nest": 7177,
      "▁bend": 7178,
      "▁being,": 7179,
      "▁geni": 7180,
      "▁yawn": 7181,
      "▁whither": 7182,
      "▁that,'": 7183,
      "▁ren": 7184,
      "▁reven": 7185,
      "▁reward": 7186,
      "▁her.\"": 7187,
      "▁\"U": 7188,
      "verse": 7189,
      "▁saf": 7190,
      "▁TH": 7191,
      "▁stared": 7192,
      "▁stamm": 7193,
      "alk": 7194,
      "▁rug": 7195,
      "▁him?\"": 7196,
      "▁sheep": 7197,
      "aches": 7198,
      "ooked": 7199,
      "▁is!'": 7200,
      "▁season": 7201,
      "▁seizing": 7202,
      "▁Hence": 7203,
      "▁froz": 7204,
      "▁meal": 7205,
      "▁See": 7206,
      "▁have,": 7207,
      "quis": 7208,
      "anded": 7209,
      "▁cha": 7210,
      "▁chose": 7211,
      "▁Burn": 7212,
      "agne": 7213,
      "▁abst": 7214,
      "▁Land": 7215,
      "▁Laska": 7216,
      "▁nose,": 7217,
      "ation:": 7218,
      "ested": 7219,
      "osed,": 7220,
      "--m": 7221,
      "--p": 7222,
      "▁CON": 7223,
      "▁jur": 7224,
      "▁WH": 7225,
      "oland": 7226,
      "▁worry": 7227,
      "▁now!": 7228,
      "▁spell": 7229,
      "▁Oft": 7230,
      "▁hand;": 7231,
      "▁amount": 7232,
      "angled": 7233,
      "▁RE": 7234,
      "▁displ": 7235,
      "▁Father": 7236,
      "▁grasped": 7237,
      "▁smoot": 7238,
      "▁rope": 7239,
      "▁beggar": 7240,
      "▁apply": 7241,
      "▁appet": 7242,
      "ably,": 7243,
      "▁permission": 7244,
      "▁here,'": 7245,
      "▁complet": 7246,
      "▁attitude": 7247,
      "▁accident": 7248,
      "▁happens": 7249,
      "▁distance,": 7250,
      "▁hearth": 7251,
      "▁lights": 7252,
      "▁lightning": 7253,
      "ogs": 7254,
      "▁confus": 7255,
      "▁Although": 7256,
      "▁painfully": 7257,
      "▁subs": 7258,
      "▁resting": 7259,
      "▁fine,": 7260,
      "▁kind,": 7261,
      "▁humble": 7262,
      "▁awake": 7263,
      "▁insign": 7264,
      "▁\"Miss": 7265,
      "▁invent": 7266,
      "▁nature,": 7267,
      "▁lessons": 7268,
      "▁boys,": 7269,
      "▁answered.": 7270,
      "▁Mademoiselle": 7271,
      "ernal": 7272,
      "▁master's": 7273,
      "▁joke": 7274,
      "▁joy,": 7275,
      "▁devoured": 7276,
      "▁lively": 7277,
      "▁necessity": 7278,
      "▁fury": 7279,
      "▁dressing": 7280,
      "▁arrive": 7281,
      "▁studied": 7282,
      "▁misunder": 7283,
      "▁beautiful,": 7284,
      "▁hungry": 7285,
      "▁moist": 7286,
      "▁fortnight": 7287,
      "▁stronger": 7288,
      "▁divine": 7289,
      "▁opinion,": 7290,
      "▁summoned": 7291,
      "ibly": 7292,
      "▁conviction": 7293,
      "▁previously": 7294,
      "▁proposed": 7295,
      "--what": 7296,
      "▁garden,": 7297,
      "▁spreading": 7298,
      "▁judge,": 7299,
      "▁judgment": 7300,
      "▁Place,": 7301,
      "▁duties": 7302,
      "▁strike": 7303,
      "▁missed": 7304,
      "▁sensation": 7305,
      "▁struggling": 7306,
      "▁cheeks": 7307,
      "▁hostile": 7308,
      "▁porch": 7309,
      "▁century": 7310,
      "▁pretext": 7311,
      "▁tall,": 7312,
      "▁major": 7313,
      "▁yielded": 7314,
      "▁livres": 7315,
      "▁guessed": 7316,
      "cription": 7317,
      "▁satisfaction": 7318,
      "▁Millc": 7319,
      "▁Barbar": 7320,
      "▁Montag": 7321,
      "▁deserted": 7322,
      "▁treasure": 7323,
      "▁Fleur−de−Lys": 7324,
      "▁exercise": 7325,
      "▁rules": 7326,
      "▁sacrifice": 7327,
      "▁dissatisfied": 7328,
      "▁citizens": 7329,
      "▁comprehend": 7330,
      "▁precisely": 7331,
      "▁wretch": 7332,
      "▁lonely": 7333,
      "▁Olivier": 7334,
      "▁ourselves": 7335,
      "▁Dmitrich": 7336,
      "▁Shcherbatskys": 7337,
      "▁intolerable": 7338,
      "▁Pestsov": 7339,
      "▁Robert": 7340,
      "▁tipt": 7341,
      "▁monstrous": 7342,
      "-a": 7343,
      "-day": 7344,
      "VIN": 7345,
      "aired": 7346,
      "press": 7347,
      "tz": 7348,
      "−b": 7349,
      "▁tam": 7350,
      "atthe": 7351,
      "atory": 7352,
      "▁mile": 7353,
      "ens,": 7354,
      "▁heap": 7355,
      "▁he'd": 7356,
      "onn": 7357,
      "▁thre": 7358,
      "ases": 7359,
      "ason,": 7360,
      "▁lust": 7361,
      "▁locks": 7362,
      "orrow,": 7363,
      "▁haun": 7364,
      "▁gird": 7365,
      "idel": 7366,
      "▁ere": 7367,
      "▁waste": 7368,
      "icted": 7369,
      "▁ye": 7370,
      "▁whirl": 7371,
      "▁that;": 7372,
      "▁reject": 7373,
      "▁\"d": 7374,
      "▁\"is": 7375,
      "▁\"to": 7376,
      "▁Tuv": 7377,
      "aling": 7378,
      "▁rot": 7379,
      "▁isol": 7380,
      "▁select": 7381,
      "char": 7382,
      "▁Theod": 7383,
      "▁so;": 7384,
      "▁societ": 7385,
      "▁button": 7386,
      "▁all.\"": 7387,
      "▁Mak": 7388,
      "▁Mama": 7389,
      "▁deceived": 7390,
      "▁chur": 7391,
      "▁champ": 7392,
      "▁excess": 7393,
      "▁Bet": 7394,
      "▁by.": 7395,
      "▁vod": 7396,
      "ourse": 7397,
      "--as": 7398,
      "--or": 7399,
      "▁them:": 7400,
      "▁them.\"": 7401,
      "▁true.": 7402,
      "▁now?\"": 7403,
      "▁clasp": 7404,
      "▁clasped": 7405,
      "▁then.": 7406,
      "▁plump": 7407,
      "▁VI": 7408,
      "▁problem": 7409,
      "▁disd": 7410,
      "▁Fin": 7411,
      "▁glass,": 7412,
      "▁saying.": 7413,
      "▁contented": 7414,
      "▁string": 7415,
      "▁doors,": 7416,
      "▁\"Will": 7417,
      "▁perman": 7418,
      "▁'Who": 7419,
      "▁crou": 7420,
      "▁scrat": 7421,
      "▁began.": 7422,
      "▁\"Tom,": 7423,
      "▁present,": 7424,
      "▁left.": 7425,
      "▁cleared": 7426,
      "ERE": 7427,
      "▁forms": 7428,
      "▁relieved": 7429,
      "▁interior": 7430,
      "▁swim": 7431,
      "▁swell": 7432,
      "▁brother-in-law": 7433,
      "▁seen.": 7434,
      "▁refuge": 7435,
      "▁continued.": 7436,
      "▁indul": 7437,
      "▁lesson": 7438,
      "▁expression,": 7439,
      "ible,": 7440,
      "▁oppressed": 7441,
      "▁devoted": 7442,
      "▁sure,": 7443,
      "▁purple": 7444,
      "▁businessman,": 7445,
      "▁staying": 7446,
      "▁admitted": 7447,
      "▁troubles": 7448,
      "ification": 7449,
      "▁acquainted": 7450,
      "▁corner,": 7451,
      "▁sleep,": 7452,
      "▁pleasure.": 7453,
      "▁dinner.": 7454,
      "▁company,": 7455,
      "▁corp": 7456,
      "▁disposed": 7457,
      "itude.": 7458,
      "▁effort,": 7459,
      "▁\"Look": 7460,
      "▁dear!": 7461,
      "▁propriet": 7462,
      "▁\"Go": 7463,
      "▁affairs,": 7464,
      "▁smoking": 7465,
      "▁verand": 7466,
      "▁magic": 7467,
      "▁creature,": 7468,
      "▁mutual": 7469,
      "▁despair.": 7470,
      "▁Joe's": 7471,
      "▁dragging": 7472,
      "▁risen": 7473,
      "▁maintained": 7474,
      "▁chemist,": 7475,
      "▁favourite": 7476,
      "▁informed": 7477,
      "quette": 7478,
      "▁gleam": 7479,
      "▁consequence": 7480,
      "▁Shcherbatsky": 7481,
      "▁urged": 7482,
      "▁Next": 7483,
      "▁ventured": 7484,
      "▁Bürstn": 7485,
      "▁terms": 7486,
      "import": 7487,
      "▁populace": 7488,
      "▁tightly": 7489,
      "▁pierced": 7490,
      "▁nursery": 7491,
      "▁nodded": 7492,
      "▁incessantly": 7493,
      "▁shelter": 7494,
      "▁Therefore,": 7495,
      "▁Flemish": 7496,
      "▁telegram": 7497,
      "▁acquittal": 7498,
      "▁inhab": 7499,
      "▁Felicite": 7500,
      "▁Serpukhovskoy": 7501,
      "▁shrug": 7502,
      "▁Middle": 7503,
      "▁Tuvache": 7504,
      "-F": 7505,
      "-y": 7506,
      "-ch": 7507,
      "-bl": 7508,
      "OT": 7509,
      "a's": 7510,
      "lass": 7511,
      "oqu": 7512,
      "pap": 7513,
      "tle,": 7514,
      "upp": 7515,
      "vial": 7516,
      "—a": 7517,
      "−c": 7518,
      "▁—": 7519,
      "▁aux": 7520,
      "inal,": 7521,
      "▁ske": 7522,
      "▁sna": 7523,
      "▁wick": 7524,
      "▁bath": 7525,
      "iting": 7526,
      "ators": 7527,
      "▁cass": 7528,
      "▁cage": 7529,
      "▁fires": 7530,
      "▁toile": 7531,
      "lli": 7532,
      "▁pour": 7533,
      "ans,": 7534,
      "utter": 7535,
      "iche": 7536,
      "icious": 7537,
      "▁that,\"": 7538,
      "▁reaching": 7539,
      "▁her.'": 7540,
      "▁with,": 7541,
      "ver,": 7542,
      "▁Tvers": 7543,
      "▁as,": 7544,
      "▁associ": 7545,
      "▁forces": 7546,
      "▁'V": 7547,
      "▁'Very": 7548,
      "▁Ab": 7549,
      "▁is!": 7550,
      "key": 7551,
      "alled": 7552,
      "▁suited": 7553,
      "▁all,'": 7554,
      "us.": 7555,
      "ulous": 7556,
      "elle,": 7557,
      "▁Br": 7558,
      "els,": 7559,
      "▁Lv": 7560,
      "▁Look": 7561,
      "ours": 7562,
      "--b": 7563,
      "▁Cater": 7564,
      "▁or,": 7565,
      "▁jury": 7566,
      "▁Wait": 7567,
      "▁Please": 7568,
      "▁goat,": 7569,
      "▁unlike": 7570,
      "▁Gossip": 7571,
      "anging": 7572,
      "ing,\"": 7573,
      "▁know,'": 7574,
      "▁Rome": 7575,
      "▁Rob": 7576,
      "▁Italy": 7577,
      "▁Dian": 7578,
      "▁Vlas": 7579,
      "▁discipl": 7580,
      "udent": 7581,
      "▁Emper": 7582,
      "▁grant": 7583,
      "▁block": 7584,
      "▁Nor": 7585,
      "▁shoulder.": 7586,
      "▁glimp": 7587,
      "▁flashed": 7588,
      "ity;": 7589,
      "▁day;": 7590,
      "▁time.\"": 7591,
      "▁contained": 7592,
      "▁still.": 7593,
      "▁using": 7594,
      "▁cracked": 7595,
      "▁accent": 7596,
      "▁parts": 7597,
      "▁reader,": 7598,
      "▁sermon": 7599,
      "▁waving": 7600,
      "▁newly": 7601,
      "▁wind,": 7602,
      "▁eyes;": 7603,
      "▁wrath": 7604,
      "▁recover": 7605,
      "▁'Th": 7606,
      "ions;": 7607,
      "▁emin": 7608,
      "▁emper": 7609,
      "▁obtained": 7610,
      "▁girls,": 7611,
      "▁added.": 7612,
      "▁works": 7613,
      "▁interv": 7614,
      "▁fellow,": 7615,
      "▁Alas!": 7616,
      "▁\"You're": 7617,
      "▁affected": 7618,
      "▁affirm": 7619,
      "▁decor": 7620,
      "▁vision": 7621,
      "▁monster": 7622,
      "▁insisted": 7623,
      "▁talk.": 7624,
      "▁invis": 7625,
      "▁sir,\"": 7626,
      "▁enough.": 7627,
      "-box": 7628,
      "▁angle": 7629,
      "▁trivial": 7630,
      "▁art,": 7631,
      "▁uncertain": 7632,
      "▁mistaken": 7633,
      "▁elsewhere": 7634,
      "▁laugh,": 7635,
      "▁drops": 7636,
      "▁legal": 7637,
      "▁legs,": 7638,
      "-col": 7639,
      "▁snipe": 7640,
      "▁women.": 7641,
      "grat": 7642,
      "▁candle,": 7643,
      "▁impossible,": 7644,
      "▁sorce": 7645,
      "▁chairs": 7646,
      "▁polite": 7647,
      "▁gallery,": 7648,
      "▁solid": 7649,
      "▁prepare": 7650,
      "▁learning": 7651,
      "▁subject.": 7652,
      "▁movement,": 7653,
      "INC": 7654,
      "▁superfl": 7655,
      "▁meantime,": 7656,
      "▁village,": 7657,
      "▁wrong,": 7658,
      "▁elev": 7659,
      "▁suspended": 7660,
      "▁scarlet": 7661,
      "▁sleeve": 7662,
      "--they": 7663,
      "▁peasants,": 7664,
      "▁mission": 7665,
      "▁XXI": 7666,
      "▁balcon": 7667,
      "▁porter": 7668,
      "▁attractive": 7669,
      "▁frowning": 7670,
      "▁disappeared.": 7671,
      "▁introduce": 7672,
      "▁bridge": 7673,
      "▁cros": 7674,
      "▁degre": 7675,
      "▁decision": 7676,
      "▁criminal": 7677,
      "▁manner,": 7678,
      "▁persuade": 7679,
      "▁destroyed": 7680,
      "▁sensible": 7681,
      "▁elegant": 7682,
      "▁dazzling": 7683,
      "▁stretching": 7684,
      "▁Venet": 7685,
      "▁epo": 7686,
      "▁ridiculous": 7687,
      "▁adopt": 7688,
      "▁sports": 7689,
      "▁Berthe": 7690,
      "▁LEVIN": 7691,
      "▁branches": 7692,
      "▁procur": 7693,
      "▁Latin": 7694,
      "▁Claude,": 7695,
      "illefou": 7696,
      "▁Philip": 7697,
      "▁Trouillefou": 7698,
      "▁scrutin": 7699,
      "▁Caterpill": 7700,
      "'S": 7701,
      "ST": 7702,
      "ié": 7703,
      "iard": 7704,
      "ma": 7705,
      "met": 7706,
      "nn": 7707,
      "oat,": 7708,
      "pet": 7709,
      "ues,": 7710,
      "will": 7711,
      "yal": 7712,
      "▁&": 7713,
      "▁tas": 7714,
      "▁cred": 7715,
      "▁heed": 7716,
      "▁dy": 7717,
      "lle": 7718,
      "▁lace": 7719,
      "▁lav": 7720,
      "▁III": 7721,
      "▁gained": 7722,
      "▁etern": 7723,
      "step": 7724,
      "▁receiving": 7725,
      "▁\"s": 7726,
      "▁\"if": 7727,
      "▁\"she": 7728,
      "▁\"do": 7729,
      "▁notes": 7730,
      "▁Tourn": 7731,
      "▁Tany": 7732,
      "▁stove": 7733,
      "ales": 7734,
      "urg": 7735,
      "aying": 7736,
      "▁shell": 7737,
      "▁August": 7738,
      "ille.": 7739,
      "▁seat,": 7740,
      "▁shan't": 7741,
      "ros": 7742,
      "▁Sl": 7743,
      "▁Soph": 7744,
      "ctor": 7745,
      "▁sust": 7746,
      "▁Met": 7747,
      "▁Mort": 7748,
      "▁dew": 7749,
      "ility.": 7750,
      "ulate": 7751,
      "▁exper": 7752,
      "▁Binet": 7753,
      "▁one;": 7754,
      "es,\"": 7755,
      "▁He's": 7756,
      "▁Heaven": 7757,
      "isten": 7758,
      "ittered": 7759,
      "--in": 7760,
      "▁lect": 7761,
      "▁Whether": 7762,
      "▁Pro": 7763,
      "▁Pav": 7764,
      "▁archer": 7765,
      "orth": 7766,
      "▁trot": 7767,
      "▁yours": 7768,
      "▁brow,": 7769,
      "▁ON": 7770,
      "▁thence": 7771,
      "▁tables": 7772,
      "▁dislike": 7773,
      "▁overl": 7774,
      "▁overt": 7775,
      "▁royal": 7776,
      "▁shoulders.": 7777,
      "▁glow": 7778,
      "▁glance,": 7779,
      "▁flick": 7780,
      "▁poor,": 7781,
      "▁good.": 7782,
      "▁door;": 7783,
      "orne": 7784,
      "▁\"When": 7785,
      "▁desires": 7786,
      "▁permitted": 7787,
      "ission": 7788,
      "▁Thurs": 7789,
      "▁precious": 7790,
      "anche": 7791,
      "mend": 7792,
      "▁people;": 7793,
      "▁Instead": 7794,
      "man's": 7795,
      "▁behavi": 7796,
      "▁hard,": 7797,
      "▁confusion": 7798,
      "▁confirm": 7799,
      "▁confirmed": 7800,
      "▁swarm": 7801,
      "▁doubted": 7802,
      "▁subst": 7803,
      "▁infer": 7804,
      "▁afford": 7805,
      "▁guest": 7806,
      "▁hour.": 7807,
      "▁Soon": 7808,
      "▁awoke": 7809,
      "▁minister": 7810,
      "▁\"Mad": 7811,
      "▁irres": 7812,
      "▁board": 7813,
      "▁simplic": 7814,
      "bbed": 7815,
      "▁laying": 7816,
      "▁cake": 7817,
      "▁causes": 7818,
      "▁questioning": 7819,
      "▁master.": 7820,
      "▁sunk": 7821,
      "▁despise": 7822,
      "▁red,": 7823,
      "▁Franz": 7824,
      "▁lost,": 7825,
      "▁late.": 7826,
      "▁either.": 7827,
      "▁deeper": 7828,
      "▁money.": 7829,
      "▁dressing-": 7830,
      "▁sleep.": 7831,
      "▁Huckle": 7832,
      "▁crossing": 7833,
      "▁sweep": 7834,
      "▁feet.": 7835,
      "HEN": 7836,
      "▁gallant": 7837,
      "-house": 7838,
      "▁esteem": 7839,
      "▁clerk,": 7840,
      "▁contrad": 7841,
      "▁\"Because": 7842,
      "▁loaded": 7843,
      "▁lawyer's": 7844,
      "▁inquire": 7845,
      "▁Quasimodo.": 7846,
      "▁propose": 7847,
      "▁superst": 7848,
      "▁forward,": 7849,
      "▁bank,": 7850,
      "▁closed,": 7851,
      "▁palm": 7852,
      "▁recalling": 7853,
      "▁complicated": 7854,
      "▁belongs": 7855,
      "▁fields": 7856,
      "▁barely": 7857,
      "▁box,": 7858,
      "▁hiding": 7859,
      "▁attentively": 7860,
      "▁transp": 7861,
      "▁transform": 7862,
      "▁mountain": 7863,
      "ism,": 7864,
      "▁punishment": 7865,
      "▁faithful": 7866,
      "▁properly": 7867,
      "▁property": 7868,
      "▁suppose,": 7869,
      "▁shoe": 7870,
      "▁funer": 7871,
      "▁enjoyed": 7872,
      "▁dares": 7873,
      "▁motionless,": 7874,
      "▁drawing-room,": 7875,
      "▁plainly": 7876,
      "▁agreeable": 7877,
      "▁oneself": 7878,
      "▁elbows": 7879,
      "▁deny": 7880,
      "▁embarrassed": 7881,
      "▁idiot": 7882,
      "▁climbed": 7883,
      "▁energy": 7884,
      "▁condemn": 7885,
      "▁arrangement": 7886,
      "▁birth": 7887,
      "▁ascend": 7888,
      "▁uneasy": 7889,
      "▁radiant": 7890,
      "▁embroidered": 7891,
      "▁mixed": 7892,
      "▁savage": 7893,
      "▁Rym": 7894,
      "▁Château": 7895,
      "▁quivering": 7896,
      "▁naive": 7897,
      "▁ecclesi": 7898,
      "▁dreary": 7899,
      "▁uncomfortable": 7900,
      "▁surveyed": 7901,
      "▁illuminated": 7902,
      "▁gigantic": 7903,
      "▁Samsa": 7904,
      "ograph": 7905,
      "▁fantastic": 7906,
      "▁Harper": 7907,
      "▁hall-porter": 7908,
      "▁PRINC": 7909,
      "▁Hippoly": 7910,
      "▁overwhel": 7911,
      "▁tambour": 7912,
      "'est": 7913,
      "-'": 7914,
      "-le": 7915,
      "-cl": 7916,
      "LY": 7917,
      "NING": 7918,
      "a'": 7919,
      "hot": 7920,
      "have": 7921,
      "mpt": 7922,
      "pers": 7923,
      "uary,": 7924,
      "▁iv": 7925,
      "▁ahead": 7926,
      "▁sarc": 7927,
      "re.": 7928,
      "▁hone": 7929,
      "▁hook": 7930,
      "▁bou": 7931,
      "isp": 7932,
      "ates,": 7933,
      "ating.": 7934,
      "▁mum": 7935,
      "▁mocking": 7936,
      "▁fence": 7937,
      "▁fog": 7938,
      "ench": 7939,
      "ase.": 7940,
      "▁lum": 7941,
      "▁losing": 7942,
      "▁pul": 7943,
      "▁pages": 7944,
      "aries": 7945,
      "▁nation": 7946,
      "▁name.": 7947,
      "▁beck": 7948,
      "▁beaming": 7949,
      "▁echo": 7950,
      "ic.": 7951,
      "iced": 7952,
      "stretched": 7953,
      "▁his.": 7954,
      "▁retain": 7955,
      "▁hers": 7956,
      "▁her,'": 7957,
      "eth": 7958,
      "ethe": 7959,
      "▁notion": 7960,
      "▁'it": 7961,
      "▁attain": 7962,
      "▁issu": 7963,
      "ife,": 7964,
      "▁shore": 7965,
      "▁shock": 7966,
      "▁shiver": 7967,
      "▁soil": 7968,
      "ction": 7969,
      "▁Matthe": 7970,
      "rier": 7971,
      "▁conject": 7972,
      "▁congrat": 7973,
      "▁wheat": 7974,
      "▁chap": 7975,
      "peak": 7976,
      "▁vall": 7977,
      "▁vener": 7978,
      "agement": 7979,
      "agues": 7980,
      "▁Lady": 7981,
      "inded": 7982,
      "--n": 7983,
      "--this": 7984,
      "▁Card": 7985,
      "▁them.'": 7986,
      "▁outstretched": 7987,
      "▁Poor": 7988,
      "▁unnatural": 7989,
      "▁feather": 7990,
      "aping": 7991,
      "▁track": 7992,
      "▁times.": 7993,
      "osef": 7994,
      "▁spire": 7995,
      "▁splas": 7996,
      "▁then,\"": 7997,
      "▁plank": 7998,
      "evi": 7999,
      "▁other's": 8000,
      "place": 8001,
      "▁grass,": 8002,
      "▁bloom": 8003,
      "cies": 8004,
      "▁offering": 8005,
      "▁Jul": 8006,
      "ment;": 8007,
      "▁say:": 8008,
      "action": 8009,
      "▁wanting": 8010,
      "▁nevertheless,": 8011,
      "▁felt,": 8012,
      "▁saw,": 8013,
      "▁Chant": 8014,
      "▁pleasures": 8015,
      "▁attacked": 8016,
      "▁last.": 8017,
      "▁courty": 8018,
      "▁serp": 8019,
      "▁presence.": 8020,
      "▁endured": 8021,
      "▁satin": 8022,
      "▁emph": 8023,
      "▁order,": 8024,
      "▁(I": 8025,
      "▁reluct": 8026,
      "▁friend.": 8027,
      "▁interl": 8028,
      "▁law,": 8029,
      "▁belief": 8030,
      "▁matter.": 8031,
      "▁acting": 8032,
      "▁deliver": 8033,
      "▁capable": 8034,
      "▁monot": 8035,
      "▁talk,": 8036,
      "▁talks": 8037,
      "▁sir?\"": 8038,
      "▁smiling,": 8039,
      "▁direction,": 8040,
      "▁gentlemen,": 8041,
      "▁feelings,": 8042,
      "▁foot.": 8043,
      "▁catching": 8044,
      "▁ear.": 8045,
      "lets": 8046,
      "▁startled": 8047,
      "▁high,": 8048,
      "▁realize": 8049,
      "▁necessary,": 8050,
      "▁redou": 8051,
      "▁bad,": 8052,
      "▁significant": 8053,
      "▁phot": 8054,
      "▁dressed,": 8055,
      "▁joyful": 8056,
      "▁student": 8057,
      "▁strangely": 8058,
      "▁consideration": 8059,
      "▁Huck's": 8060,
      "▁vehic": 8061,
      "▁uttering": 8062,
      "▁moan": 8063,
      "▁solitary": 8064,
      "-hour": 8065,
      "▁summit": 8066,
      "▁Reim": 8067,
      "▁load": 8068,
      "▁tremble": 8069,
      "▁view,": 8070,
      "▁\"Yes;": 8071,
      "▁week,": 8072,
      "▁haste": 8073,
      "▁match": 8074,
      "▁heavily": 8075,
      "▁smoked": 8076,
      "▁prayers": 8077,
      "▁\"Perhaps": 8078,
      "▁Saint−M": 8079,
      "▁dogs": 8080,
      "▁eaten": 8081,
      "▁glasses": 8082,
      "▁created": 8083,
      "▁clothes,": 8084,
      "▁Fairfax,": 8085,
      "▁melted": 8086,
      "▁Petersburg.": 8087,
      "▁strange,": 8088,
      "▁sufferings": 8089,
      "▁sacred": 8090,
      "▁connect": 8091,
      "▁popular": 8092,
      "▁Vasily": 8093,
      "▁conclusion": 8094,
      "▁dancing": 8095,
      "▁coffe": 8096,
      "▁amidst": 8097,
      "▁execut": 8098,
      "▁carpet,": 8099,
      "▁defendant": 8100,
      "▁Leni,": 8101,
      "▁conducted": 8102,
      "▁distinctly": 8103,
      "▁halt": 8104,
      "▁forehead,": 8105,
      "▁occasionally": 8106,
      "-room,": 8107,
      "▁energ": 8108,
      "▁energet": 8109,
      "▁rarely": 8110,
      "▁hyp": 8111,
      "▁developed": 8112,
      "▁opera": 8113,
      "▁dismal": 8114,
      "▁preferred": 8115,
      "▁conquer": 8116,
      "▁anyway,": 8117,
      "▁linen": 8118,
      "▁betrayed": 8119,
      "▁bedside": 8120,
      "▁displeased": 8121,
      "▁labourers": 8122,
      "▁enclosure": 8123,
      "▁Gryphon": 8124,
      "▁landowner": 8125,
      "▁Charmolue": 8126,
      "▁AND": 8127,
      "▁curiosity": 8128,
      "▁Duchess": 8129,
      "▁assembled": 8130,
      "▁ugly": 8131,
      "▁Colonel": 8132,
      "▁stamped": 8133,
      "▁glittering": 8134,
      "▁Satur": 8135,
      "▁truly": 8136,
      "▁basket": 8137,
      "▁responded": 8138,
      "▁extinguished": 8139,
      "▁autumn": 8140,
      "▁vodka": 8141,
      "▁emphas": 8142,
      "-n": 8143,
      "-r": 8144,
      "apped": 8145,
      "cent": 8146,
      "got": 8147,
      "hall": 8148,
      "jud": 8149,
      "lar": 8150,
      "ration": 8151,
      "rase": 8152,
      "sher": 8153,
      "tte": 8154,
      "uy": 8155,
      "use,": 8156,
      "yn": 8157,
      "▁“": 8158,
      "▁--": 8159,
      "▁tu": 8160,
      "▁tid": 8161,
      "ined,": 8162,
      "▁source": 8163,
      "▁theat": 8164,
      "▁bark": 8165,
      "▁bund": 8166,
      "▁billi": 8167,
      "ite.": 8168,
      "isa": 8169,
      "▁came.": 8170,
      "▁mow": 8171,
      "▁mild": 8172,
      "▁mama": 8173,
      "▁fist": 8174,
      "▁tool": 8175,
      "eness,": 8176,
      "▁he;": 8177,
      "only": 8178,
      "▁dense": 8179,
      "▁dirt": 8180,
      "▁of,": 8181,
      "▁lun": 8182,
      "▁log": 8183,
      "▁pity,": 8184,
      "▁purch": 8185,
      "▁piled": 8186,
      "▁net": 8187,
      "▁bee": 8188,
      "▁gossip": 8189,
      "sell": 8190,
      "▁her?\"": 8191,
      "▁\"we": 8192,
      "▁Tost": 8193,
      "▁Take": 8194,
      "▁stooped": 8195,
      "adr": 8196,
      "als,": 8197,
      "urred": 8198,
      "▁ratt": 8199,
      "▁'J": 8200,
      "acon": 8201,
      "ain.": 8202,
      "▁House": 8203,
      "ames": 8204,
      "▁so,'": 8205,
      "▁Sw": 8206,
      "▁Sec": 8207,
      "ess.": 8208,
      "▁sull": 8209,
      "▁all!": 8210,
      "▁Min": 8211,
      "anting": 8212,
      "▁examp": 8213,
      "▁extended": 8214,
      "▁Bourn": 8215,
      "pef": 8216,
      "▁alter": 8217,
      "▁Lond": 8218,
      "▁knave": 8219,
      "▁orph": 8220,
      "▁there.\"": 8221,
      "▁WHEN": 8222,
      "▁Pa": 8223,
      "▁intr": 8224,
      "▁man!": 8225,
      "▁could.": 8226,
      "um,": 8227,
      "uming": 8228,
      "umes": 8229,
      "▁feast": 8230,
      "▁will.": 8231,
      "▁trunk": 8232,
      "ope,": 8233,
      "▁then?": 8234,
      "▁Darya": 8235,
      "▁Four": 8236,
      "▁Nap": 8237,
      "▁prim": 8238,
      "▁Judge": 8239,
      "▁went,": 8240,
      "▁glory": 8241,
      "ments.": 8242,
      "▁seeming": 8243,
      "▁says,": 8244,
      "▁turn,": 8245,
      "abor": 8246,
      "sies": 8247,
      "▁face;": 8248,
      "closed": 8249,
      "tending": 8250,
      "▁crum": 8251,
      "ancing": 8252,
      "▁scorn": 8253,
      "▁screw": 8254,
      "▁lawn": 8255,
      "▁\"Take": 8256,
      "▁lasted": 8257,
      "▁accur": 8258,
      "▁happiness,": 8259,
      "▁text": 8260,
      "▁knew,": 8261,
      "rence": 8262,
      "▁exposed": 8263,
      "▁(and": 8264,
      "▁replaced": 8265,
      "▁follows": 8266,
      "▁'Alex": 8267,
      "iers,": 8268,
      "▁swath": 8269,
      "▁swift": 8270,
      "▁\"Huck": 8271,
      "▁curt": 8272,
      "▁brothers": 8273,
      "▁refer": 8274,
      "▁refus": 8275,
      "▁events": 8276,
      "▁rest,": 8277,
      "▁walk,": 8278,
      "▁kindness": 8279,
      "▁advoc": 8280,
      "▁advised": 8281,
      "▁larger": 8282,
      "▁await": 8283,
      "▁rose.": 8284,
      "▁step.": 8285,
      "▁voice;": 8286,
      "▁inspired": 8287,
      "▁\"Master": 8288,
      "▁irre": 8289,
      "▁service,": 8290,
      "▁dark.": 8291,
      "▁darkness.": 8292,
      "▁nature.": 8293,
      "▁repeated.": 8294,
      "▁sun.": 8295,
      "▁earli": 8296,
      "▁quietly,": 8297,
      "▁We'll": 8298,
      "▁bells": 8299,
      "▁laugh.": 8300,
      "▁phrase": 8301,
      "▁Leon,": 8302,
      "▁depress": 8303,
      "▁corners": 8304,
      "▁studying": 8305,
      "▁dreams": 8306,
      "▁itself.": 8307,
      "▁Petrov": 8308,
      "▁surprise,": 8309,
      "▁sweet,": 8310,
      "▁sight,": 8311,
      "▁solitude": 8312,
      "▁hat.": 8313,
      "▁proportion": 8314,
      "▁mouth.": 8315,
      "▁finished,": 8316,
      "▁weakness": 8317,
      "▁reflection": 8318,
      "▁freely": 8319,
      "▁fields,": 8320,
      "▁objects": 8321,
      "▁road,": 8322,
      "▁results": 8323,
      "▁changes": 8324,
      "▁happiness.": 8325,
      "▁Adele,": 8326,
      "▁hill,": 8327,
      "▁hills": 8328,
      "▁punish": 8329,
      "▁pocket,": 8330,
      "▁stranger,": 8331,
      "▁worse.": 8332,
      "▁petition": 8333,
      "▁concluded": 8334,
      "▁rolling": 8335,
      "▁accepted": 8336,
      "▁boots,": 8337,
      "▁laughter.": 8338,
      "▁curtains": 8339,
      "▁wandering": 8340,
      "▁Ingram,": 8341,
      "▁same.": 8342,
      "▁Temple,": 8343,
      "▁shudder": 8344,
      "▁agitation": 8345,
      "▁mirror": 8346,
      "▁whispering": 8347,
      "▁borne": 8348,
      "▁memories": 8349,
      "ESS": 8350,
      "▁\"there": 8351,
      "▁horizon": 8352,
      "▁ignorant": 8353,
      "▁hedge": 8354,
      "▁White": 8355,
      "▁stupef": 8356,
      "▁style": 8357,
      "▁sofa": 8358,
      "▁ornam": 8359,
      "-hearted": 8360,
      "▁perceptible": 8361,
      "▁balustrade": 8362,
      "▁welcome": 8363,
      "▁physician": 8364,
      "▁bewild": 8365,
      "▁investig": 8366,
      "▁Edward": 8367,
      "▁Jupiter": 8368,
      "▁hunchback": 8369,
      "▁Poole": 8370,
      "occup": 8371,
      "▁Lvov": 8372,
      "▁Metrov": 8373,
      "▁example,": 8374,
      "▁Bournis": 8375,
      ");": 8376,
      "-se": 8377,
      "TH": 8378,
      "c.,": 8379,
      "fol": 8380,
      "hip": 8381,
      "iated": 8382,
      "morrow,": 8383,
      "ses": 8384,
      "te.": 8385,
      "ty.": 8386,
      "upt": 8387,
      "ws": 8388,
      "—the": 8389,
      "▁ais": 8390,
      "inous": 8391,
      "▁sci": 8392,
      "▁wag": 8393,
      "▁thee": 8394,
      "▁owing": 8395,
      "edge": 8396,
      "▁bind": 8397,
      "▁bars": 8398,
      "erous": 8399,
      "isk": 8400,
      "ision": 8401,
      "ato": 8402,
      "ats": 8403,
      "atcher": 8404,
      "▁mould": 8405,
      "▁moor": 8406,
      "▁dine": 8407,
      "▁of.": 8408,
      "ashes": 8409,
      "es:": 8410,
      "orable": 8411,
      "orial": 8412,
      "▁pile": 8413,
      "▁paces": 8414,
      "aries,": 8415,
      "▁norm": 8416,
      "▁haz": 8417,
      "▁haught": 8418,
      "omen": 8419,
      "imon": 8420,
      "imate": 8421,
      "▁why,": 8422,
      "▁\"p": 8423,
      "irond": 8424,
      "▁asp": 8425,
      "urity": 8426,
      "▁for?\"": 8427,
      "▁rab": 8428,
      "▁rings": 8429,
      "▁Ant": 8430,
      "ifice,": 8431,
      "▁shy": 8432,
      "▁Since": 8433,
      "▁sugar": 8434,
      "▁kis": 8435,
      "▁Mer": 8436,
      "▁Most": 8437,
      "▁deem": 8438,
      "ilence": 8439,
      "ush,": 8440,
      "ardly": 8441,
      "▁exter": 8442,
      "▁Bert": 8443,
      "▁up;": 8444,
      "▁altern": 8445,
      "▁voc": 8446,
      "es,'": 8447,
      "are,": 8448,
      "▁knocking": 8449,
      "--c": 8450,
      "--all": 8451,
      "hed,": 8452,
      "▁Wel": 8453,
      "▁arches": 8454,
      "▁aroused": 8455,
      "unte": 8456,
      "▁united": 8457,
      "▁unjust": 8458,
      "▁trad": 8459,
      "▁now?": 8460,
      "▁brist": 8461,
      "▁brushed": 8462,
      "▁am,": 8463,
      "▁afar": 8464,
      "▁placing": 8465,
      "▁Ita": 8466,
      "▁other;": 8467,
      "pled": 8468,
      "▁disli": 8469,
      "▁dischar": 8470,
      "olly,": 8471,
      "▁bloss": 8472,
      "▁peep": 8473,
      "▁remorse": 8474,
      "▁time;": 8475,
      "▁strained": 8476,
      "abin": 8477,
      "ability": 8478,
      "▁\"With": 8479,
      "▁perceive": 8480,
      "▁perpet": 8481,
      "▁Thus,": 8482,
      "▁consented": 8483,
      "▁cry,": 8484,
      "▁reserve": 8485,
      "▁feeling,": 8486,
      "▁parting": 8487,
      "▁people's": 8488,
      "▁might,": 8489,
      "▁calls": 8490,
      "▁tea,": 8491,
      "less.": 8492,
      "▁drap": 8493,
      "▁addition": 8494,
      "ontin": 8495,
      "▁soon,": 8496,
      "▁'As": 8497,
      "▁'Are": 8498,
      "▁behalf": 8499,
      "▁confl": 8500,
      "▁ladd": 8501,
      "▁stood,": 8502,
      "▁refresh": 8503,
      "▁\"One": 8504,
      "▁delir": 8505,
      "▁infinite": 8506,
      "▁suppl": 8507,
      "▁speak.": 8508,
      "▁guests": 8509,
      "▁hoarse": 8510,
      "▁mine.": 8511,
      "▁Joe,": 8512,
      "▁'One": 8513,
      "▁spoil": 8514,
      "▁stands": 8515,
      "▁expression.": 8516,
      "▁caressing": 8517,
      "▁incap": 8518,
      "▁above,": 8519,
      "▁judged": 8520,
      "▁believe,": 8521,
      "▁despised": 8522,
      "▁reality": 8523,
      "▁lawyer.": 8524,
      "▁fearful": 8525,
      "▁fourth": 8526,
      "▁deprived": 8527,
      "▁Princess.": 8528,
      "▁Huck.": 8529,
      "▁\"Ch": 8530,
      "▁\"Can": 8531,
      "▁made,": 8532,
      "▁madame": 8533,
      "▁sixty": 8534,
      "▁ceiling": 8535,
      "▁gyp": 8536,
      "▁examine": 8537,
      "▁companions": 8538,
      "▁squee": 8539,
      "▁\"Le": 8540,
      "▁provided": 8541,
      "▁Myag": 8542,
      "▁gypsy.": 8543,
      "▁remaining": 8544,
      "▁\"Yet": 8545,
      "▁existed": 8546,
      "▁Usher": 8547,
      "▁superin": 8548,
      "▁quarrell": 8549,
      "▁French,": 8550,
      "▁pillow": 8551,
      "▁happened,": 8552,
      "▁Saint−G": 8553,
      "▁habitual": 8554,
      "▁chiefly": 8555,
      "▁followed,": 8556,
      "▁roofs": 8557,
      "▁Justin": 8558,
      "▁outside.": 8559,
      "−Dieu": 8560,
      "▁self-": 8561,
      "▁anxiet": 8562,
      "▁success.": 8563,
      "▁sleev": 8564,
      "▁hotel": 8565,
      "▁principle": 8566,
      "▁Let's": 8567,
      "▁grave,": 8568,
      "▁audi": 8569,
      "▁petty": 8570,
      "▁struggled": 8571,
      "▁Varenka.": 8572,
      "▁houses,": 8573,
      "▁healthy": 8574,
      "▁ago.": 8575,
      "▁searched": 8576,
      "▁searching": 8577,
      "▁tortured": 8578,
      "▁counsel": 8579,
      "▁beaten": 8580,
      "▁laughter,": 8581,
      "▁folds": 8582,
      "▁recollection": 8583,
      "▁basin": 8584,
      "▁agitated": 8585,
      "▁crimson": 8586,
      "▁shrill": 8587,
      "▁briefly": 8588,
      "standing": 8589,
      "▁applause": 8590,
      "▁cigare": 8591,
      "▁soldiers,": 8592,
      "▁Canive": 8593,
      "▁envy": 8594,
      "▁terrified": 8595,
      "▁amazement": 8596,
      "▁adventure": 8597,
      "▁acknowledge": 8598,
      "▁Excell": 8599,
      "▁queer": 8600,
      "▁sacrific": 8601,
      "▁greeted": 8602,
      "▁jacket": 8603,
      "▁\"Thank": 8604,
      "▁forbid": 8605,
      "▁Scatcher": 8606,
      "▁vividly": 8607,
      "▁vacant": 8608,
      "▁activity": 8609,
      "▁Spanish": 8610,
      "▁Government": 8611,
      "▁ecstas": 8612,
      "▁tapest": 8613,
      "▁Bohemian": 8614,
      "▁drowned": 8615,
      "▁Petritsky": 8616,
      "▁waistcoat": 8617,
      "▁manifest": 8618,
      "▁unnecessary": 8619,
      "▁Grete": 8620,
      "▁surface": 8621,
      "▁Nikolavna": 8622,
      "▁verandah": 8623,
      "important": 8624,
      "▁Robin": 8625,
      "▁glimpse": 8626,
      "▁Scatcherd": 8627,
      "-head": 8628,
      "-off": 8629,
      "OO": 8630,
      "Or": 8631,
      "ah,": 8632,
      "aited": 8633,
      "ables": 8634,
      "b,": 8635,
      "cy": 8636,
      "gn": 8637,
      "pon": 8638,
      "uary": 8639,
      "ublic": 8640,
      "▁tar": 8641,
      "▁seren": 8642,
      "▁sinking": 8643,
      "▁wave": 8644,
      "▁waves": 8645,
      "itched": 8646,
      "▁cot": 8647,
      "▁mas": 8648,
      "▁fitted": 8649,
      "▁tooth": 8650,
      "▁dined": 8651,
      "▁lam": 8652,
      "▁line,": 8653,
      "▁ped": 8654,
      "▁nave": 8655,
      "▁gone.": 8656,
      "▁gidd": 8657,
      "uten": 8658,
      "ically,": 8659,
      "sters": 8660,
      "ently,": 8661,
      "▁revi": 8662,
      "▁her!": 8663,
      "▁\"m": 8664,
      "▁with.": 8665,
      "ette": 8666,
      "▁Tush": 8667,
      "▁stom": 8668,
      "▁stage": 8669,
      "▁states": 8670,
      "▁stars": 8671,
      "▁for.": 8672,
      "hern": 8673,
      "▁sem": 8674,
      "kev": 8675,
      "▁shared": 8676,
      "▁butter": 8677,
      "icha": 8678,
      "▁kings": 8679,
      "▁do?'": 8680,
      "▁Mary,": 8681,
      "ries,": 8682,
      "▁constr": 8683,
      "▁myst": 8684,
      "▁chick": 8685,
      "▁Bishop": 8686,
      "▁lived,": 8687,
      "pel": 8688,
      "▁this:": 8689,
      "elaur": 8690,
      "ages.": 8691,
      "estic": 8692,
      "--e": 8693,
      "--if": 8694,
      "--so": 8695,
      "▁out:": 8696,
      "urely": 8697,
      "▁Part": 8698,
      "▁go,'": 8699,
      "▁quit": 8700,
      "▁Gond": 8701,
      "▁trace": 8702,
      "▁timidly": 8703,
      "▁brick": 8704,
      "▁brings": 8705,
      "▁handle": 8706,
      "▁amusing": 8707,
      "ovsky": 8708,
      "▁Its": 8709,
      "▁Djali": 8710,
      "▁\"I've": 8711,
      "▁Vol": 8712,
      "▁VII": 8713,
      "▁prolong": 8714,
      "▁Fool": 8715,
      "▁twisted": 8716,
      "▁little.": 8717,
      "▁blaz": 8718,
      "▁blush": 8719,
      "▁pride,": 8720,
      "▁everybody,": 8721,
      "▁remove": 8722,
      "▁flowed": 8723,
      "▁back;": 8724,
      "▁background": 8725,
      "▁impr": 8726,
      "▁after,": 8727,
      "▁\"Would": 8728,
      "▁desol": 8729,
      "▁Thun": 8730,
      "▁first.": 8731,
      "▁great,": 8732,
      "▁momentary": 8733,
      "▁child!": 8734,
      "▁child's": 8735,
      "ies;": 8736,
      "▁composed": 8737,
      "▁partition": 8738,
      "▁series": 8739,
      "▁\"As": 8740,
      "▁\"Alas": 8741,
      "▁reco": 8742,
      "▁drun": 8743,
      "▁related": 8744,
      "▁relax": 8745,
      "▁behaved": 8746,
      "shop": 8747,
      "▁meanwhile": 8748,
      "▁friend's": 8749,
      "▁swore": 8750,
      "▁curls": 8751,
      "▁helpl": 8752,
      "▁kinds": 8753,
      "▁helping": 8754,
      "▁lift": 8755,
      "▁awhile": 8756,
      "▁awakened": 8757,
      "▁hole": 8758,
      "▁spoilt": 8759,
      "▁irreg": 8760,
      "▁deform": 8761,
      "▁children's": 8762,
      "▁sket": 8763,
      "▁illustri": 8764,
      "▁steal": 8765,
      "ing-t": 8766,
      "▁surely": 8767,
      "▁realised": 8768,
      "▁court.": 8769,
      "▁business.": 8770,
      "▁letter.": 8771,
      "▁course.": 8772,
      "▁admin": 8773,
      "▁phant": 8774,
      "▁pathetic": 8775,
      "▁yourself.": 8776,
      "▁fingers.": 8777,
      "▁Petit": 8778,
      "▁surprise.": 8779,
      "▁snuff": 8780,
      "▁evidence": 8781,
      "▁misfortun": 8782,
      "▁pictured": 8783,
      "▁picture,": 8784,
      "▁utmost": 8785,
      "efleur": 8786,
      "▁police": 8787,
      "▁respected": 8788,
      "▁afraid,": 8789,
      "▁free,": 8790,
      "▁paper,": 8791,
      "▁recognizing": 8792,
      "▁stairs,": 8793,
      "▁occupation": 8794,
      "▁collected": 8795,
      "cribed": 8796,
      "▁Prince.": 8797,
      "▁experienc": 8798,
      "▁satisfy": 8799,
      "▁wild,": 8800,
      "▁cries": 8801,
      "▁strength,": 8802,
      "▁palace": 8803,
      "▁whispered,": 8804,
      "▁empty,": 8805,
      "▁tasted": 8806,
      "▁Sviyazhsky,": 8807,
      "▁earth.": 8808,
      "▁punct": 8809,
      "▁Rodolphe,": 8810,
      "▁discussion": 8811,
      "▁physi": 8812,
      "▁religion,": 8813,
      "▁vanity": 8814,
      "▁statue": 8815,
      "▁philosoph": 8816,
      "▁harmon": 8817,
      "▁confessed": 8818,
      "▁breast.": 8819,
      "▁youth,": 8820,
      "▁newspap": 8821,
      "▁admiration": 8822,
      "▁dependent": 8823,
      "▁authority": 8824,
      "▁error": 8825,
      "▁manner.": 8826,
      "▁persuaded": 8827,
      "▁suggested": 8828,
      "▁sparkling": 8829,
      "▁Yashvin,": 8830,
      "▁'Ex": 8831,
      "▁nails": 8832,
      "▁fulfil": 8833,
      "▁benefit": 8834,
      "▁procession": 8835,
      "▁praise": 8836,
      "▁crawling": 8837,
      "▁Grève,": 8838,
      "▁calculated": 8839,
      "▁described": 8840,
      "▁foli": 8841,
      "▁gathering": 8842,
      "▁ornament": 8843,
      "▁indicating": 8844,
      "▁celebrated": 8845,
      "▁Coppenole": 8846,
      "▁obviously": 8847,
      "▁supervisor": 8848,
      "▁sergeants": 8849,
      "▁preparations": 8850,
      "▁fierce": 8851,
      "▁Annush": 8852,
      "▁Coictier": 8853,
      "▁cheese": 8854,
      "ceived,": 8855,
      "▁jumping": 8856,
      "▁disgrace": 8857,
      "▁Grisha": 8858,
      "▁Sawyer": 8859,
      "▁chapel": 8860,
      "▁glorious": 8861,
      "▁Gervais": 8862,
      "▁gilded": 8863,
      "▁harvest": 8864,
      "▁councill": 8865,
      "-Frou": 8866,
      "▁interview": 8867,
      "-coloured": 8868,
      "▁inferior": 8869,
      "▁Chantefleur": 8870,
      "▁billiard": 8871,
      "▁Welsh": 8872,
      "▁Tushkev": 8873,
      "▁Gondelaur": 8874,
      "!--": 8875,
      "-night": 8876,
      "AC": 8877,
      "NA": 8878,
      "dle,": 8879,
      "hom": 8880,
      "house": 8881,
      "ha,": 8882,
      "ius": 8883,
      "ipping": 8884,
      "mas": 8885,
      "ture": 8886,
      "ye": 8887,
      "yram": 8888,
      "−f": 8889,
      "▁tint": 8890,
      "▁silly": 8891,
      "▁hanged": 8892,
      "▁hoof": 8893,
      "ou-Frou": 8894,
      "ed:": 8895,
      "ating,": 8896,
      "▁coo": 8897,
      "▁cult": 8898,
      "▁cott": 8899,
      "▁fount": 8900,
      "on;": 8901,
      "▁daring": 8902,
      "▁dress.": 8903,
      "▁los": 8904,
      "▁lamb": 8905,
      "▁pil": 8906,
      "▁pool": 8907,
      "▁push": 8908,
      "imm": 8909,
      "ided,": 8910,
      "ident,": 8911,
      "▁on:": 8912,
      "se.": 8913,
      "ere,": 8914,
      "▁AT": 8915,
      "▁Amy": 8916,
      "▁Hence,": 8917,
      "▁Holy": 8918,
      "▁mend": 8919,
      "▁shaken": 8920,
      "▁all;": 8921,
      "▁do?\"": 8922,
      "▁Ma": 8923,
      "▁Many": 8924,
      "rigg": 8925,
      "▁cong": 8926,
      "▁chast": 8927,
      "▁exal": 8928,
      "▁Bou": 8929,
      "▁alive,": 8930,
      "▁vul": 8931,
      "s...": 8932,
      "▁they've": 8933,
      "agn": 8934,
      "▁Last": 8935,
      "▁Like": 8936,
      "▁Kuz": 8937,
      "--f": 8938,
      "astical": 8939,
      "ounding": 8940,
      "▁man;": 8941,
      "olent": 8942,
      "▁unhe": 8943,
      "▁Gener": 8944,
      "▁trun": 8945,
      "▁trait": 8946,
      "▁nowhere": 8947,
      "▁weighed": 8948,
      "▁image": 8949,
      "▁places,": 8950,
      "ovts": 8951,
      "▁Rome,": 8952,
      "▁produce": 8953,
      "▁thoughts.": 8954,
      "▁twink": 8955,
      "▁thanked": 8956,
      "▁begins": 8957,
      "▁flour": 8958,
      "▁appar": 8959,
      "▁apple": 8960,
      "▁beforehand": 8961,
      "▁turned,": 8962,
      "▁impart": 8963,
      "▁impulse": 8964,
      "▁ways,": 8965,
      "▁preced": 8966,
      "▁away;": 8967,
      "▁here,\"": 8968,
      "▁crime": 8969,
      "▁scent": 8970,
      "▁moments,": 8971,
      "▁knee,": 8972,
      "▁slate": 8973,
      "▁compart": 8974,
      "▁\"Ah!\"": 8975,
      "▁beloved": 8976,
      "▁mars": 8977,
      "▁repose": 8978,
      "▁distress": 8979,
      "lessly": 8980,
      "▁hearts": 8981,
      "▁clear,": 8982,
      "▁check": 8983,
      "ertainly": 8984,
      "▁point.": 8985,
      "▁continual": 8986,
      "▁Karenina": 8987,
      "▁\"Never": 8988,
      "▁ever,": 8989,
      "▁swinging": 8990,
      "▁\"Hirond": 8991,
      "▁pain,": 8992,
      "▁half-p": 8993,
      "▁subord": 8994,
      "▁capacity": 8995,
      "▁supper,": 8996,
      "▁committed": 8997,
      "▁keeps": 8998,
      "▁raven": 8999,
      "▁Step": 9000,
      "▁Strem": 9001,
      "▁spoke,": 9002,
      "▁black,": 9003,
      "▁immob": 9004,
      "▁drawers": 9005,
      "-be": 9006,
      "▁ideal": 9007,
      "▁questions,": 9008,
      "▁'Yes,'": 9009,
      "▁devotion": 9010,
      "▁Frou-Frou": 9011,
      "▁difficulty,": 9012,
      "▁bell,": 9013,
      "▁school.": 9014,
      "▁dreaming": 9015,
      "▁landsc": 9016,
      "▁No.": 9017,
      "▁appearing": 9018,
      "▁second,": 9019,
      "▁woods": 9020,
      "▁daughters": 9021,
      "▁crowd.": 9022,
      "▁visiting": 9023,
      "-fl": 9024,
      "▁exclaimed.": 9025,
      "▁hunger": 9026,
      "▁Jean": 9027,
      "▁syll": 9028,
      "▁understood,": 9029,
      "▁respectful": 9030,
      "▁provincial": 9031,
      "▁case.": 9032,
      "▁concert": 9033,
      "▁trouble,": 9034,
      "▁garden.": 9035,
      "▁pillory": 9036,
      "▁strengthen": 9037,
      "▁wrong.": 9038,
      "▁dog,": 9039,
      "▁reflections": 9040,
      "▁suspect": 9041,
      "-door": 9042,
      "▁closed.": 9043,
      "▁remarks": 9044,
      "▁o'clock,": 9045,
      "▁anxiously": 9046,
      "▁ironical": 9047,
      "▁warmth": 9048,
      "▁balls": 9049,
      "▁belonging": 9050,
      "▁spectator": 9051,
      "▁servants,": 9052,
      "▁Moscow.": 9053,
      "▁gypsy's": 9054,
      "▁Bessie,": 9055,
      "▁senses": 9056,
      "▁announce": 9057,
      "▁strangers": 9058,
      "▁discussed": 9059,
      "▁audience": 9060,
      "▁engra": 9061,
      "▁acquaintances": 9062,
      "▁salary": 9063,
      "▁Lynn": 9064,
      "▁Turovts": 9065,
      "▁Rouen,": 9066,
      "▁flee": 9067,
      "▁dimly": 9068,
      "▁descending": 9069,
      "▁Mikhaylovna,": 9070,
      "▁kitchen,": 9071,
      "▁confession": 9072,
      "▁advantages": 9073,
      "▁rich,": 9074,
      "▁pavement,": 9075,
      "▁pavement.": 9076,
      "▁circumstance": 9077,
      "▁circumstances,": 9078,
      "▁'Please": 9079,
      "▁electric": 9080,
      "▁impatience": 9081,
      "▁river,": 9082,
      "▁astonish": 9083,
      "▁history,": 9084,
      "▁depends": 9085,
      "▁pause,": 9086,
      "▁gratitude": 9087,
      "▁Katavasov,": 9088,
      "▁urg": 9089,
      "▁represented": 9090,
      "▁victim": 9091,
      "▁assistance": 9092,
      "▁withdraw": 9093,
      "▁warning": 9094,
      "▁arguments": 9095,
      "▁falsehood": 9096,
      "▁Miller": 9097,
      "▁rubbing": 9098,
      "▁grimace": 9099,
      "▁exchange": 9100,
      "▁'For": 9101,
      "▁turb": 9102,
      "▁revolt": 9103,
      "▁restrain": 9104,
      "▁cherished": 9105,
      "▁agriculture": 9106,
      "▁Titore": 9107,
      "▁definitely": 9108,
      "▁prisoner": 9109,
      "▁reconcili": 9110,
      "▁incessant": 9111,
      "▁ribbons": 9112,
      "▁adopted": 9113,
      "▁Ryabin": 9114,
      "▁puzzled": 9115,
      "▁Zem": 9116,
      "▁Gladi": 9117,
      "▁Coppenole,": 9118,
      "▁female": 9119,
      "▁obvious": 9120,
      "▁article": 9121,
      "▁mantelp": 9122,
      "▁tossed": 9123,
      "▁Messire": 9124,
      "▁achieve": 9125,
      "▁snatched": 9126,
      "▁medium": 9127,
      "▁luxur": 9128,
      "▁degrad": 9129,
      "▁venge": 9130,
      "▁bellringer": 9131,
      "▁library": 9132,
      "ICH": 9133,
      "▁prodig": 9134,
      "▁Captain": 9135,
      "▁People": 9136,
      "▁ceiling,": 9137,
      "▁Lefrancois,": 9138,
      "▁Often": 9139,
      "▁Barbara": 9140,
      "▁Shcherbatskys'": 9141,
      "▁skelet": 9142,
      "▁invisible": 9143,
      "▁Slav": 9144,
      "▁Huckleberry": 9145,
      "▁Saturday": 9146,
      "▁Bertaux": 9147,
      "▁superintend": 9148,
      "▁irregular": 9149,
      "▁Chantefleurie": 9150,
      "\".": 9151,
      "-e": 9152,
      "ME": 9153,
      "RONSKY": 9154,
      "cking": 9155,
      "dened": 9156,
      "glas": 9157,
      "hind": 9158,
      "mony": 9159,
      "rain": 9160,
      "rus": 9161,
      "ton,": 9162,
      "vos": 9163,
      "yss": 9164,
      "▁tro": 9165,
      "init": 9166,
      "▁wart": 9167,
      "▁hier": 9168,
      "atively": 9169,
      "▁mason": 9170,
      "▁faster": 9171,
      "▁ferv": 9172,
      "▁faded": 9173,
      "enn": 9174,
      "es!": 9175,
      "orge": 9176,
      "▁pip": 9177,
      "▁ine": 9178,
      "▁init": 9179,
      "▁gau": 9180,
      "ication": 9181,
      "icial": 9182,
[...]
